t h
i n
e r
a n
th e
o n
e d
r e
a t
o r
e n
s t
a l
a r
an d
o f
a s
e s
i s
in g
t o
i t
o u
i c
i on
h e
l e
r o
a c
i l
en t
a d
s e
a m
o m
b e
l y
c h
u r
w as
f or
d e
v e
T he
o l
i r
i m
- @
@ -@
i g
v er
o w
w h
u n
t er
i th
a y
c e
at ion
c on
th at
w ith
a g
c t
i d
t e
u s
b y
e l
u l
r i
o t
er e
a p
re s
e t
1 9
o p
a in
c om
ro m
er s
p l
u m
u t
a b
ou n
al l
0 0
h is
m o
i st
s u
a re
f rom
p e
p ro
I n
s h
n e
l i
t r
at e
c l
o s
th er
ar t
i es
e m
w ere
o d
on g
ig h
e st
e x
a k
o c
il l
ar d
l d
ic h
a st
is h
d i
b er
an t
g h
it y
or t
am e
at ed
p er
m an
es s
i ve
q u
m ent
al s
ou t
f e
ac k
en d
v i
h ad
on e
e ar
t w
o ver
ou gh
ou r
h a
wh ich
or d
r a
g e
oun d
n ot
in e
r it
b ut
al ly
as s
g r
u d
i f
i p
ac t
i v
it s
C h
i an
st r
igh t
ar y
h er
d u
f ir
ow n
2 00
a v
a f
u p
ou s
p o
2 0
b l
o re
com p
p ort
S t
l and
e w
d er
e v
ac h
s i
the ir
e p
ic al
fir st
w or
ou ld
ag e
i a
p r
l l
b o
a u
it ion
als o
t im
l ow
ct ion
p t
l o
for m
at er
s c
ig n
h as
s er
u re
k e
at t
in t
i al
re c
pl ay
ha ve
o ther
H e
1 8
wh o
o k
r an
om e
p art
en ce
g u
be en
tw o
re e
con t
. @
@ .@
p res
a w
ur ing
of f
d is
i le
or y
th is
s p
m e
I t
d es
ad e
ul t
it e
p os
y ear
the y
com m
20 1
c re
ve l
A n
el l
T h
w e
af ter
an s
f in
re n
c ent
o g
v ed
b r
in cl
ation s
u e
ab le
, @
@ ,@
ic e
wor k
ur n
e ver
ac e
n o
p re
r ic
ar k
m er
i z
tim e
U n
f f
en s
c o
s pe
an ce
in to
ion s
mo re
sh ip
an y
oun t
c es
mo st
am p
a th
c ed
in ter
s he
te m
r ed
as on
w ould
A l
con d
h im
ol d
p h
an n
us ed
m ain
an g
it ed
ct ed
i re
ing s
as ed
f l
i e
f ore
be c
m on
m in
incl ud
th ough
at es
ic t
A r
a ir
w ay
A u
ro w
ver s
ne w
v is
a il
r ough
o od
f t
ak e
b u
o b
as e
r y
ic k
ent s
c ess
s ong
il d
on ly
wh en
ar ch
g an
un der
u bl
re g
b le
the m
is s
or s
l es
c ol
o se
E n
d uring
d ay
in d
k n
re t
g ame
s on
er ed
R e
il m
w ard
e en
g en
r u
c an
ol low
ou th
ab out
i de
19 9
t s
se ason
th an
n or
t en
l ar
o y
s ome
er n
w rit
s y
ch ar
wh ile
ag ain
th ree
str u
ation al
ul ar
C om
t y
O n
s o
f ul
W h
tw een
be tween
n um
pro du
rec ord
r on
th rough
t ed
at ing
wh ere
A s
i ed
l ater
1 0
re le
spe c
vi ew
am es
f ilm
t on
con s
e le
e f
re l
c k
A f
u st
ish ed
se t
m ade
L e
su b
ur y
m y
the n
N ew
l ed
d o
a id
mer ic
A meric
b um
oc k
in s
se l
m a
ap pe
s ing
00 0
J o
f ollow
g o
ter s
h igh
se cond
su ch
ro p
v ing
f our
c ap
ar i
p ubl
j e
ic s
1 6
m ed
w ell
i el
b ack
A t
m us
D e
il y
T his
u al
if ic
c all
. .
v en
al bum
be fore
m i
c ri
c ur
f er
he l
ur ch
ar s
su p
f ound
1 2
En g
be ing
N o
u b
th ere
year s
at ive
s ur
1 5
ar ri
in n
ow ever
p ar
u se
al e
1 7
an e
ad d
man y
kn own
si de
l ong
li ke
num ber
l oc
a ve
N or
po int
ir d
it ies
ro s
ser ies
vel op
ol og
au se
re at
m ber
in ce
un t
or n
ce pt
l ine
C on
in es
ch o
bo th
se ver
en g
h n
p op
di re
is e
B rit
ep is
ment s
includ ing
at ch
d own
ig in
again st
o de
bec ame
u ary
ou p
char ac
S h
res s
I I
fe at
id ent
c i
19 8
c er
e k
on d
t ain
iel d
3 0
B e
p ed
des cri
R o
appe ar
o st
Un ited
is ed
c le
te am
Jo hn
de c
u res
h y
r un
su c
b ed
de velop
per i
cent ury
sh ow
Af ter
h ist
le ad
m em
cont in
u ch
st or
tr ans
or igin
he ad
l an
m ill
p ol
19 4
le t
st e
op er
w est
le y
d am
b all
v es
ro ad
s ign
s m
sever al
di ff
m ay
be gan
19 6
u ally
S he
er al
19 7
B r
un e
je ct
re main
c ord
S e
ne ar
ear ly
pres ent
w ar
c rit
m et
n am
c over
end ed
a z
c y
c ould
d id
M ar
m s
call ed
tr y
W or
epis ode
i o
le g
p or
de p
op le
sel f
F or
i b
re ce
al ong
ak ing
v id
lar ge
as h
I s
d ist
g g
v al
1 3
m il
M ay
p ass
s aid
Americ an
in k
es e
pres s
gu st
ers on
suc cess
to w
the se
iz ed
n ow
op en
gr ap
1 4
c a
t ri
G er
st em
f am
ri st
Brit ish
5 0
mus ic
unt il
c ity
st art
over n
ros s
comp le
rele ased
x t
G r
l ess
it t
s ame
ther n
iv ed
v ol
ist s
a h
s im
j or
ret urn
pl ac
i ous
k m
The y
st ate
an k
are a
des ign
re ad
oc i
mill ion
ou se
fe ct
form ed
m en
bec ause
o ot
ow er
e ach
W ar
off ic
C ar
c he
en n
Au gust
l a
c oun
vi de
com e
S ep
ser v
d r
li fe
e ast
pe ople
cho ol
p le
c ar
n ational
bo ok
r is
b od
ro te
str al
l ight
si x
E u
sup port
f ield
J u
C ol
a ther
gr oup
i ver
ar ound
to p
ur ed
F e
is ion
H owever
P l
v ent
d om
s ol
m ark
pro te
nor th
cons id
charac ter
att ack
al es
tem ber
Sep tember
w ill
contin u
sm all
g et
ex t
B l
pos ition
re st
follow ing
gr ound
Wor ld
o th
U S
f un
st ud
cont ro
Au stral
ver y
in a
l ish
re qu
H er
i vers
ur al
f ive
st and
ion al
res ult
a im
t it
b ers
at ter
tr ack
g y
ag ue
ct or
m iss
p on
de f
wh at
n ame
cord ing
1 1
b re
ag ed
Nor th
G u
M e
F ran
re port
g un
ir ed
is m
W il
c r
c ut
on y
p rom
play ed
J une
all ow
c our
t al
we ek
g overn
l ate
as k
ag es
om an
0 s
h am
O c
c are
y s
vis ion
c ast
M an
2 5
J an
d ra
fin al
publ ic
ate ly
s ince
St ates
A c
C l
im e
spec ies
ma jor
in ed
re ach
c ount
l ing
ain ed
s outh
rece ived
M on
S outh
ch ild
ap p
ev en
bu ild
l ist
l ast
to ok
ap pro
cl ass
part ic
b att
w on
il ity
Ch rist
j ust
st ar
sy stem
K ing
g re
or gan
or k
ward s
os s
v ari
il t
descri bed
P ar
in c
ain s
wor ld
nam ed
tow n
pl ace
g iv
ard s
to ber
Oc tober
b and
mo ved
A ll
p ri
er y
con stru
li am
u te
w ater
in cre
u de
vi ous
rop ical
a ur
ant s
et s
k ill
se qu
w rote
Y ork
Ju ly
c amp
h and
C an
i x
du e
W est
at s
or ed
a e
row n
i um
D uring
m uch
f ur
p ower
sing le
A pr
Apr il
ent ly
on s
at ure
tem pt
h um
ic ally
.. .
diff er
de ath
Eu ro
it al
ord er
h al
o ve
M c
tr a
gen er
Ger man
an other
19 5
ship s
sh ort
includ ed
S c
ar m
em ent
ev ent
S te
p erson
r ight
Jan uary
est ab
ak es
with in
Eng land
pe ct
ian s
s ent
le ft
b ased
c as
bu ilt
f all
be li
cl aim
al though
at tempt
if ied
fam ily
G e
M arch
h ome
g ames
th ird
en se
qu e
j o
t urn
be st
de st
No ve
s chool
pre vious
t ing
ro y
a x
st ory
ul ation
19 3
ex pl
Nove mber
re view
il ar
An d
i ally
is su
peri od
H is
B y
op s
fl u
govern ment
Euro pe
st er
P r
S p
ad v
ch an
m ar
l s
De ce
m ake
A d
m b
us ing
Dece mber
th ose
P ro
W e
stor m
ur ric
k ing
r al
us h
av y
Th ere
re f
ch ed
n ess
st on
C ity
a i
re al
origin al
ough t
comp any
l er
b ro
comm and
f act
m atch
en ces
f ac
et y
mon th
Wh en
O r
it ary
au th
2 4
st it
tr ad
L i
gr am
af f
st ri
N ational
oun g
B o
P h
200 9
s k
cl ub
vide o
z e
2 6
200 8
ra ft
201 0
ren ch
col le
2 1
ch urch
tr act
R iver
th ing
id es
iv ision
2 8
ro le
l im
m ag
st ill
2 3
ar n
for man
mo ve
end s
ivers ity
play er
pos si
C o
m p
ens ive
m id
loc al
G en
P e
g ed
In di
add ition
D y
1 00
c ame
of ten
vers ion
p ut
v o
un d
hist ory
id ge
ak en
s ite
form er
ber t
s ay
qu ar
hal f
dra w
f el
urric ane
s ou
gg est
in it
l or
d en
end ing
continu ed
h ouse
r ound
al i
ut ion
bod y
consid ered
In ter
inn ing
su ggest
ne xt
200 7
ef fect
O ne
m and
ar ed
ri but
re fer
f ri
sim ilar
plac ed
record ed
Eng lish
publ ished
F rench
im port
fe w
care er
w ind
he ld
be g
B att
P er
ast er
T e
at or
per forman
t ake
ch ang
produ ction
E ar
ic o
im es
pos ed
grap h
differ ent
st y
ain ing
comm un
p s
for t
b ar
c raft
W ith
B ar
y ou
ou te
with out
amp ion
song s
f r
writ ten
2 7
act ion
pol it
M us
for ce
ev ed
str ong
am ong
stru ct
w ood
le vel
2 2
S er
g l
for d
St ate
i k
se ven
im ent
T r
day s
ever y
ste ad
wh ite
Ch ar
olog y
f ire
w in
it er
it ar
D ivision
201 1
lar g
rele ase
b ird
f oot
t ropical
fur ther
fin d
be come
200 6
Ac cording
Ch urch
Al though
Can ad
h owever
te st
auth or
er ing
pr of
c or
p ite
au gh
res pon
partic ular
h ow
o x
w ide
P ort
tit le
f an
te le
T w
h old
n ing
mil itary
M o
R oman
mem bers
Le ague
pop ular
dire ct
c ial
c ult
s it
iv es
ction s
it ch
om in
hist or
itt le
u di
id ed
ic es
tim es
S ong
p en
br uary
Fe bruary
cle ar
P ol
u c
in du
mo der
lo st
sc en
b ur
Ge or
g ave
n a
produ ced
success ful
report ed
pro vid
Dy lan
M iss
di vid
ser ved
P ark
po st
ition s
am a
n ight
to tal
D es
f lo
b as
se arch
su re
aw ay
201 2
O ld
ive ly
comm on
r ad
ne y
Com p
n et
ist er
de cl
child ren
giv en
ch n
ap an
H a
se en
for ces
S im
f ron
at ic
to ur
cept ion
se e
f ace
g es
v ict
st ated
el s
ha ving
cl ose
crit ic
J apan
om en
ab ly
ail ed
t ro
st re
pl an
ex p
incl ude
2 9
T o
in vol
re present
C ount
g ar
m aking
in flu
cap t
N e
g reat
w ant
al ion
ed er
M a
Af ric
coun try
y oung
comp et
way s
pl oy
c us
i er
te ll
man ag
C ent
lo ok
sign ific
com b
pro gram
Gen eral
H ar
an ces
ant ic
land s
no vel
e qu
our s
201 3
p ur
int ro
contro l
4 0
f em
m m
oc cur
sc ri
A ir
w ent
w ord
ne ver
ren t
V i
r ap
om et
pro ject
comp os
dep end
B C
constru ction
l ished
sh ould
bo ard
chan ge
ra ised
act iv
Wh ile
mi x
D av
l aw
writ ing
Sc ot
s oci
x im
return ed
S u
f ather
op e
work s
Un iversity
develop ed
b or
ch art
are n
estab lished
k s
s ound
19 0
ke y
E d
d ri
g od
ith er
Th ese
ann oun
Americ a
ro om
pop ulation
I re
n er
ad es
intro du
J ack
m it
com ing
am b
reach ed
C or
K e
i ent
ear li
ran ge
not ed
Ire land
ag re
Bl ack
ig ade
though t
um ent
build ing
ac ross
ty p
through out
ond on
M ich
ain t
ce ll
hum an
L ondon
h ip
s um
E x
E ast
te en
Wil liam
fel t
g ood
on es
ac y
ful l
b urn
ar a
him self
Re g
develop ment
B er
bl ack
med i
olog ical
W al
in ess
n d
per formed
f le
comple te
su ff
set t
Austral ia
import ant
signific ant
e ight
l ay
6 0
cover ed
iv il
At l
mil es
M ag
i or
o v
un g
li ve
R ich
S y
b us
dest roy
moder n
n u
an a
it ive
inter est
tele vision
P al
R oy
r ing
vari ous
sty le
are as
pr im
fron t
appear ed
re w
di ed
a ign
c ing
c il
ne ed
ree k
og n
rel ation
T V
ag o
oth ers
m arri
ro ck
ev ents
do es
ot s
ab or
Ro ad
a ver
d a
m un
to o
se x
te chn
ap point
start ed
id ence
play ers
miss ion
H igh
J ames
f ig
om b
ge ther
P o
is on
ic ult
fe et
re en
st ant
ex peri
in o
it ing
po em
iz ation
Mon t
M ount
i ble
n al
v ill
in ation
performan ce
Count y
b es
s l
ca used
is ing
al th
pr ed
form ation
18 9
A b
Y ou
E l
P a
k ed
qu ad
i fe
m ount
gr ad
H am
b orn
os aur
co ast
h ind
al ity
cre ated
Ph il
scri pt
200 4
amp le
rel ig
r ul
ent ire
ul l
ab ility
200 5
in v
er a
ver t
polit ical
S o
f ar
v an
mo ther
charac ters
c ir
the ast
al y
S ci
ion ed
le ct
S om
t aken
f ight
s w
st one
batt le
f av
on ce
ex ist
T own
c op
as ing
us es
ard ed
C are
H ist
y ard
an im
con ne
loc ated
kill ed
a el
l ines
u es
il le
remain ed
g row
u ck
trad ition
r ain
s ess
be t
de but
kn ow
comple ted
Mus ic
F eder
sc ored
ubl ic
diff icult
gun s
King dom
h ar
t ar
camp aign
announ ced
C up
h ost
p ing
st ars
ap e
me et
Gr and
Austral ian
st at
pe ak
reg ion
h ab
n ames
or ies
be l
An g
S un
pro cess
go al
Comp any
l ittle
in stead
add ed
bre ak
en ced
mem ber
ele ct
possi ble
g in
st udi
ve st
reg ular
press ion
v oc
w ife
is land
le ast
follow ed
or se
p air
to gether
ap er
c ause
t re
origin ally
month s
sou thern
m ot
m ass
n on
n ed
com ment
Ar my
B ra
S ome
i que
k y
l oss
w all
res ident
ass oci
stud y
Dav id
B ill
f if
ot a
play ing
c ru
h urricane
s port
w omen
en ed
Fran ce
E v
b road
g ot
re li
rec ogn
cons ist
open ed
3 5
ter min
east ern
c arri
at a
crit ics
Ch ampion
200 3
b ase
os p
Ro bert
event ually
prof ess
L ove
e y
h o
od es
est im
feat ures
cer t
G od
M in
d on
m ph
201 5
cre t
S A
four th
D u
V al
r oute
dec ided
bird s
v ir
for ced
cl os
av ing
tem por
Tw o
s aw
ac cept
comm er
point s
grap hy
in al
ill a
l ack
dam age
s old
ic a
ic ated
he avy
im pro
lead ing
az ine
d ed
e ither
p at
cur rent
Batt alion
H en
M i
S w
se par
pro ble
form s
ric k
writ er
c up
n ar
p ie
be hind
fin ished
fri end
3 1
d ou
u g
in divid
beli eved
Care y
M ad
P art
d le
spec ial
liam ent
claim ed
vi er
cond om
M or
R ed
m ater
id a
res pect
appear ance
Roy al
ign ed
Pl ay
2 nd
A m
M ed
s en
s our
ll ed
fan try
8 0
M ex
em ploy
ex ample
St re
cent ral
lan gu
serv ice
D ay
y ards
al most
ing ton
av es
Wh ite
dire cted
west ern
7 0
G ame
c ase
l in
com pl
comp an
vi a
Europe an
at ors
te l
ant i
me an
gener ally
Feder er
c ul
h on
to wards
ele ments
A ct
he el
ri ver
gen eral
O li
c ross
t ail
ur b
ter m
con cl
ass ist
str y
low er
br ought
Br igade
read y
week s
W ales
f ly
st age
ce ed
up on
sp ir
hel p
Inter national
F lor
S an
in ch
high way
la un
R ep
f ree
p ly
de fe
ot ed
dire ctor
feat ured
Vi et
I r
O ther
d ate
l am
air craft
sur vi
C r
n ine
M y
r ation
re search
con tract
ord an
u k
ra il
appro ach
S tr
st s
id s
mo de
oc ial
me as
ict ion
4 5
A p
g ress
con du
part s
Geor ge
provid ed
F ollow
G al
re ve
red u
flo od
J ordan
se a
allow ed
A A
F rom
R ock
n at
ist ic
au di
H o
J ew
se m
se ction
Th om
ci ally
cer tain
earli er
Pa ul
H ouse
at in
col l
use um
M ac
r id
re ason
ou ri
ra ther
201 4
work ed
sub sequ
fem ale
Atl antic
C ap
F ir
d y
ish ing
pr act
lo ve
open ing
Christ ian
M ary
cre w
work ing
II I
oper ations
larg est
vict ory
Follow ing
3 8
B ay
ran g
Com mand
Is land
Her o
particular ly
want ed
manag er
P ri
d ing
f oc
ar ies
19 th
stand ing
tra vel
jo ined
tro ops
D on
p ers
te e
nor thern
cour t
V er
a ult
l eng
th od
5 00
st ren
he st
ev idence
g ra
qu est
Flor ida
con om
em y
eng ine
coun ter
Stre et
p ast
it a
su per
out side
18 5
say ing
M ost
m ach
in j
ac count
iv al
cy cl
M ark
Z e
m al
er ous
issu e
Te ch
h ours
t ies
ent ial
wh om
stren g
al d
se ll
av ail
min ist
Miss ouri
F A
t or
one y
200 1
18 8
leng th
d rop
g old
h ous
st ay
de al
ter rit
ap s
pl ann
quar ter
m ing
th ink
st ation
pro b
vi ol
Q u
T or
k en
n omin
ac c
am ent
ty pe
al ter
ar gu
le arn
se em
qu ick
po or
po ol
B el
V ir
t ic
so on
design ed
C am
D ep
G l
b ill
d ol
h ib
am ount
if y
ran ch
foot ball
C ro
C oun
p an
p raised
al and
B est
e cut
m el
m ult
p ain
s po
de li
fl ight
go als
remain s
Fir st
p has
u el
Mich ael
3 6
B us
r ace
pl es
press ed
offic ial
wind s
appoint ed
D r
H el
b i
c ivil
ab ove
dis cus
incre ased
E gy
a ut
f re
h om
i als
ig g
previous ly
H ill
in vest
re placed
to lo
un its
9 0
d s
t aking
st op
pass ed
ribut ed
Rich ard
7 5
Q ue
h ere
m ust
18 6
inter view
main tain
sign ed
bus iness
relation ship
sh ot
iz e
go ing
struct ure
Des pite
Hen ry
h ig
p ond
be ll
ul a
Canad a
estim ated
H ol
b ow
b ri
h ard
t i
v ice
th reat
Car ol
b ound
o to
t reat
v ille
it z
ac es
ol ic
com es
quad ron
B rown
n ative
r ay
at ory
or ing
spec ific
sit u
Old ham
invol ved
avail able
B ut
E m
s at
s omet
in st
to ld
Japan ese
hig hest
P resident
T imes
sy n
estab lish
mix ed
T er
ir th
un k
ut es
si a
pt ion
suggest ed
R es
c ern
h it
s es
th us
to uch
ic ation
ct s
act ions
inn er
turn ed
scen e
introdu ced
b it
g ive
s ch
w atch
le ague
ent ion
us ually
like ly
Indi a
Indi an
Oli vier
G old
L ater
N Y
S chool
it self
am i
pro per
ann a
Ar ab
trans port
Mex ico
C ong
P ac
ent er
respon si
aver age
Ir ish
R ac
c al
r ate
ed uc
um e
li e
oc cup
bl ock
St ar
Su per
Egy pt
R ose
S m
l os
us ion
ron ic
trans fer
dam aged
lim ited
M os
ha ir
si ze
who se
comm iss
record ing
possi b
vill age
p ot
w oman
z z
for ward
ri es
pre par
hab it
Thom as
f ru
h ol
h app
ar ing
res pond
ord ered
appro xim
relig ious
J er
P re
W heel
o id
p rec
te xt
art s
sp ace
tempor ary
H all
M al
M id
ch ap
int ens
ict ed
ob ject
Brit ain
show s
mark ed
commer cial
Rep ublic
C er
s ocial
y er
in depend
at ers
al ed
ar ily
le cted
cap ital
incre asing
H urricane
ed ing
Gu itar
M any
T om
e conom
l ot
n y
the dr
od y
fe el
des pite
arch ae
near ly
list ed
chang es
M er
n ation
Un ion
Pe ter
commun ity
Ze aland
f ut
de fin
ag on
pe cted
ate g
inter national
sur round
ask ed
L aw
d augh
m ight
st ates
im medi
ex c
bo x
sc ore
co st
ines e
init ially
J in
d oc
w inning
al ready
il ities
ct ive
ex ecut
comm it
Th at
pre vent
rel ated
partic ip
1 st
C ard
H u
N A
a by
f ailed
s al
en j
ad y
ne st
Ch inese
Ear ly
Champion ship
Pac ific
4 8
C ath
S ing
r d
es pe
ac cording
li es
tr aining
oc cas
br idge
langu age
prob ably
espe cially
f ood
n el
et t
200 2
ev ol
sp ent
co ach
min or
vis it
3 3
D an
T ri
m ic
n ia
ur t
mo ving
ph ys
studi o
nat ural
Wheel er
S ch
i res
l iter
p ay
in ated
re am
ak er
includ es
arri ved
pri v
Hist ory
3 9
A wards
B al
U K
l atter
en ough
ar my
ac qu
de ad
ton s
ste in
remain ing
quar ters
Canad ian
Ang el
thedr al
4 7
N avy
f ail
j our
m ale
ap t
not es
act ive
pr int
ie f
somet imes
O ff
b al
m is
r up
it es
um p
av en
18 7
Ar ch
As soci
sol di
requ ired
review s
cir c
approxim ately
F ilm
J e
L ight
a j
b ot
m at
im p
ud ed
cent er
ric s
F I
b en
c ou
s low
en tolo
ly mp
per form
200 0
dec ision
beg inning
Afric a
O lymp
ful ly
fer ence
run ning
Vir gin
C reek
R us
b irth
g a
Sci entolo
bet ter
defe ated
f low
m or
w he
st aff
and er
addition al
Reg iment
L o
O t
b s
as y
con cern
pres ident
pos itive
Ar t
respon se
Rac hel
P enn
b io
ke ep
ide a
stud ents
constru cted
larg er
fle et
A ward
h ou
m as
z y
con f
ap pl
av al
po et
ific ation
support ed
Col le
Mc C
mag azine
chang ed
L u
S ou
f requ
o res
de pression
ass igned
po se
pres sure
pol ice
pri or
Char les
agre ed
u als
st ra
am ed
ce le
osaur us
mater ial
s il
s qu
as es
ac cess
te ach
sh own
sc reen
199 5
Bill board
F ort
m ir
p et
ro ll
um ents
play s
dis covered
sub ject
sel ves
feat ure
ris on
fif th
broad cast
fut ure
i us
con tr
pro vide
Un der
I m
p itch
r at
or m
ce an
ex am
Scot t
3 7
O per
R A
R oute
k an
en on
be coming
if a
tem per
B ri
S am
T ur
c m
f ill
ot ion
ish op
col on
sur face
West ern
sum mer
p aren
ed y
se y
de feat
ep t
int ended
W ood
g al
u ter
ra el
oper ation
small er
Fran k
profess ional
G reat
N ot
f ell
g er
l ink
ver se
id ents
per cent
group s
fav or
Scientolo gy
Y ear
c red
i h
ch ampion
ap o
di v
po le
most ly
them selves
met res
ali for
refer red
rad io
Ha ifa
C amp
S pe
f a
g ent
m akes
or ial
il i
se cur
ate st
off ice
201 6
min utes
med ia
stit ute
capt ured
Cro at
H ow
S ince
V ar
v ic
ent ered
de mon
tr ay
ind ic
large ly
Par liament
proble ms
Associ ation
4 9
D el
M il
c oup
s end
ve ston
res er
art ment
bl ed
ran ked
C he
L ord
S ur
g ir
th ick
re in
ous ly
je cted
loc ation
orn ing
Is rael
mark et
Ear th
discus s
C alifor
G ul
L and
M L
r or
at o
ent y
ers hip
ian o
pr ing
cont ains
ric t
fl ict
stor ies
clos ed
O ver
m oney
199 9
appe ars
Be y
vo ice
experi ence
Coun cil
B ro
H aw
n ature
y n
ad op
ag ing
gu itar
rel ative
mus ical
effect s
Gal veston
bri ef
A le
h op
er gy
re me
se cut
de v
19 50
ear th
gr ant
Ch ic
cre ate
crit ical
major ity
Jew ish
K h
en cy
iv a
Re cord
cult ure
j ud
u gu
le aving
ele ction
ari o
marri ed
sch ol
b on
r are
at tract
de part
ve y
port s
St ation
lo ad
An other
run s
Br ad
prim ary
C a
h us
th row
al ways
ly rics
li ved
up per
min ute
writ ers
film s
offic ers
cour se
god s
if f
mit ted
sett le
osp ital
laun ched
Califor nia
F ore
L a
S to
w ing
de ep
de termin
tr aff
ill ery
team s
ony m
equ ip
quick ly
Cath olic
7 6
I f
M r
S ol
S ha
f ans
in sp
ul ated
pro posed
ne g
em er
me ant
epis odes
occur red
Chic ago
G o
S aint
n is
t akes
in ing
con v
pro gress
ex per
ach i
sy l
incre ase
Batt le
fight ing
daugh ter
whe ther
B ow
L atin
M art
m ur
on to
ad minist
el low
fe cted
It al
nor theast
ci ent
book s
consid er
stre am
destroy ed
mean ing
traff ic
C al
D o
N ix
S al
T our
b ad
j ob
n s
and on
tr ade
her o
br ing
En ter
long er
Cent ral
4 00
L ou
R oss
S ever
m om
p ath
s us
w al
the me
um b
vi e
Al ice
num bers
Nor thern
position s
und red
compet ition
nu cle
carri ed
soldi ers
D j
N C
T ex
k il
m ig
le ave
se mb
ol k
aw arded
ang er
new sp
cele br
3 2
3 rd
M ill
P at
p it
z a
pl ot
bo y
199 8
direct ly
pie ce
condu cted
priv ate
Ot to
D is
O s
T re
an al
is er
it or
ear ned
over all
wor th
gu e
Al kan
record s
Se cond
attack s
requ est
subsequ ently
C our
L iver
V illa
to m
to urn
it ation
19 30
pl ans
20 th
we ight
bod ies
issu ed
4 4
T y
at ops
con cert
ne cess
who le
199 3
Pol ish
indu stry
influ ence
comment ed
dou ble
J am
T ay
T ran
d one
w aters
ó n
in y
im age
act or
ser ious
fin ally
Nix on
Liver pool
an ish
se ts
be at
ab s
all ed
comp ared
me thod
fin an
gre ater
person al
scen es
Geor g
net work
Som er
B ack
L ady
b omb
c ad
p ow
p urch
an as
be y
un able
con cept
su it
pr ison
part y
It s
cent re
spe ed
leg al
itt ing
Tex as
F ow
F oot
H um
d ig
he alth
de b
ist ics
ex pected
dis cover
ail y
mi um
stand ard
build ings
bro ther
rap id
Mos ley
Somer set
3 00
T ropical
b ury
h ood
k ind
y et
st ep
sh oot
adv ant
stit ut
B ob
B oy
O ut
S quadron
T enn
c u
c é
d ark
in formation
al o
li ving
ber y
199 6
beg ins
tradition al
Bus ch
D i
L ake
R am
b ank
k ick
es cap
ic an
ter ms
pos sess
giv ing
augh t
stat us
syl van
V ict
h or
ed ge
with draw
ul tim
port ion
Christ mas
Sp anish
move ment
Afric an
marri age
fig ure
insp ired
Tay lor
F le
M et
d ated
p il
w a
ath an
hel ped
por tray
activ ity
associ ated
plann ed
dol lar
Sever al
Fow ler
T em
b atter
h ic
m es
s ched
ch all
for ts
de mand
Th ree
we b
reg ard
Com mon
start ing
track s
sequ ence
school s
suff ered
So vi
hus band
semb ly
F in
I ll
J ust
T ru
f it
r am
w ound
ol f
un it
con flict
ct ing
In fantry
sh ire
ven ue
allow ing
performan ces
sour ce
mach ine
3 4
G ames
J ane
ed eral
ar c
ab andon
contin ue
present ed
inc or
Ser ies
exp and
Part y
condom s
L ive
b id
g as
p i
r ical
s light
á n
at re
pres ence
ph oto
pol ic
gre atest
compan ies
educ ation
C ast
L ong
M S
e u
h u
h undred
p ark
con fir
ex cept
near by
Par is
And erson
Carol ina
doc ument
Virgin ia
Penn sylvan
O pen
R ad
V en
r ich
il s
ad a
pro v
ant a
lo g
gen us
comple x
ext ended
Ac ad
Cl ub
colle ction
compos ed
typ es
cycl one
Que en
A I
F re
S ix
i ence
k er
m ist
p ick
r um
it ude
de m
pl ant
ess a
over nor
ite ct
we ap
ann ual
met al
serv ices
Me yer
command er
fri ends
fig ures
Colle ge
B A
L an
W ater
th ings
on cé
re ally
ou d
he av
ac ing
ad o
ip le
199 7
num erous
produ cer
ca thedral
streng th
territ ory
Bey oncé
Otto man
J ose
M useum
N ico
m outh
t a
t ax
er r
ro t
ur ies
um ed
ut ch
art ist
some thing
Ger many
prote ins
Jack son
voc als
Mi ami
individ ual
enj oy
E ver
N ations
b ing
p son
The ir
mo le
di vision
ip al
Se a
attack ed
issu es
Ser vice
nu clear
tar get
invest ig
M inn
S oci
c at
k i
m orning
in ent
de tail
est ival
ord ers
act ing
own ed
sc ient
Th rough
ren der
ob serv
high ly
dist in
attempt s
init ial
responsi ble
5 th
6 th
C rit
C ross
L os
M em
c is
e c
h orse
an ced
the s
as pect
ad ium
be er
ve ment
art illery
rec over
off ered
dis e
sy mb
Pr ince
ribut ion
immedi ately
Pennsylvan ia
F l
W el
f ast
p un
p iano
in side
re ct
re moved
om er
gr and
bl ood
stru ction
15 0
sever e
dist ance
stud ies
Ma jor
sex ual
situ ation
D ou
G reen
S ir
s pl
and id
se lected
od on
Ch ris
St orm
ru le
then s
che ster
vari ety
adv ance
Scot land
need ed
peak ed
hous es
Vict or
B u
B oth
H ot
P en
l ers
p ul
en ing
ous and
port un
sc oring
me ans
199 1
view ers
head quarters
Col on
count ries
attempt ed
cop ies
mur der
Foot ball
4 6
d ro
g ain
h i
l b
qu al
Ch ina
appear ances
cas ual
wide ly
respect ively
Sm ith
G overn
e ve
al ty
se cret
ew ay
ev es
spe ct
ann el
high er
descri bes
mid dle
Dep artment
touch down
Ale x
C le
E r
U p
c am
c orn
x enon
is ation
ic ations
ad ult
se c
qu ality
iv ing
iz ing
ob served
199 2
miss ed
power ful
Cor ps
complete ly
Bra a
imp act
heav ily
B ol
K a
T ime
Y oung
c row
h ed
p aper
be low
ir on
mo b
tr ue
man aged
end er
ev al
ran e
vis ed
ru g
199 4
six th
match es
Li ke
meet ing
reli ef
redu ced
r ated
r hy
es ota
op portun
em ents
af fected
aw ard
sing er
result ed
stit ution
tell ig
Cent er
word s
rick et
concl uded
audi ence
paren ts
Minn esota
P rote
h our
j un
l ic
p ra
w ear
cl im
ak apo
off er
so le
For ce
ink el
activ ities
vir on
4 2
A re
B ul
F ur
J im
J ul
P an
P ost
m ile
r out
v ar
er t
st ating
ar med
ch or
con temporary
di e
aw are
ath us
ph y
writ e
dr um
dra ft
decl ared
Town send
reve aled
Rose bery
Sou thern
Haw ai
Ital ian
B en
D ist
V an
g ing
s a
of t
he art
res idents
ex cl
we alth
ref used
level s
histor ical
tre es
separ ate
Meyer beer
4 th
D am
F ri
F inkel
b rown
c ore
d rew
u str
th ers
is l
op in
pe ace
if t
off ensive
Th under
pre t
char ge
Be cause
197 0
fac ed
init i
Wal pole
contr ast
Finkel stein
D ire
T essa
Y ue
c ere
u th
re ception
to day
un iversity
per or
bl es
bl ue
rec ent
ens ion
ele cted
Le g
back ground
Sh iva
feat uring
car ry
tit les
typ ically
voc al
A dam
N es
P it
f ish
k in
ve hic
tr an
ha vi
gr ass
cond itions
led ge
ma xim
Bl ue
hand s
sit es
Ill ino
Nico le
Soci ety
C ra
G i
b at
p up
il ed
be comes
In du
li p
ound s
ass ault
att ention
we aken
main ly
fore st
ef forts
tow er
organ ized
gir l
R ob
T urn
b ul
k a
s ense
w inter
in str
ul pt
po ly
she ll
col or
stru gg
produ ce
spec im
John son
divid ed
High way
evol ution
Braa thens
L ittle
T od
d ition
u fact
w ick
en e
est ic
ment ioned
act ually
ath let
mon d
arch itect
stru ck
call ing
tain ment
dep ict
prote in
ext reme
ys is
Ha it
pract ice
demon str
Cour t
advant age
incor por
O f
b order
f olk
th ousand
al le
ro les
pres er
fl ank
can not
199 0
season s
trans l
right s
Bo ok
say s
Port ugu
comb at
accept ed
achi eved
Sovi et
Govern ment
9 th
B et
F am
M og
f iction
at ives
id er
18 0
ann ing
Gr oup
Viet nam
Cap tain
deli ver
fru it
Portugu ese
E mp
S R
T ele
b an
k es
o o
p aid
t ailed
in fantry
re m
re str
su st
sc ulpt
hel m
fun ction
Sp ain
aren t
prim arily
Acad emy
9 6
B urn
C ivil
p ush
s ales
s ister
w en
il es
un ion
ber g
tw enty
sc ale
ran ce
sp read
Eng ine
198 6
Se cret
ext ensive
inch es
commiss ioned
slight ly
H orse
O cean
S arn
T int
W ay
c ers
ig an
ow s
con cent
ex pressed
cre ation
vis ions
For m
Fe y
prote st
count y
ceed ed
onym ous
Lou is
5 3
D ef
f arm
g n
s ides
sh ore
ne igh
St udi
bo at
ser ve
ph il
olog ist
show ed
offic er
tit led
def ense
stre et
look ing
exc av
Wel sh
Tint in
O da
S il
Z hou
b our
b itt
r as
re y
re comm
pro p
em s
ra id
Th ough
them es
batt alion
And rew
represent ed
comb ined
Cer es
Var anas
newsp aper
viron ment
cere mon
Emp ire
Varanas i
5 5
7 th
F red
P A
R h
g am
m ess
th ir
ent al
ul ations
um n
os en
ast ic
av oid
Com mun
cap tain
found ed
plac es
Pro du
cult ural
mount ain
Ap ple
squ are
casual ties
Nes bitt
Oda en
B ur
c ies
h ill
an cient
re pe
re ign
re vol
al one
es h
li f
ord in
sc ience
An n
work ers
De mo
dire ction
ident ified
continu es
Fran cis
cast le
earli est
Ev a
Angel es
Illino is
Odaen athus
5 6
C A
H ome
M D
W ash
e th
l ock
o le
r ush
s ac
u zz
ag an
19 20
art ists
man ufact
18 th
cont ent
ph en
do ing
ped o
let ters
offic ially
north west
result ing
graph ic
author ities
influ enced
Du Mont
nar row
flood ing
Olymp ic
adop ted
Record s
dise ase
Mog ad
Sarn ia
D er
N ight
a res
w ild
z ed
ad vert
pro ved
dis s
New s
report s
app arent
sou theast
bas is
Sim pson
ey e
F our
O b
P op
c andid
p atter
r ating
in th
ed s
to ward
ch air
ul ed
ex hib
per man
comp let
sp ot
do or
Wil helm
Man chester
We ek
bro ken
beg in
sound track
Mid dle
tourn ament
M at
V e
k akapo
y ellow
z er
ed ition
en cour
de lay
ol der
ot ional
op pon
aw a
ef fort
along side
ple ment
Cl ark
roy al
capt ure
ov ic
foc us
tor pedo
occas ion
phys ical
relative ly
Wash ington
9 5
B on
H orn
L ar
M ax
O ma
c ities
g reg
v a
de te
ian a
att ended
cont ain
me chan
Con f
198 8
tri ed
vent ion
individ uals
meas ure
los ing
transfer red
cad mium
M ass
S um
S ky
d ress
k are
m aster
s ian
he ight
ad el
be havi
op posed
ab ama
sh ap
ne ut
pr ise
pr inc
bo ats
cont act
Al abama
offic ials
requ ire
rain fall
ded icated
surround ing
determin ed
Jose ph
Mogad ish
Oma ha
B re
D est
K ent
L y
O p
r ise
s n
u an
re stor
en ergy
as c
In nis
li ves
ill ustr
ors es
let ter
Me an
Ed ward
possib ly
jour nal
F ant
V D
h ang
n ers
y our
is es
ing u
im ages
op h
In depend
sh ape
tim ore
gu est
Ar gent
Re ception
follow s
194 0
196 0s
design ated
short ly
Per ón
soci ety
grad u
spir it
Hel ms
intens ity
finan cial
diss ip
Mogadish u
5 1
F E
F ar
G A
J our
L is
M en
s mo
y le
on om
im ony
op t
um ber
ser ving
album s
sup pl
198 0s
196 4
sim ply
bor ough
Hist or
sour ces
McC all
secur ity
maxim um
6 4
B an
B ir
C re
H y
K ore
S en
g i
k ept
m useum
o il
w ave
re ar
ic ed
se ek
com edy
mo vie
art ic
em phas
act ors
cond ition
vis ited
As sembly
leg isl
pass es
fr ag
bur ied
successful ly
manag ement
pie ces
pot ential
coup le
necess ary
9 7
J up
d ut
g ained
s pring
t ur
v ation
ur a
ver ted
cl o
Com mission
dom estic
gre w
plan et
Play Station
argu ed
Fle et
R ih
T u
p aint
s and
in tellig
al ing
ly s
ch ief
sh are
ast y
ach ed
dep th
cas es
suggest s
author ity
project s
Ham els
conne cted
Val ley
Bal timore
Rih anna
6 00
B ank
D VD
G all
W rit
h ospital
re con
at i
or a
ent rance
ad vent
be long
ol s
un ique
con secut
res h
um es
ut en
ex tr
ex tra
tw ice
Ch ap
we ak
pre mi
vers ions
bu te
ick s
nor mal
Con stant
Sh ort
pass ing
ca using
plac ement
def ence
claim s
struct ures
critic ized
Pal est
inv as
hom es
Bow l
Dj ed
ultim ately
web site
4 3
L ew
M ah
S P
T im
h an
al leg
de ploy
pro pos
cont aining
ves sel
result s
hold s
indu stri
debut ed
neg ative
Jup iter
Djed kare
6 5
C y
D en
D un
G ir
H an
H ib
M ore
N H
R ol
b ud
f ox
k g
l ane
t un
be ach
ch osen
te x
fore ign
air ed
ob tain
194 7
Is a
stud ent
def ensive
batt les
organ ization
bro ke
mount ed
fav our
grow ing
current ly
coll abor
Tor res
rup t
wound ed
4 1
B aby
J on
K ar
L ock
O x
U l
e igh
i ro
m ort
re jected
ly ing
im in
el se
br igade
min d
198 7
prom inent
refer ence
East ern
anim al
independ ent
grant ed
anal ysis
abandon ed
confir med
consecut ive
F ield
R y
b ishop
t ank
ain e
qu ake
tem ple
reg ions
col ony
On ce
second s
there fore
194 1
oper ated
az z
fam ous
pur su
Air port
cell s
grow th
ben ef
Scott ish
Fore st
Apple white
1 20
B BC
D own
G ood
b a
t act
th r
en emy
ac ad
res ol
mo sp
He ad
spe ak
ph ia
new ly
gen cy
sing les
road s
SA FE
mode l
sell ing
mom ent
adel phia
a head
f at
g lo
p ack
ar ms
il ies
ch ance
In stitute
oc ated
per fect
we ather
view s
197 0s
sol o
contro lled
reach ing
expl ained
sk y
know ledge
nomin ated
seem s
Egypt ian
prepar ed
Pre mi
stra ight
temper ature
equip ment
Back ground
D ev
D ue
G reek
V ide
b ranch
c ust
d ates
h ur
i i
m ales
r ative
ed ar
en vironment
to mb
im ag
Ch ild
fir ed
lo y
gu an
ele ment
add ress
198 4
198 9
Be fore
lead er
197 2
return ing
coun cil
serv ation
support ing
Gu ard
prom pt
bur g
proble m
urb an
fre eway
Croat ia
settle ment
Fur ther
8 th
A th
A bu
E li
E ach
H MS
K ir
M u
P ublic
S ub
X e
o te
r ig
t av
re pair
at mosp
st ations
un known
ot es
fir m
St an
ach ie
writ es
ock s
198 5
bre eding
Or igin
stri ke
Mi ke
employ ed
quest ion
increasing ly
econom ic
liter ature
Oper ation
1 30
A ri
A li
R et
b ig
c atch
y a
the ory
ran ged
dis p
comm only
ide as
196 0
system s
beli eve
Bar row
histor ian
burn s
Sw ed
Card iff
B ig
C E
E ven
M ic
M ort
N ever
S lam
c ricket
w it
st ood
ar rest
ar rang
ic ient
ch es
op pos
are t
ill o
her self
land fall
ren ce
ru b
On ly
sing ing
De velop
par liament
cle an
194 4
field s
mark s
Cl ass
kill ing
adv anced
fem ales
Ke ats
Mich igan
experi enced
Phil adelphia
consist ed
drop ped
proper ty
Cong ress
R og
S at
a er
h orses
i ation
l abor
in em
on t
al ions
se mi
de ities
ag ement
ri a
res c
res ist
pro t
ex ped
comp ar
ser ves
att end
no te
199 0s
ask et
beli ef
jo in
Ad dition
Mount ed
fly ing
phas e
maintain ed
fail ure
kil omet
Mean while
8 7
9 4
D utch
G ard
H art
R E
S i
d in
f ict
f ederal
p ict
re sem
as ure
ul ate
ri val
av ed
aw ards
An th
fin als
Al bum
min im
film ed
val ue
ris k
dom in
def end
prom oted
public ation
hum ans
sk i
popular ity
teen th
relig ion
hon or
inj ury
mult iple
frequ ently
pit ched
bud get
B as
F er
F ish
L ine
N athan
f ied
l aid
m atter
n asty
p al
t ree
le ction
de g
ag er
us ual
act ress
It aly
reg arded
ret ired
fam ilies
km 2
rest aur
allow s
Ste ve
And y
wall s
recogn ized
Min ister
Je ff
rapid ly
batter y
weap ons
B ost
G reg
M ur
P et
S up
b ark
y ing
ag ric
pl at
tr ail
em ic
comp uter
cre ating
Americ ans
Con ference
descri ption
start s
prom otion
significant ly
mult i
bot tom
cou gar
invas ion
Vide o
agric ult
F inal
b ra
d ata
h aps
s ought
re action
be aut
ch ose
ot t
ish es
act s
cre te
produ cers
high light
vol ume
sim ple
gre en
seven th
agre ement
sport s
streng then
occup ied
fill ed
schol ar
sched uled
aspect s
C old
G ord
H aven
N ich
S us
T C
W ell
d an
l ap
m ast
s un
in script
the less
or ation
al tar
ou ter
ac compan
de l
tr ain
land ing
new s
16 0
198 1
app ing
dri ve
names e
vir t
Viet namese
vic tim
Gul f
sus p
nucle us
sust ained
phil os
6 6
B lo
C D
D omin
J es
N az
T ra
a vi
d ream
f air
f ought
g ather
h all
j ack
m ical
o on
ā da
en a
is ol
id ing
ant imony
af ety
gu ard
min er
col our
17 th
tri al
Ph o
colle cted
Co le
Am ong
Cam bod
Thunder birds
R os
s ave
w ed
in i
st ock
ack s
sc ar
cont ained
we en
iz es
ang ers
vis ual
under ground
En d
ins ula
sup ply
Ju an
US A
kill s
193 9
fac ilities
compos ition
Enter tainment
Ox ford
Ath let
F estival
L ie
R evolution
U N
V ill
c ited
c ake
e ter
n i
n ur
r ine
t ask
w s
th ur
st ages
it an
he ard
ud d
cont ributed
pre fer
Ar thur
194 2
miss ions
ref lect
impro ve
ify ing
execut ive
Studi os
shap ed
deg ree
Gord on
9 8
A er
C hel
N L
N BA
R on
R ail
m ut
s ens
an ge
ro se
im ents
un te
ri an
19 18
mo ves
In d
ud es
co al
ann y
my th
cap able
head s
oper a
Co ast
effect ive
William s
Phil ip
entire ly
anim als
impro ved
subsequ ent
sil ver
1950 s
Mart in
bey ond
Cra zy
Turn er
Bet ween
uten ant
Premi er
fict ional
5 4
7 00
F ox
G il
M ario
N at
R el
b ass
c rop
d og
e gg
s ion
s ul
s ort
s ail
st ro
ac u
ch er
con test
ul ly
not able
St one
wor ship
rec ently
Al li
rop ium
med ical
12 th
196 8
196 9
giv es
Bo ise
Mus lim
find ing
histor ic
flo or
grad ually
respond ed
Dan iel
Tur k
thes is
Tod ay
Lew is
kilomet res
Bost on
B or
B and
C rown
H ell
I V
J ain
K ang
W A
l it
an cy
ed a
at om
st able
is y
am y
tr ou
au to
pres ents
dis c
second ary
publ ish
mus h
head ed
197 5
Br idge
dr am
ris ing
inc ident
Pe ople
find s
program s
Mag azine
Sy stem
Rus sian
chall eng
expand ed
án h
Demo cr
D ar
F all
R od
U pon
b ility
m ate
r ac
s ed
it ems
he m
ac res
ac her
ad apt
et ic
ne got
per ial
dis play
we et
ans as
cent uries
fl ag
Ar m
inn ings
ros sing
eng aged
196 5
197 4
south west
class ified
camp us
ston es
fac es
Ev ita
treat ment
possib ility
mic ro
fa ith
polic y
excl us
Nich ol
6 1
A R
C ub
D S
R u
R af
W ill
d aily
e as
n aval
r ab
in f
en ic
ou l
se ctions
ly wood
ne ck
li de
ast e
ubl in
set ting
ari b
par alle
dec ades
hy dro
tri p
death s
Li u
critic ism
loss es
Mac Le
Command er
independ ence
slow ly
Kh ánh
mush room
8 00
A venue
H un
J urch
K en
L es
R ow
R ome
n es
n ell
r ates
v on
at us
ic ial
pt y
iz ations
go es
lead ers
did n
Col umb
person nel
sent ence
Pro ject
Song s
ara j
lay er
Bel g
Jam al
purch ased
5 9
8 5
B ru
B road
D ublin
G ab
I guan
R ay
S a
c ateg
d ance
f resh
s ist
t il
t able
y son
ed itor
st ret
es c
ac compl
ad s
ad ed
be gun
con crete
ct ors
us al
out s
act ed
no thing
co ol
sy mp
Le on
194 6
ash ion
world wide
draw n
import ance
decl ined
pur pose
techn ology
Sci ence
reason s
Bri an
brief ly
Tenn yson
Tem ple
Through out
Dist rict
prot agon
G overnor
H al
J ud
M TV
c ance
f al
h ired
i ers
n ie
w art
in spir
an th
re mix
ro of
ad ap
am ber
con ve
ag ent
pl um
mo di
Ch art
des c
Al so
Ar ts
add ing
dist ingu
tra it
Li ber
sk in
Te am
fr ame
gl ass
Sim one
laun ch
commit tee
escap e
negot i
B art
B ern
M el
M aster
f are
g ro
j u
l ings
o z
t in
w id
ing ly
se as
ol dest
ri f
19 19
pl ain
tr uth
Ch ains
view ed
16 th
found ation
arri val
long est
dec ade
196 6
Mar ia
195 2
193 6
club s
tell s
sen ior
viol ence
bill ion
commiss ion
chap ter
particip ated
champion ship
Bro ok
regard ing
enjoy ed
crow d
Are a
Fam ily
Produ ction
paint ings
wit ness
Develop ment
accompan ied
MacLe od
1 10
5 2
B os
D ream
E C
F ive
U lys
W y
W all
d ating
f ix
n ic
p ha
s an
t ack
w ise
w ides
í a
ā n
th or
re put
ic i
ast ron
fe e
au g
sp ons
pre ad
rough ly
sub stant
pop ulations
Ro x
develop ing
pass eng
grap her
last ed
Ad mir
Bo ard
fel low
hold ing
exist ence
AA F
cred ited
Sum mer
Ulys ses
B S
G ar
J ay
K r
N S
O de
T est
b ie
e ch
i to
k not
m ine
p y
in tr
in ity
the tic
st al
ad vis
de cre
ir t
un ivers
com ic
In stead
ak ed
av a
sp ell
Al bert
ann ed
fl es
Com mit
cons ists
call s
cho ice
trans it
197 3
dom inated
pri est
comb ination
exist ing
acc ident
learn ed
archae ological
perform ing
appl ied
poet ry
Rad io
symb ol
athlet es
rem n
Anth ony
Turk ish
Iguan odon
B ond
B ishop
C arib
G re
I G
L in
O T
S ap
b asket
c ab
h ope
i qu
j i
v ens
re pl
se at
be an
The atre
ir ing
ass ass
ok ing
An onymous
fin ish
pre gn
vis ible
film ing
sub mar
196 7
Mar l
aur us
colle ge
close ly
compet itions
Bra z
associ ation
habit at
weaken ed
Horn ung
6 2
7 7
A ston
A ML
G ra
H or
b in
b one
u ct
u ff
w r
at on
ag le
ot y
19 14
mo d
ist on
ne ither
ex er
per haps
der ived
ev o
form ing
og y
appe al
prote ction
batt alions
Li fe
provid es
great ly
Mount ain
inv ited
elect ric
mot ion
pain ting
rein force
administ ration
1930 s
pil ot
detail s
opportun ity
ceremon y
occasion ally
8 1
A sia
B ell
D ota
E s
E RA
H on
H ard
K il
O h
R un
b ought
c it
g us
s ight
t z
t end
an es
en ess
en counter
st ic
ac id
et te
ab o
tr ave
man n
bl ing
spe aking
ath ers
ele ven
sup posed
loc ations
ste am
rece iving
dist rict
prote cted
town s
story line
church es
gl as
exp ans
typ ical
techn ique
mass ive
foc used
Arch ae
Dou glas
vehic les
dissip ated
Chel sea
Carib bean
D om
L ow
T op
V N
V ol
Y e
f uel
k ins
p age
u a
re vi
is lands
it ors
ro l
ac cur
ent ially
ch annel
ur s
ur ation
de mo
sh op
tw el
du b
int end
any thing
ount ain
Wh at
cap ac
appear ing
194 5
197 1
rece ive
dr ama
fun ding
miss ing
Per ry
gl ades
Ma eda
look ed
Ab out
survi ved
stop ped
Card inal
bio graphy
Georg ian
chor us
Fred er
Constant ine
Hib ari
Lie utenant
wides pread
2 50
7 9
8 9
A ge
C C
C ha
H indu
J un
K at
M un
Q edar
R é
R io
c ard
s afety
w el
at ures
st ances
ac ed
il ton
ad ing
be th
wh y
con verted
sh ared
igh ter
comp on
ev acu
br ary
amp ions
row s
198 2
try ing
Gr am
sol id
auth ors
Roman i
Sim on
sett lers
rul i
sess ion
cru iser
dou b
flight s
Gold en
acqu ired
Bri en
conv oy
pow ers
dig ital
sec ure
repe ated
Fant asy
7 1
A D
A sh
D NA
G ang
J ones
L I
M od
P ers
S ound
i as
k o
o graphy
y l
in fr
er o
ar ranged
ent ed
ad or
ol a
19 16
19 13
if ul
St adium
pt on
sp acing
iss ance
unt ing
198 0
suc ceeded
197 6
dep icted
la bel
will ing
contro ll
195 6
Mo z
grad ed
base ball
Ho ly
plann ing
watch ed
happ y
exper iment
Os lo
Ven us
rout es
opin ion
instr ument
Hait i
revol ution
perman ent
Short ly
atmosp here
wed ding
Braz il
D A
E le
F el
M ul
T el
d ry
k new
m arch
w ins
er atops
st a
be ls
id ay
ap ers
um a
ard o
cre ator
br and
char ter
10 th
ress ion
194 3
contro vers
real ity
pen alty
provid ing
decl ine
Sim ilar
Som al
defin ed
earth quake
Secret ary
Alli ed
6 9
7 2
D ur
H omer
N BC
P att
R angers
S now
c os
f old
f ranch
j ump
p sy
t ied
v ac
an i
st ore
as sem
ent ry
id d
el li
ab our
ex act
qu ite
Ch ronic
att ached
ren amed
air port
down load
cer atops
lead s
196 3
prote ct
get ting
bre aking
Ste vens
turn ing
expl os
mag n
chang ing
introdu ction
techn ical
pred e
pat ron
separ ated
Mor rison
sat is
establish ment
indic ate
Gul ly
Ever glades
distin ct
thousand s
deliver ed
suppl ies
Addition ally
IG N
U TC
W ind
d ict
e z
g é
r ural
in te
in stitut
on a
is ers
con stant
ot ing
op position
su d
em peror
ex press
af fect
St ud
att le
rec ru
aw n
ph one
reg ime
iss ip
remain der
Austral ians
11 th
camp s
command ed
cor respond
Miss issip
Wal ter
rul ed
Sun day
consist ing
ey es
cert ified
assist ance
survi v
Hol lywood
Off ice
teach ing
Brad ford
Tru j
Alex ander
rhy th
Fri ends
achie ve
Columb ia
Commit tee
K el
N ative
P ul
R idge
S b
T al
a ud
b aby
g all
j ac
r aces
t all
é t
en ge
le aves
ent ering
pl ed
ame ter
ment ion
ear ch
iv ity
form al
ke e
ok ed
no isy
Al an
produ cing
sur render
197 8
Mar ine
val ley
sequ ences
195 3
jo int
turn s
refer ences
occur s
Mont ana
studi ed
regular ly
Mary land
econom y
Croat ian
Crit ical
Dire ctor
Truj illo
1 12
C O
K o
L enn
c ry
d rug
f ashion
h at
m ere
p se
p uzz
t ip
t ie
an o
re place
ic on
le ase
de ck
ir s
im mig
ver si
ce ived
ag en
ag ues
est er
its une
ev il
An ton
fin ishing
pre y
inter ior
she l
fore sts
mon arch
sur vey
dist ribution
success or
den ied
Char lie
interest ed
circ um
schol ars
method s
shoot ing
portray ed
sa fe
Engine er
intellig ence
adap ted
reput ation
Rox as
Mississip pi
5 8
E du
L ess
P ur
S or
V is
b ay
g one
h un
p a
z one
al a
ar g
ac re
con vict
ag ents
19 15
op hy
ak a
wor st
att ributed
off ense
dis missed
br id
game play
Re cording
char ges
ific ations
sup por
state ment
Pl unk
character istics
cr ime
Ste fan
stri p
wind ow
With in
polit ics
see ing
mot or
recogn ition
Act ivision
cal cul
chap el
Hu gh
Sam uel
How ard
patter n
battles hip
D aily
J os
M it
N O
P or
c rown
d ock
p ound
s le
s quadron
v ary
an z
re mo
to s
ion e
ter ior
ag ree
res our
not ing
si e
mon ument
min ister
ret ire
so il
olog ists
Mar sh
tri bes
appro pri
class es
Ste phen
bas in
Ne ther
novel s
chart s
alter native
bell a
discuss ed
Cal vert
dollar s
Isa bella
cust om
knot s
capac ity
C ru
D anny
N et
P ope
S av
S araj
Y an
Y ank
c inem
n ick
le ts
se ctor
ag gress
ri e
19 17
pl ants
ist ed
li k
em otional
ex ception
fe ar
own er
ev ing
part ial
off ers
ang erous
point ed
descri bing
194 8
war m
cy cle
leg s
gener ation
young er
medi eval
coast al
rul es
Str and
account s
Jer sey
jour ney
div ine
bring ing
Indu stry
Week ly
Lis a
industri al
prede cess
Saraj evo
5 7
H ere
J if
K n
R a
S k
b ond
c ation
c aught
f i
g or
n inth
st ers
le uk
ch i
ate ur
ex pect
oc key
man ner
fe ction
fir ing
off man
des ire
Au stri
son s
some one
rele g
Le e
peri or
eral d
197 9
195 1
fac ing
every thing
bas ic
room s
difficult y
colon ial
rare ly
consider able
discover y
Victor ia
mob ile
Dest iny
artic le
Eli za
restaur ant
Freder ick
Yank ovic
8 8
C el
D et
F air
I S
P C
P ress
S and
S qu
d al
e ff
j a
t aught
w ich
re placement
and a
it age
it led
am in
de ed
ve get
ig ades
ag a
te acher
ab les
pe te
In it
li ked
em bark
land ed
si zed
sc he
ult ane
Ar ound
Re view
nor m
Jo e
hy s
196 1
vol unte
car bon
even ing
195 4
Or der
Or gan
wood en
invol vement
relation ships
mun ic
Som ali
ho tel
nomin ation
pain ted
specific ally
Res earch
Tran sport
Cast le
Tele vision
thir ty
oppon ents
Clark son
Rol ling
Moz amb
sud den
C ad
F ame
S pring
S ports
S anta
j um
j azz
m art
s quad
w ine
ing ale
cl er
ast ers
ass ess
ure au
inter section
cri pt
13 th
ink ing
fun gus
Wil de
appro ved
beli eves
193 7
vo te
commun ities
poem s
exist ed
Du ke
Jer usal
Sing les
mor al
secur ed
emer ged
abs or
pick ed
spl it
Colon el
rane an
Adam s
neigh bor
recomm ended
Francis co
Simpson s
Bon o
Sky e
tur ret
Mod ern
controvers y
Jif na
Jerusal em
C ory
G a
L oc
N ick
P erson
P ower
R if
W W
W ars
c ular
m ad
s oft
u ous
he ar
il li
se g
ter y
con cer
ag u
ap art
pl ane
str ateg
sc ape
int ention
pos es
gen re
where as
Nor man
dec is
lead ership
sign ing
Car ter
che mical
Pl ot
stand ards
organ izations
195 5
draw ing
Tr ack
suff icient
Ham ilton
conne ction
Olymp ics
concern s
Mil itary
Hum an
specim ens
extreme ly
incorpor ated
princ ipal
Independ ent
Argent ina
wr ong
6 3
B ron
M O
M ot
P ass
U t
W im
d ess
f ine
i et
i ke
l u
n one
p ine
r us
u le
w inner
y outh
in cess
in habit
the at
ay a
con ference
res ent
et ts
19 00
ist ry
sh ark
cl es
di visions
di ameter
rec re
part ies
spe ech
air s
ind ig
ind icated
Be ach
show ing
cover ing
For ces
dist ributed
tri es
xt ure
plac ing
Car l
ivers ary
sequ ently
195 8
Pr ime
ali en
exp ensive
Ke y
sett led
approach ed
tee th
threat ened
treat y
surround ed
alo gue
eu ropium
dem ol
Ban ai
Writ ing
Ry an
inte gr
3 D
B all
D C
E ll
I ron
J ere
P ine
R om
W i
Y o
b ats
g ate
h orn
l av
r idge
t one
w et
w ants
in land
ed om
it als
ad mitted
se cts
am ents
un usual
te or
dis ci
An t
ob a
mus car
dec or
194 9
197 7
histor ians
Po int
cross ed
rail way
Dep ression
immedi ate
rat ings
favor ite
hop ed
depart ment
document ary
Rog er
exped ition
isol ated
cit iz
expans ion
institut ions
Lenn on
9 3
A P
B i
B ase
C P
F ern
F ras
G offman
J ac
R ap
T on
c li
d im
o cean
í var
th y
or ous
st ell
he li
ad jac
im et
us ad
rom antic
over s
ass umed
St ory
ran k
off s
Un like
ann iversary
under stand
reg ional
cons um
design ation
read ing
prote sts
ground s
Her gé
list en
class ical
sequ el
review er
graph s
strong ly
equ ival
rap ped
destroy ers
sess ions
tre ated
cru isers
langu ages
dy nam
engine ering
Ter rit
liter ary
Je an
exam ples
Sto ck
waters hed
Jane iro
Bol ívar
jun ction
Rh odes
mess age
complet ion
dut ies
eigh th
protagon ist
Sap rang
Kil mer
franch ise
A T
C op
D H
F ire
M and
R em
T ower
W olf
b igg
c ens
g overnor
h ot
k ān
l ake
m ud
s am
t le
y o
z o
z en
er og
the atre
or che
st ab
st adium
il ly
se lect
am ond
de tailed
ow ed
con vers
ap y
19 10
pl ate
ab sol
sh ots
ant ly
Ch ief
str ate
lo an
He arts
me ets
ang le
fl ed
fl at
air line
ck i
198 3
tri but
Ger ard
Col or
contro versi
def ended
Gu y
Pro v
na issance
BC E
employ e
Law ton
bled on
Lord s
attract ed
Georg ia
scient ific
wear ing
specim en
Burn s
Jour nal
acad emic
resc ue
egg s
eas ily
Squ are
Wim bledon
9 1
B ed
S her
f aster
h en
t ick
v ive
il ing
ch ronic
im plement
ig ation
ag as
ot ic
ap ped
op her
ab ol
sh if
li ft
ack now
ha ust
sp aces
pos it
Th ird
inter change
ele v
rop ol
med ium
At tor
oper ate
val u
cr ash
star ling
gre y
arm or
attempt ing
effect ively
cor rect
equ al
termin us
assist ant
survi ving
pract ices
travel ed
gra v
territ ories
acc used
Cam bridge
civil ian
Richard son
block s
feel ing
reser ve
chall enge
encour aged
agricult ural
inspir ation
Admir al
Somal ia
adjac ent
A k
B a
C orn
E very
E lect
G arc
K omb
N ow
R NA
W at
c ash
f ing
f oss
i os
n ut
th in
or i
ar te
is ms
it ated
ac com
ct ure
ap se
ain ts
ab led
pro to
em p
ak u
ast ru
over w
rit ual
comp ounds
lo se
form ally
sc op
int ense
rec alled
part ly
cont ribut
An iston
ang ular
kn ock
some what
ident ity
stor ms
ib ility
tow ers
che ck
vide os
stand s
atter ed
cr im
cour ts
gener ated
bro thers
prof it
190 9
Ke amy
seem ed
responsi bility
print ed
conv in
possess ion
Common wealth
recover ed
Form ula
candid ate
obtain ed
Mort al
arrang ement
oppos ite
Jes us
Attor ney
Komb at
6 7
B ass
D a
F light
G un
H ospital
J oy
O C
O wen
S S
h its
m ac
m ature
p us
v in
th osaurus
at op
or er
he im
ch rom
for cing
ig ins
19 12
pro ceed
tr ust
est ate
ex haust
ak s
di ag
ser ial
ell ed
ans w
ann ah
mon t
cons ult
Sh akes
John ston
Mar ines
leg end
Is lands
Is lam
pass age
ris is
sol ution
fun ds
German s
193 1
193 5
lim it
Bar bar
foot age
Pol and
Des ign
Des cri
net ic
suff ering
host ed
redu ce
pers pect
stay ed
learn ing
Arab ic
concern ed
link ed
Ty pe
preser ved
sculpt ure
astron om
basket ball
twel ve
Plunk etts
norm ally
Cory thosaurus
Fras er
controversi al
Shakes pe
8 2
B ark
L ate
L ev
L ink
N intend
R aj
S top
T ig
Y our
c ot
c old
h l
l ists
m ath
w an
th s
in ct
in come
in aug
re ll
or b
se es
be aring
de struction
ol ay
con text
19 11
mo on
pro hib
our ed
ra ise
ens is
inter pret
ific ial
number ed
ste el
attack ing
continu ing
All ah
193 2
review ers
Pr of
Sp ace
represent ing
compos er
Pal my
Ho tel
Don ald
circ ulation
FI A
Spe cial
throw ing
equip ped
deb ate
prov ince
Pen insula
adult s
paralle l
esc ort
fix ed
Marl borough
sie ge
erog ative
Shakespe are
Nintend o
9 9
D ark
F a
K it
P ict
S em
S weet
T ha
U r
c rossing
k itsune
m ap
n os
s id
s pr
s ung
v oted
in et
re min
re bels
am ino
ow ie
ith ic
id ae
us cript
el im
el abor
19 21
19 29
pl om
ab ilities
ate ch
cl ock
ess ential
Ch annel
po sure
low est
An ti
br ight
ph r
under standing
gen etic
char ged
produ ct
hel ic
hel met
Con struction
14 0
Fe i
prom ote
ask a
fall ing
Ge off
Te chn
graph ics
law s
bor ne
dri ving
Pal ace
meet ings
bel t
Play er
Med ia
meas ures
hol iday
intens ified
Law rence
occas ions
Pat rick
observ ations
initi ative
Pit man
push ed
Stan ley
victim s
passeng ers
remn ants
Nether lands
Eliza beth
L abor
O ur
R ain
S ar
W ic
g ard
g ie
t ight
z i
to ll
ac le
un successful
ce ment
ct ic
com ed
com ments
ut z
ut il
su perior
In g
sh ar
cl oth
aw s
sp ur
any on
fl ash
ret ained
Re al
oper ating
196 2
cover s
music ians
return s
def ences
Me ga
195 9
que z
193 8
vo iced
bur gh
invol ving
god dess
Atl anta
appoint ment
vill ages
difficult ies
gra f
Que ens
Em peror
object s
pitch er
purch ase
pra ise
carry ing
Kore an
vessel s
glo bal
Guard ian
Cambod ia
Stefan i
bats man
equival ent
Garc ía
B ang
C ult
F ron
F urt
H ud
H ob
N ar
R ug
T reat
n av
p ure
in als
on line
on ica
re new
re presents
en sure
st ick
ac company
om s
ly n
ter bury
ot al
ab und
ex change
if ies
ian ce
we igh
inter nal
Al f
ict ions
val id
Gr ay
sim ultane
che ll
consid ers
class ic
Can terbury
jo ining
period s
fact ory
sou l
sty les
iter ranean
influ ences
need s
Phil lies
ull en
nar rative
ug al
Med iterranean
defe ating
reve als
Pri or
commit ted
ato on
Enter prise
cam era
1920 s
behavi our
Palest ine
Pho en
Athlet ic
prefer red
Aer ith
Gram my
surviv ors
resour ces
concer ts
A C
B io
C ur
F ound
K y
M á
M ir
S on
U 2
o bl
r h
z es
in vent
the ws
on na
or al
en de
st ance
to x
ic ate
he at
for th
ol l
con vent
sh or
em an
ex it
ish ment
di alogue
fe ed
gr ade
ip ed
Al ong
produ cts
follow ers
sur pr
15 th
Ro ber
mem orial
ref ers
Ear l
commun ication
polit ic
test s
post ed
critic ised
tell ing
does n
Champion ships
clos er
Mark graf
pan el
inst alled
feel ings
visit ors
Im perial
Ca thedral
abs ence
hundred s
lb w
rug by
pup ils
onom y
legisl ation
deploy ed
propos al
tex ts
arrest ed
Domin ican
Raf fles
Kr ak
munic ipal
Fern and
Color ado
Furt ado
Rug by
9 2
B ath
H ok
N ad
T ro
U sta
c od
m ers
r ants
in formed
an aly
re mark
re construction
or ient
or bit
be e
de em
im pl
ri vers
pro ve
sh er
tr ained
man uscript
ud ing
own ers
pr erogative
dis plays
ann ually
ven ues
17 0
Sh olay
ext ent
list ing
band s
fall en
trad ing
bar r
stre ets
Val ky
research ers
gra ve
station ed
poor ly
mom ents
wal k
hu ge
drum s
recon naissance
NH L
Sat ur
conve ction
modi fied
iqu es
submar ine
infr astru
DA G
muscar ia
overw hel
Usta š
7 4
C ape
D iv
I d
J enn
M att
c ock
g rown
i ate
s aves
t ale
v ati
z ac
er as
st im
st all
ent itled
ad m
ch ess
un ch
with drew
pl us
ex posure
di et
iv eness
ach u
form at
rec ur
Ar k
col umn
Wh o
par as
use ful
Sh ow
mem ory
trans ition
194 0s
ext ension
cr ake
organ ised
tra its
claim ing
gar ian
influ ential
pur poses
dri ven
Cor por
Mag gie
Rich mond
mun ition
Mex ican
audi o
dy nasty
inj uries
alter n
FI FA
div or
clim ate
din osaur
ni owie
dram atic
exer c
doub t
Wi ś
C BS
F ree
F ederal
H g
K ann
P lan
R en
R est
R oc
S id
S el
W in
g ri
m ates
r ant
s aved
u gh
w ings
er ation
ou x
ro g
am munition
un es
19 28
mo s
ex cess
di plom
ass er
act ual
other wise
br ush
no on
ship ping
amp s
reg ist
can cer
writ ings
set ts
sub species
do ct
ins ur
par ish
Nor way
eng ines
origin ated
dist urb
ious ly
rest ling
tal k
Par vati
king dom
fact ors
suggest ing
how itz
Port ugal
Mo ore
look s
burn ed
interest s
mater ials
cross es
pers u
spo ke
watch ing
happ ened
Israel i
severe ly
apparent ly
chair man
Mass achu
journal ist
resist ance
pict ure
jack rab
substant ial
Ré union
circum stances
Edu cation
kān tav
Bark er
helic op
Wiś niowie
Massachu setts
8 6
9 00
B enn
B ranch
B aker
C as
D or
E aton
E agle
G ate
G ary
G wen
H amp
H aving
I A
I mag
K im
K hand
L ith
N iel
P rom
R AAF
S is
Y ug
c ars
c iting
f ate
f ant
f estival
m am
p atch
in her
er ies
re p
he era
il st
il and
il ation
ent ers
om ing
ch ant
im possible
un like
el ess
res ign
19 27
em ia
oc y
over seas
ian g
ev in
lo b
part ially
dis aster
br ick
inter pre
ry ce
under stood
De ath
mi xture
sur vive
eng age
ca uses
music ian
car ved
Gu ide
Wil son
late x
star lings
gener als
urric anes
colle ct
move ments
rad iation
vict ories
burn ing
pred omin
cop y
elect ronic
Min or
Min istry
transport ation
ror ist
depart ure
instr uments
shell s
Sil ver
opt ion
Histor ic
Swed ish
beaut iful
Patt y
rhyth m
Ustaš e
Kann ada
kāntav āda
Yug os
8 4
A v
B ureau
D ig
L as
L ast
M ach
M idge
M asters
S ans
V o
V ul
a ire
b om
d angerous
e at
n g
r quez
s lip
s lide
u ge
w are
in ian
en su
le v
se vent
am ateur
was n
ol i
con greg
res igned
com pete
ist an
ore n
St and
sp end
comm em
cre st
after wards
no v
inter action
tem ples
bu oy
gen e
cons ol
ari ous
pol l
Se e
Se ason
tri bute
Car mel
iver se
US D
ask s
195 7
Ste wart
193 3
mar ry
Co ok
wind ows
Per fect
Pol ice
interest ing
techn iques
So on
cul es
mode ls
Ver onica
engine ers
think ing
Gl ad
spo res
inst ance
establish ing
doc uments
How e
opportun ities
strugg le
restr icted
Conf ess
restor ed
spirit ual
advent ure
premi ered
RE LI
crop s
suppor ters
absol ute
Prof ess
Fron t
Má rquez
Khand oba
0 7
1 13
A vi
B N
C ob
D ak
F ul
F RELI
G lo
I ra
J r
N DH
R and
S le
W ag
W right
n ations
p ist
p ale
s ke
s ale
v ul
v ast
v als
in Hg
er ry
re member
re marked
en cing
ic ide
ro it
om ura
be ar
im pressed
con servation
el ine
res sing
um in
os om
art ificial
not ably
if er
ke es
ran ges
Th en
co ins
reg iment
Jo sh
sur g
olog ies
cho ir
cle ared
design s
read ers
offic es
vent ure
Can al
differ ence
fall s
21 st
production s
commun ications
experi ences
Town ship
uck y
recogn ised
aps ed
Tor onto
itz er
situ ated
proper ties
Tri b
Mill er
Just ice
weap on
Rob in
ordin ary
gi ant
clo sure
Gir ls
else where
minim um
plat form
publish er
Jurch en
fal se
distingu ished
Mul der
retire ment
Det roit
Mozamb ique
Jac ob
acknow led
crim inal
convin ced
atech ism
Phoen ix
Satur day
Lith uan
FRELI MO
A mb
B ad
B ah
D enn
E S
E sh
G am
K ansas
K evin
N am
V ice
W ing
b ac
b arri
c reek
f ountain
h id
h unting
t u
v or
in stru
ic it
se lection
be am
ag i
ri b
ri bute
sh r
sh ut
ment al
ack ed
end en
ear n
ear ning
int ent
18 50
pres sing
co sts
ret reat
oy age
found er
hy po
mem or
west ward
dep ending
War ren
ather ine
character ized
Man agement
count ies
appro val
star red
Sc ully
former ly
Bar ry
fr ig
net works
stre ak
program me
stat istics
elect ron
meas ured
rang ing
alter ed
object ive
nation ally
Rus sia
bio graph
pow ered
suit able
Bu ild
Bul ls
vehic le
depict s
excav ation
delay ed
behavi or
gradu ate
Jour ney
Chap el
tank s
benef it
thr one
Album s
Cole man
Gil bert
appropri ate
bigg est
Hud son
infrastru cture
Wiśniowie cki
A g
C ab
D ave
K ong
M I
M uch
O scar
P ow
U E
W itch
b ones
d war
d ense
f il
g ates
l on
l ad
r ator
s kills
in us
in fl
in je
re ne
en h
de leg
de term
im prison
un a
ay s
con dem
us age
res idence
19 26
pe st
sh o
sh ock
li ber
tr ick
ak um
ill s
fe athers
ass ador
gr y
af t
comp ound
St ories
ia o
sc r
att ained
gu il
dis played
cre ative
An zac
Ar sen
ele ctions
descri be
dec ides
sm en
fun dam
bre ed
cast ing
differ ences
stri king
clear ly
close st
Dav is
Mag dal
pred ators
tel lect
audi ences
hous ing
igg s
prec ed
Republic an
rup ted
aval ry
favor able
reser vo
Mr s
Tre k
Mem orial
qual ified
corn er
Prote stant
eth nic
oppon ent
Conf eder
restor ation
tun nel
prompt ed
Origin ally
Never theless
inscript ion
reinforce ments
Pers ian
predecess or
Init ially
Organ ization
Territ ory
Hok ies
dwar f
determ ine
Arsen al
0 5
B udd
C ateg
E vent
G ro
H ou
H ope
N el
S l
T s
T en
T ar
W u
W is
W ild
a vier
b ind
d ens
e asy
k ings
ö n
in stitution
in tellect
the ater
to t
he t
ac les
ch amber
de t
de gre
un i
ri de
ne th
art work
od ies
Ch agas
po ison
au st
int on
ran king
des ert
Un til
any one
go v
there after
arri ve
Be et
contin ental
ste ep
Mar g
def ending
prom ised
child hood
organ isation
Par aly
All en
command ment
ox y
moder ate
represent ative
Ma thews
190 5
Ex press
Mag ad
Ab by
rul ing
har mon
respect ive
Rock y
Pri est
inj ured
viol ent
argu es
amount s
bow l
bound ary
inst all
occup ation
prepar ation
Mal ley
Tur ks
bad ly
Tran s
scient ists
Victor ian
Leg acy
bul k
architect ure
Commun ist
smo oth
alleg ed
Jon athan
fat al
adapt ation
exclus ively
Les lie
magn itude
Kel ly
IS BN
perspect ive
Valky ria
Wag ner
Categ ory
degre es
Paraly mp
6 8
A ce
D um
K ur
K enn
K urt
L am
L ud
N ash
S hel
c aves
f lies
g ars
h arm
i ents
l ord
o h
o ing
p are
s now
t urb
u it
w ives
y e
in ci
an them
an cing
to oth
ic ul
le e
le ton
de an
de ity
ol ia
ol ithic
con cess
con stitut
con stitution
ri fle
ere cted
res umed
ex ists
ak i
ill ing
man ga
out break
ear s
str ict
pr ime
ign ment
sp ots
br aska
Sh ip
dec ay
lan es
por trait
la be
ris es
light s
north ward
Her ze
hand led
expl o
expl ains
mb ar
every one
test ed
Ne braska
dri ver
Ber tin
Po ly
lin er
assist ed
engine er
deli ber
Em my
fru str
keep ing
colon ies
Che val
celebr ated
beat en
Out standing
Water fall
prop ag
advert ising
strengthen ed
nur se
Democr atic
sist ers
Brook s
Cel tic
inhabit ants
Treat y
Rober ts
deem ed
Ira q
UE FA
gov ina
Magad heera
0 8
A z
B ren
C atechism
D og
E c
H ay
L ower
M ol
N ic
P ryce
R O
S had
S uch
V ic
b ore
b anned
c ous
f o
f usion
i ated
k ne
s ad
in hab
ed ges
ic ity
ad ier
om tav
ur ally
ig e
un certain
ce ased
ap h
19 25
19 24
em ies
em br
ex posed
ight s
av ar
bl ow
bl az
land ings
sc attered
He aven
ok ovic
part ner
sp in
Th us
br ain
mon uments
min es
vis iting
record ings
As omtav
sub stitute
sur ge
Be au
mem b
ball s
She ff
war ning
az ines
ash i
design er
get s
ling er
Pe ters
house hold
prof ile
gar rison
Har old
sl op
189 0
consist ent
Mad rid
condu ct
Bus iness
box ing
execut ed
prevent ed
appl ication
jud ge
settle ments
Dj okovic
bomb ard
demand s
fit ted
Lan gu
distin ctive
initi ated
demonstr ated
excav ations
neut ral
collabor ation
pursu e
tact ics
domin ant
Mur ray
inscript ions
Rail way
WA SP
Yan kees
turret s
Rif les
teor ological
stell ar
strate gy
Alf red
Niel sen
Hou ston
Herze govina
Asomtav ruli
1 000
A my
B ible
E A
G host
J en
K am
P each
S ay
T am
T ax
W omen
o is
p p
p ounds
s per
s unk
t ub
u x
es see
ic ia
ro ots
ur er
for ty
de pos
ol is
ir i
ter n
el der
res cu
cl ust
fe els
gr id
dis band
An ne
ell ite
Th ose
after noon
ren d
cent ers
co in
red uc
ose x
char ity
rele ases
De an
arri or
Con servation
down town
suc ceed
dam s
ib is
tri ple
Car re
dr ain
car go
consid ering
cast er
193 4
mar gin
real ized
mag azines
among st
test ing
sound s
sw itch
Ang lo
resident ial
Mad ison
Jew s
quarter back
Cong o
Mal ay
archae ologist
bio grapher
frequ ent
subject s
indic ating
Over all
adop t
emer gency
tourn aments
Tenn essee
Hawai i
transl ation
sac red
Independ ence
dut y
Gall ery
premi ere
Origin al
defend ers
susp ended
philos ophy
assem bled
sche me
mart ial
disci pl
Corpor ation
commem or
Esh mun
8 3
A man
A gain
B ou
D ie
F i
F em
H op
H ans
L uc
L abour
M ain
N ext
N ett
N aval
R ul
S ign
T ok
W C
X enon
a is
c ave
c risis
d ies
i pe
m ary
n ership
r ag
s op
s ang
t ario
on ic
on ia
re built
or ph
st ing
to ured
se ct
im press
im pression
ow a
con sc
ag ar
id ers
ul u
ne ath
tr u
ex cell
Ch en
port ions
St av
ll ing
gu ide
ade qu
iz on
col um
Re lease
On tario
sub urb
run ners
az a
Mar iana
rece ives
gg ed
Gr ade
serv ative
tal king
class ification
vari ation
order ing
arm ament
person ality
Pro gram
We b
colle agues
Roman ian
bas es
190 8
Mount ains
fif ty
Ev ans
SA S
Sw iss
employ ment
cul min
concl usion
reve al
crew s
deli very
Hill s
defin ition
Ca es
northeast ern
request ed
sched ule
Fin als
Gi ants
transl ated
environment al
Mic hel
Vill age
Cub s
Sor ra
Net work
elim inated
Wic ca
simultane ously
Imag ine
guil ty
Cheval iers
Sheff ield
reduc ing
0 2
0 9
A h
A BC
B ush
B enj
C u
C ase
F ace
G rom
G ib
G ael
M as
M es
O reg
O mar
P ubl
P rest
R hys
S T
S ab
S ocial
V II
d ish
e ign
g ang
l ined
s we
y m
y ield
st in
st ores
ac ids
ol en
ul ating
et ies
et ime
19 23
op les
ut y
pe aking
In c
li qu
ex pression
ard ine
tw in
over eign
ha w
gr ay
ip es
Ch arts
str ing
port ed
bo ys
au x
lo ved
sc ope
des er
An cient
ren ov
ens es
ann on
min ster
ob vious
them at
produ ces
As ian
rel ations
Le igh
ale y
oper ates
met re
cy to
14 th
ah o
ask i
Christ ine
sent ences
sent iment
ref uge
sk ull
round s
struct ural
Tr acy
itar ian
post s
tour s
Har rison
should er
acy cl
cir cle
sw im
fif teen
profess or
hon our
coll apsed
syn the
pot entially
bal ance
job s
kil ome
newsp apers
step s
withdraw al
mole cules
Er nest
rhy me
Hawai ian
mechan ical
Kir k
Gard ner
trou ble
desc end
Lin col
assass ination
accur ate
compon ents
Pul aski
brid ges
citiz ens
heli um
employe es
cot ton
elabor ate
phr ase
Queens land
Dak ota
Event ually
Benj amin
Oreg on
7 3
A de
B at
C ir
C ater
C ress
C anyon
D ud
E ric
F arm
L et
L ost
M ack
M aur
P as
P ir
R ace
S ony
T rail
b are
d od
g ap
g ers
j ew
k rit
l ig
t es
t ap
z hou
in ations
re move
re vised
at ropical
en thus
al pha
ag od
ap ore
um ps
pro portion
cl ay
art istic
qu ant
Ch ron
He art
18 30
cont ribution
ens ions
co ord
ang ered
col og
can al
ern on
Wh ere
sub mitted
par ody
ost er
Se ction
top ped
week ly
ask ing
Christ opher
just ice
expl ain
adv ancing
put ting
refer ring
direct ors
Ne il
Afric aine
young est
Ed ge
vert ical
Val ve
compl iment
sem if
atin um
mach ines
bound aries
ray s
space craft
Sing apore
Wood house
Camp bell
Sur vey
Sha w
exper t
wa it
Common s
document ed
dro ve
tran script
Kore a
seek ing
extr atropical
Child ren
disp ute
compar ison
Sup reme
Similar ly
theat rical
imet res
Islam ic
Ing res
Found ation
Sis ler
Sans krit
surg ery
colum ns
Sorra ia
Lincol n
B idd
C red
C ullen
E t
H ur
I an
J ason
J ardine
K now
L ane
N eves
P le
T a
V I
W ander
d ney
f ishing
f ault
g ian
h osp
l as
l augh
n els
p in
p ir
r ations
s ample
t ent
u er
th rew
en zy
ar ian
as sembly
to ler
ac ru
am id
be ars
con trad
con vention
ag greg
el imin
com fort
pro xim
sh ift
sh irt
li brary
tr uck
cl in
os ph
od rom
ex em
ak ers
fe eding
tw ent
not ice
Ch ampions
wor n
sp ending
incl usion
pre v
pre fect
pre pare
mer ged
co de
co inc
ie th
ane kāntavāda
Con tro
Br iggs
Wor k
tri als
ah l
enn ium
ple asure
sol ar
gener a
arm ored
person ally
ref lected
sk et
mag ic
aster oid
ox ide
To gether
represent ation
program ming
190 7
tempor arily
accept able
coll apse
Pri x
Pri ze
Ver acru
quest ions
sat ellite
archae ology
defin ite
Off ic
birth day
Spe cies
ili ar
76 6th
sculpt ures
Louis iana
Ob ser
complet ing
dete cted
Gir l
Further more
Nat ural
Belg ium
encounter ed
Tel ugu
Chronic les
battleship s
remo val
ropol itan
Dig ital
Nett les
Cress well
Bidd enden
Veracru z
0 6
1 14
3 60
7 8
C e
C ant
D ers
M ars
R I
R ag
T ony
Y outh
Z anz
b ag
f asc
h in
j et
n om
p ages
s ailed
w heel
w ishes
y ers
in ary
in ery
in deed
an ne
the d
at um
or igins
st an
st ress
es is
il legal
be ats
ch ain
ur i
ver te
con front
ot ions
19 22
um bus
sh ares
ish ops
Ch an
af ford
up dated
up graded
comp re
St u
ew ise
ev ident
lo ose
sp or
me ters
ans field
ace ae
ph oon
main land
row ed
under went
ide al
high ways
ari us
publ ishing
sup plement
arri ving
cho ose
Be g
sign al
Wor ks
Col umbus
US S
Cl inton
app rec
star ter
inc ial
West minster
fact s
stit u
trad ed
Char ac
Char lot
author ized
Pol it
bur ial
tour ist
scri bed
chart ed
Reg ister
medi ate
Mag ic
ago gue
pred ict
ho ok
clos ing
Sw itzer
nomin ations
bi ological
object ives
cred it
discuss ion
investig ation
pul led
Up per
jun ior
Pan zer
pret ty
strugg led
Argent ine
emphas is
Tu be
disp atch
belief s
Si oux
AR VN
accompl ish
psy ch
aggress ive
embark ed
demol ished
convers ation
accom mo
emp ire
Benn ett
Patty cake
hid den
osex ual
Aman ita
Dud ley
Chron o
Neves inje
Ders howitz
Zanz ib
B ird
D in
K ō
K on
M V
M all
M ix
N ine
P ier
R i
U C
U sher
W ik
d les
d ale
f ide
g ross
j ury
l oud
o graph
p es
p he
p ace
p ione
v ig
in cur
in fer
re vers
re forms
es i
it im
ro b
be ings
ch ord
wh ilst
un named
un likely
pl as
ut ter
pe oples
pro secut
ra w
her d
up set
rec all
gu y
dis put
An tim
fin ale
ace ous
spe aker
inter cept
red e
ail s
them ed
my st
present ation
val ues
fam iliar
che st
Pl ate
public ations
star ring
event ual
And re
adv ice
We ir
fac il
fac ility
With out
22 nd
pen et
Park s
Comp an
Jack ets
Ke ith
Po hl
Ab bey
carri es
rail road
redu ction
certain ly
acc um
Coun try
186 1
daugh ters
McC art
pet ition
percent age
dev ast
administ rative
rot ation
recover y
pun ishment
architect ural
Def ense
advert is
southeast ern
measure ments
illustr ated
resol ution
130 th
Swed en
Ind ones
negoti ations
ici ently
controll er
mere ly
Mit chell
cinem a
neighbor hood
WW F
shor ter
Id aho
interpre ted
Build ing
oxy gen
Caes ar
Prest on
Wander ers
Charlot te
Switzer land
3 50
A y
B uck
D E
D over
F low
F ood
G w
G ot
H erald
L ad
L ist
M E
M k
N u
P ic
R ick
S ue
T ales
V ander
Y ellow
d uration
g arn
k hur
l over
p enter
s q
s or
v s
v ital
w ish
w ider
z ing
ā d
th i
in á
in tim
an ime
on wards
en emies
to ms
ou tr
ac ute
il a
am az
om a
ch icks
im er
ver tex
con version
by ter
ri al
ri arch
su icide
pe ck
ong oing
ill ness
ber ry
man ip
ud o
if est
comp ens
pr ay
sc rap
He alth
off ering
sp an
ult an
br igades
Al b
bu y
oy le
Com ple
ele vation
do ors
Jo h
hel ping
sign s
leg itim
ib i
ash ore
Is esi
pass ion
read er
Fe el
contro ls
Her itage
ime ter
Christ ians
Par amount
constru ct
hand ed
adv oc
aff ili
mag netic
Inter change
Tw enty
histor ically
signific ance
antic ip
Cor bet
Wal ker
Ab d
You Tube
pair s
osp el
profess ion
friend ly
Mad ero
Ho over
rid ing
Pri v
apt ist
Del aware
bank s
ultim ate
wa iting
batter ies
log ic
Ever ton
mole cular
depict ing
patter ns
Naz i
hydro gen
Belg ian
Leon ard
Albert a
pregn ancy
trave lled
dub bed
Less ing
sle ep
decis ions
Ton iná
Prov ince
grav ity
accompany ing
Nad al
Ark ansas
fundam ental
Gael ic
Cred its
Stu art
McCart ney
B ald
C it
C ass
C anning
D ri
D od
D ick
E D
F if
K ate
K au
L over
L iving
M P
P ak
S n
T ron
U s
Z oo
b ol
c ro
g aining
i od
k id
n as
n ave
r ains
y d
ʻ i
th ro
the t
ar ia
and ra
il der
ad mir
ter rain
us ive
us ions
ri k
res id
pl atoon
um ph
mo ck
tr apped
cl ar
per mission
end ar
ra ising
gr as
Ch o
ach es
part nership
br ace
she ar
rough t
ret re
ten th
sub sid
back s
back ed
inn ers
run k
Se attle
met ric
la ide
character istic
fun ctions
requ ires
aim ed
ctor al
prom in
reach es
All osaurus
command s
command ers
similar ly
search ing
Cent re
190 2
Sy n
Sy dney
destroy er
rock s
189 5
anim ated
conne cting
don ated
Mad onna
Cr usad
super vis
fre edom
prepar ing
execut ion
evol ved
roll er
cred its
indic ates
gir ls
Kh an
wal king
conflict s
polic ies
Crit ics
Book s
concent rated
farm ers
hill s
phen omen
Der ff
clo thes
Head quarters
Well ington
categ ory
cance lled
anth rop
ju ven
univers ities
exact ly
veget ation
seg ment
Ut ah
decor ated
Wat son
convent ional
doct rine
cous in
blaz er
consc ious
Stav anger
acycl ic
Ade laide
0 3
A L
B atter
C all
C art
C la
D D
E p
H ip
H air
H NC
H alo
K in
K night
L au
L ind
M ode
M organ
N ap
N ear
N ev
S him
V ish
d anger
g ift
h Pa
j an
n h
p ap
s in
t issue
v ies
v ant
w ore
é e
in er
in nov
re ject
or ship
en ous
st ern
ar an
is c
is o
to uring
it ic
it ia
ic y
he aring
ad i
se w
se ats
be ating
ch a
ve ter
im on
ig a
un clear
ce ler
el le
ul li
ri ff
ab road
sh ield
ate ver
igh th
igh ters
ill er
di amond
als a
du al
av o
comp rom
ran ks
no ble
inter actions
red es
fl esh
Au thor
ick en
ild a
ten ure
Le eds
back ing
hel ps
inn ess
trans mission
oper as
ball ad
met all
rist an
Christ i
fact or
Dy nasty
Inter net
few er
strong est
Ser bs
ik k
Har ry
pur suit
compos itions
Cor pus
Ber lin
mount ains
har bour
sport ing
Day dream
thod on
quest ioned
gold en
mel ody
spo ken
civil ians
maintain ing
Res er
Angel ou
fail ing
mor ph
conf ess
Im port
temper atures
hero es
prison ers
Boy s
withdraw n
pil ots
ram id
sole ly
Hawai ʻi
wealth y
wick ets
recomm end
rush ing
sac rif
Night ingale
Ul tim
loy d
Ret urn
Cold rum
Blo od
Fall s
Hun garian
Broad way
Wy oming
Hon or
abo ard
leuk emia
illi ant
Jere my
posit ively
Descri ption
Tig ers
Fernand ez
sevent een
Ec cle
Derff linger
A ctor
B M
B arn
C ricket
D w
D ot
D ata
E conom
F C
H om
H em
K ody
N i
P ot
S even
S ora
T an
U ran
X III
b its
f est
f ires
g au
h ull
u ation
in ces
re per
is cus
it ter
he avier
le te
ac ou
am an
ch ampions
ur as
un ited
con ce
con qu
pl atinum
sh a
li ps
os a
est one
est yle
per mitted
own ership
St yle
ep ic
He avy
gu ides
dis rupt
sp ar
sp ark
co ok
any a
Al most
vers es
ob st
ret t
can on
ten ance
De ep
sur prise
eng agement
ident ify
descri pt
Ro ths
cover age
May a
success ion
success ive
Eu rop
top es
rest ore
fun d
Man tell
incre ases
review ed
Ad minist
real istic
24 0
Li brary
Tr ue
cor por
Roman ia
occur ring
190 3
good s
anim ation
meas uring
188 9
bow ling
Arab s
habit ats
print ing
cou gars
Year s
rein forced
Brad street
Tre es
serious ly
photo graphs
target s
observ ation
grand father
lif etime
Cy rus
parliament ary
beaut y
virt ually
Jurch ens
san ct
pregn ant
revi val
aud ition
kee per
releg ated
Transport ation
Base ball
Bed ell
diag nos
Hamp shire
Marg aret
Antim ony
Tron d
Roths child
1 17
2 30
A N
B our
B run
C ome
D ress
H i
H and
H ad
I OC
K ings
L ü
L iter
M ong
P up
R ä
T ristan
W er
c ats
f ame
g on
g ren
h ire
i en
l umber
r inth
s ings
s itting
t asked
t aste
u ters
v ault
v otes
z u
in fection
on i
ed ited
re fin
re cept
re actions
al t
it able
it ted
se ized
de e
im s
ig er
ce me
con stitu
ag ency
te es
rom et
ut ions
su pre
cl oud
os ity
od s
per ceived
qu een
ary a
pr on
ll a
att itude
18 49
dis miss
dis placed
pos ing
tem po
ph osph
kn er
cons ent
Con ne
pop ulated
down stream
Ro om
run way
She ll
nam ing
dep iction
Gr ace
six teen
continu ous
ina e
prom otional
ham per
Man uel
Mc Car
arm ies
beli eving
expl icit
body line
represent atives
capt uring
depend ent
announ cement
Po le
mot iv
comment ing
flood ed
Christian ity
hous ed
Qu ine
syn agogue
enter tain
enter tainment
block ed
Tom my
archae ologists
particip ate
Lo oking
Colle ction
teach ers
pitch ing
champion ships
Camp aign
ML B
depart ed
Fore ign
Hum ph
secret ary
var ied
Ob serv
Palest inian
industri es
resem ble
philos oph
Bru ce
Oh io
revi ved
Stud ies
puzz les
pound er
sudden ly
Loc al
Rhodes ian
stab il
Joy ful
cloth ing
manuscript s
regist ered
kilome ters
Et ty
hosp itals
compre h
Zanzib ar
B O
B es
B orn
E ve
F ut
H us
H annah
I mm
I owa
K le
K yle
M orning
O S
R aid
S layer
W rapped
W restling
Z agre
b ath
d ad
e cho
g s
l umin
n it
o ke
o ok
p ill
r ised
r acing
w rec
w olf
z omb
th ren
the w
st ere
ac claim
ch ing
ir a
ir ts
ap ur
su res
are st
sh rine
oc aust
out ing
Ch arm
comp ilation
comp rised
St ars
St aley
bo ards
sc orer
ok es
dis pers
we gian
og en
br ut
no ise
ric ts
co at
main stream
row ing
arch bishop
under taken
col ogy
ma themat
ven ge
cur ved
Be at
bed s
mem ories
Br id
Is le
dist ances
dist ricts
ext end
Bl u
fun ded
cr ush
Mon key
won der
pri ze
hum or
Pro to
aff airs
den omin
Inter state
Per forman
Mo on
fle w
189 7
rul er
mot if
consist ently
lack ing
anti qu
Cr im
approach es
pers ist
territ orial
ming ham
bell ion
coach ing
mat ters
vic inity
NC AA
Tru st
mist ry
fast est
touchdown s
Hait ian
restr ictions
Pop ular
candid ates
Ve gas
neut ron
Bir mingham
Cre utz
frag ment
arrang ements
rub ber
aer odrom
labor atory
Greg ory
Hell blazer
repl ied
compon ent
Sk inner
absor bed
strateg ic
tick ets
Palmy rene
disturb ance
pist ol
Denn is
ön en
Beet on
concess ion
memb rane
rescu ed
Tok yo
myst ery
ikk önen
Eccle stone
Trond heim
Rä ikkönen
A ld
A ges
B aptist
E ight
E xt
H ong
H ind
J ag
K u
L iz
L oy
L amb
N avar
O ri
P am
P agan
R at
S et
S ultan
T ong
T ree
c ards
c ope
c rick
d 4
h es
h tw
h itting
n all
o graphic
p unt
p ets
r í
s ending
s aint
t rend
u ine
w rest
z ona
ì nh
in qu
in aw
re form
re por
en orm
en cies
st ap
of tw
le af
ro lled
be half
ch ase
ve land
ol in
ol ics
ow ing
un iverse
ce l
con junction
us ers
all ocated
su gar
tr ough
od ium
ex ter
di vers
vi an
po ets
bl ings
ach ute
att or
att ribut
18 19
main tenance
min ers
vis its
bu ck
iss ion
ret ro
Re agan
rel atives
my ster
Jo int
four teen
med al
De ad
loc ally
Nor wegian
pop ul
Br ack
Br ight
Mar c
Mar ie
sim pl
ank a
dr inking
Pl aces
mark ing
ext ending
ext inct
Gu inness
Me teorological
cut ting
cour ses
tal ent
app ly
expl ore
flu ence
pen insula
activ ated
190 1
190 6
High land
Feder ation
travel ing
mach inery
argu ing
pan i
invest ment
business es
chap ters
ny i
Sing h
phys ic
access ible
roll ing
exam ination
Oper a
paren t
Sur vi
market ing
bomb ing
concept s
escap ed
Met ro
observ atory
Cle veland
pra ising
bat smen
Indu stri
extensive ly
exhib ition
Mat thew
neut r
require ments
Sen ator
Ari zona
oppos ing
aer ial
pict ures
minim al
agricult ure
Cambod ian
exclus ive
stret ched
Archae ological
Hugh es
AT P
tribut aries
valu able
Hob bs
recur ring
Profess or
intellect ual
Kenn edy
tub es
adequ ate
compliment ed
brace let
Quine y
Zagre b
crick ets
oftw are
2 20
B rist
C G
D ance
D oyle
E P
F at
F al
F lower
F err
F iles
G B
G ill
G lan
H urricanes
I ce
J ar
L iao
N um
O d
S ox
T it
T ide
n ice
n ik
p ig
s ick
u to
w itch
é d
in ser
re ward
re venue
en er
en force
al ive
of fee
as a
ing e
ac celer
ad vised
ch ie
de er
de als
de vice
im posed
im perial
ag ers
ul ates
ri eved
ab a
ab use
pro of
tr ains
em ble
od er
ex ceed
oc ent
di p
fe ud
gr ace
ip el
du et
bl ical
tim ber
ke fell
18 60
18 80
ok o
comm enced
An im
An dr
cent imetres
ens us
ath y
she ep
ph ant
min i
ail ing
Re ines
Com edy
As sy
10 1
Le ic
my self
sur ve
Con temporary
John ny
contin ent
oper ational
war ned
cover y
could n
Mar ge
leg acy
comple ment
state ments
Car penter
sol ved
fun eral
track ed
bre w
Gu ine
week end
govern ments
person s
expl oration
Pr incess
Bo x
26 1
Co oper
house holds
Ser b
stead ily
Miss ion
Atl ét
Sy mph
pred icted
host ile
break s
lack ed
Part ington
Cr ab
Cr ash
Hol ocaust
transport ed
Egypt ians
prec ip
prec ise
NA SA
187 8
soldi er
circ uit
flow ers
president ial
Lu cas
Oper ations
Fin ally
Just in
prov incial
Six th
Ka if
lic ens
push ing
neigh bour
Commun ity
intellig ent
tomb s
trail s
challeng ing
Ken neth
spons ored
py ramid
univers al
Gra ham
Archae ology
immig ration
shel ter
arg ument
Jos é
indig enous
renew ed
Ky ra
remark able
Roc kefell
Vul can
consol id
Glo be
propag anda
Bren da
agod a
twent ieth
Plate au
Uran ia
Europ a
Humph rey
htw ald
Atlét ico
A gency
C ry
C urt
D R
D em
H it
H app
H ockey
I R
K ick
K rist
L loyd
M other
N one
O ak
R ic
T ai
V ist
Z o
b ours
b ull
e ating
f ed
i ac
j aw
l ore
m n
o ct
o ven
p ink
t ut
v ine
ā h
th rown
in sects
ed it
ed oc
en velop
ac on
ad ic
ad just
us er
ri vals
res ur
pro ceeded
os y
ill as
ast ra
man age
qu oted
Ch ang
comp ass
ach ing
sc re
ign ored
He brew
18 00
gu aran
aw ny
off shore
dis gu
ell er
Th ir
br is
no ot
pre st
ens on
Al fa
mon it
Ar n
air ports
col ors
col ours
ret ain
can als
Com position
spec ulation
aid ed
sing ers
At tack
develop ers
pol ar
may or
dist ant
tri o
Gr ound
vol umes
Bl ues
Gu ild
cr imin
tal ks
story lines
mag ical
vo ices
Mo vie
reported ly
Comp uter
decl ar
tro op
plan es
plan ets
fem in
suff iciently
cir cul
conne ctions
study ing
pat rol
Play ers
lin ear
compl icated
approach ing
dy ing
185 7
aut umn
hom osexual
threat s
Super man
happ en
minor ity
phys ics
Rus sell
Frank lin
link s
celebr ate
worth y
kick off
hor ror
Lan caster
sexual ity
hed ruli
Fri ed
wick et
function al
concent ration
bour ne
smo ke
Bank sia
repair s
Vill aret
flag ship
Bern ard
priest s
oty pe
constant ly
pse ud
calcul ated
Austri an
dynam ic
Rem ix
fing er
exhaust ed
inaug ural
Tha i
shar p
Tro phy
divor ce
Mach ine
memor able
condem ned
dens ity
uni form
slop es
Pir ates
Ce cil
Cant rell
Compan ies
Mk hedruli
Vander noot
iso topes
ceme tery
Charm bracelet
Navar ro
Glan ville
Kaif eng
0 4
1 16
B hair
B illy
C d
D ub
F ord
G iel
H od
L t
M ile
N F
N us
O l
O ct
R av
R ivers
S ag
S port
S ina
T at
T ow
T ell
U k
U y
W NO
a thetic
c ow
d iction
g ud
g ans
i ast
j ur
m ask
s ar
s ic
t orn
w aves
í n
ł aw
in z
re placing
st o
and al
as ide
is ations
it em
ac cus
ent ine
ad uct
am s
ly rical
ur ged
de terior
ol es
un less
con ver
con ven
con spir
te ls
ri ble
ap es
mo ist
cl ergy
os o
em otions
ant agon
ess ay
ess entially
gr ain
du o
St ill
pr ice
lo op
18 48
fin est
cent ered
br on
no se
Un ivers
co operation
ship ments
inter sects
ang el
Au burn
Au stro
vis ional
ru st
Com mer
do zen
je ction
ars en
No te
team mate
dec ide
hy g
road way
Br and
ash ed
ash es
Is les
pass ages
Pl at
ham let
Cl ocks
vari ations
York shire
Mc El
ense m
Ad ult
real m
trad itions
colle ctions
draw s
similar ities
strong er
ik o
cor ps
cult iv
Ne olithic
bor o
190 4
dri vers
Ber htwald
El gin
script s
vert ices
grow s
elect ro
impro vement
Act ress
survi val
Ap pe
Command os
travel s
spo re
Sm all
sal ary
Cath olics
occas ional
flow s
gent le
hop ing
dev oted
progress ed
sus pect
bomb s
pow der
Fre akum
pun ct
rect angular
preser ve
Studi o
perman ently
Lar ry
Dest roy
frag ments
belong ing
Ul ster
imag ery
gather ed
task s
reflect ing
sens itive
micro scop
Qedar ites
repeated ly
Gang es
experiment al
surrender ed
puzz le
Austri a
indig o
CP S
consum ption
knock ed
Raj am
Fa ul
politic ians
diplom atic
jackrab bit
Yugos la
buoy s
Avi ation
Nel son
inhab ited
Langu edoc
Rul er
tru ly
liqu id
MV P
Lover boy
McCar thy
Performan ce
Brist ol
Leic ester
Rockefell er
scre ens
Giel gud
Sina i
Uk rain
C ret
D ol
F O
F inn
G ack
L em
M C
N ag
S ac
S che
S cr
W ed
W ol
W ant
W ave
Y ang
b ush
b ishops
c ub
c ali
f ab
h atch
l abour
m met
n avy
n aked
p ian
s word
s aku
s acked
t ort
t ape
t aker
v āda
z inc
th um
er os
an ch
re bel
st ability
to ols
le on
am ation
ur ity
ig u
ig adier
un ning
ay ne
con ceived
el and
el ig
el ite
ul s
op ined
In vest
sh allow
od or
ak im
oc ese
per t
iv als
Ch and
200 0s
av an
comp uters
si blings
bo il
dis appeared
ric us
amp hib
ath a
ath lete
song writer
ret ail
gen uine
Com bat
As s
rele vant
ton nes
Le ban
sub stance
my el
fer til
Sh ar
head ing
war n
war fare
gg y
sol ve
fun ny
prom ise
public ly
app en
Par an
Mc L
dest ination
Ad vent
We ather
lim its
fort un
ox id
Mo le
direct ing
night ingale
invol ves
compet itive
Air craft
Scot s
amb assador
Ke ys
sum mon
sum mar
Mont real
battle field
conne ct
conne cts
process ing
ded ication
nar rator
Rep resent
deal ing
viol ation
seem ingly
Gl ass
educ ational
pay ing
Lo ose
conf usion
screen ed
dev otion
Brad man
wal ks
Mill ennium
boy friend
kick ed
Mem bers
Jim my
opin ions
Tele graph
Form ation
manufact uring
dress ed
Mah esh
tun nels
perfect ly
Dev in
loy al
avi ation
Rail road
myth ology
Gab ri
categ ories
symp toms
evacu ated
Anton io
releg ation
shif ted
foss il
Barbar ian
prohib ited
interpret ation
gard en
Cult ural
surpr ised
predomin antly
Robin son
barri er
bombard ment
drain age
swe ep
Maur ice
accommo date
Kō saku
garn ered
Nev ada
Shim omura
avo ided
supre me
enorm ous
Faul kner
Yugosla via
Cret aceous
Gack o
1 15
A ction
B h
B oot
B ình
C ow
D al
F il
F lo
H ab
H oy
H ub
I mb
K an
M A
M h
N ik
N apo
P S
P ast
P ok
P faster
S ter
S ite
S ie
S ax
S ulli
W on
X box
X ook
b ast
b read
c avalry
f ighters
g om
g ender
i per
j ing
m 3
m g
m ant
m ild
p ines
r ous
s av
t ical
t ales
v ous
v ices
v aries
x i
ơ ng
ư ơng
an elli
the ore
re z
at ro
or ious
st aged
ar ter
es que
is n
to y
it su
it ious
ou li
le ans
le ased
ac o
ac he
ac cent
de commissioned
im a
ig s
un rest
con vey
id ance
us an
el a
pl ing
ab ad
oun ced
mo vies
sh ad
sh all
ne phe
ther apy
em ark
oc ity
oc eratops
ill es
gh ost
qu iet
fe ared
ge on
her itage
du st
St at
land scape
ach ment
ser y
play able
des per
des cent
co aster
Al g
old s
ang a
rele asing
cons in
found ing
12 5
No v
Be th
Br igades
val ent
gust s
coun ters
Col omb
ext ends
aim an
def ender
govern ed
Cl oud
organ ic
vari able
hal ted
Ste el
jo ins
adv ances
real ised
lim bs
lim estone
Pe te
Ear nest
indu cted
compet ed
Har mon
omet ric
dri ft
amb ush
Mich a
Ex ecut
Ber g
Mag n
Po et
Mont fort
elect rical
reli eved
ho o
estim ate
Med i
Med al
Day s
uk i
185 4
185 6
cycl ones
Qu inn
learn s
bill s
igg er
particip ants
Film ing
exam ined
exper ts
demand ed
offer ings
Jul ian
grass es
weaken ing
Tod d
Def ence
rush ed
spot ted
opt ions
Sen ate
advent ures
collabor ated
Gard en
highlight ed
dan cing
improve ments
challeng es
Nichol as
Liber al
cab inet
dict ator
immig rants
Mot or
Techn ology
altern ate
helicop ter
Glad stone
vul ner
Witch craft
Wis consin
deliber ately
disband ed
transcript ion
Beg inning
Wik iped
khur i
Pak istan
Dw ight
acou stic
Uy gh
hyg romet
cali ber
Imb udo
Sulli van
0 1
7 37
A part
D ian
F u
F ru
G or
G ur
K al
K atherine
L oren
P and
P il
P res
P uer
S C
S MS
T A
T un
T otal
W as
W ard
c im
c ott
c attle
g est
h r
j oy
p m
s kill
t um
t rench
t awny
u ated
w ie
w ars
µ m
Í mar
in di
re bellion
at ra
en burg
en abled
st own
al ous
al ignment
is ons
il is
ur ers
ir regular
ig ious
un cle
con form
ap artment
res co
os is
ex port
di ary
di verse
ber ia
per ception
ment ions
out standing
vi al
rit uals
comp rising
St akes
land o
bo om
att ending
int act
18 32
gu err
gu idance
me mo
after math
br illiant
mer chant
iz ers
spe ctive
inter nationally
ob sc
En ergy
Re views
ten e
produ ctive
10 5
spec ulated
Le vel
sub tropical
cap s
ven ant
arri ves
trans formed
dist ort
tri umph
ext ant
position ed
last ing
batt ing
cas em
Sp ir
fact ion
Or lando
und ers
ali ation
commun ist
bar rel
Tr inity
decl aring
ier ce
Har ris
rap e
law yer
agre es
Black s
Black ie
Ex pl
Ber gen
Wal k
Mont gom
189 4
189 8
inv aded
aly pt
fight s
comment ary
got ten
recogn ize
Mor o
Str apping
flood s
185 1
minist ers
188 1
188 0s
deal t
Bel t
Ter ry
prec eding
circ ular
Lo ch
concern ing
div ines
Var gas
Hum pty
portray al
Lan cash
Colon ies
qual ifying
sec ular
crow ds
draft ed
Pit ts
PA VN
Rh ode
thir teen
Der by
exhib ited
dissip ating
umber land
resol ved
address ed
Ret rieved
altar piece
Blo om
Naz aire
fair ly
Ron ald
Dar win
Gab bar
Ray mond
modi f
Maria h
Wall ace
Gre atest
Kat ia
Gang anelli
Brazil ian
volunte ers
jum ping
Person al
recre ational
cli ff
answ er
remin is
abund ance
rh iz
overwhel ming
Sid on
asser ted
reservo irs
kne e
Tax onomy
byter ian
compreh ensive
myster ious
Brack nell
Guine a
Nus khuri
McEl roy
Rajam ouli
Paran thodon
Mh alsa
hygromet ricus
Puer to
Montgom ery
Lancash ire
1 200
A sc
B ased
B ry
D í
D oc
D ra
D awn
E y
F r
F ather
F astra
G ree
H ung
H osp
K ay
L C
L los
M ut
M ail
N P
N a
N f
N EA
O st
P el
P rop
S au
S word
S NL
W inter
Z im
c ra
c ure
c able
c akes
c ena
c offee
f u
f us
h ockey
j ib
l od
m und
o gram
s weet
t ig
t ag
w ished
z ones
an gry
re verse
re actor
al co
ar ose
es y
he ars
le agues
ro ot
ent in
de lic
de Grom
ve t
ig on
ow ski
un expected
ce ase
con servative
ag ger
us a
us ade
ap olis
op tim
pl a
mo or
ist ical
em otion
ex tract
ber ger
man ifest
vi o
vi ć
ha z
ass um
Ch am
af fir
St art
au de
int age
part ners
sp aw
des ired
vel ocity
An y
br ings
iz ong
fl own
min ing
though ts
under go
gen res
Le in
ins isted
ative ly
par ad
17 5
Be hind
trans its
mill s
Se an
ib an
car to
car nation
mark ets
bre ast
cut s
Mon tene
inc red
hand le
Ste wie
flu or
Sp ot
There fore
draw ings
round ed
Bar on
gl ac
Tr ou
respon ses
Park er
rad ius
tour ists
invol ve
want ing
Dav ies
introdu ces
lay ers
ov il
destroy ing
sl ave
189 1
mount s
inv itation
battle cruisers
har sh
host s
stat ue
studi os
commer ce
commer cially
pat ro
hon ours
super natural
188 2
spo kes
tolo g
186 5
interview s
interview ed
situ ations
syn thesis
Ter rorist
occup y
hol es
exc iting
Art ist
teach ings
rat io
path s
deb t
hor izon
bid den
confir m
pup pet
protest ers
farm ing
torpedo es
princ iple
weak ness
Den mark
achie vement
honor ary
plat forms
scholar ship
dram at
Raf ael
accompl ished
witness es
decre ase
spell ing
trave lling
eleven th
Ye ovil
instrument al
revolution ary
march ed
Chronic le
satis fied
Cad mium
orche stra
lift ed
elev ated
Elect ronic
astronom ers
dinosaur s
Cob ra
acknowled ged
Budd hist
bind ing
Jen kins
impress ive
Gib son
semif inals
elimin ate
revers ed
advertis ements
Fif th
Batter y
Vish nu
redes ign
hamper ed
ipel ago
Curt is
ensem ble
McL aren
Alg ernon
Medi eval
Dí az
Llos a
A w
A x
A qu
A gr
B un
C at
C em
G amb
H end
H ang
I TV
L at
M om
M ap
M int
M aid
P om
P ra
R al
R as
R ud
R ush
S it
S ic
S ri
S our
T ag
T ang
T uck
V et
V ari
V oyage
b old
b oss
b orders
d awn
e agle
f iled
g ence
g ospel
h ide
i est
k iss
o ch
p ac
p uma
t une
v y
v it
w aste
w inners
in fected
an no
on ist
on so
en listed
st appen
ing ham
it is
it udes
ou ds
ic ing
se ed
ur g
wh atever
un stable
con fron
con sole
ri x
op y
op ens
um s
ut ical
In n
In side
In tellig
sh i
sh ops
cl ad
od d
ex terior
oc a
fe ars
tw ins
ip ality
Ch u
her b
bl ast
bl amed
comp at
si ble
ould er
me at
ell a
ell ing
ren dition
cent res
co ined
Au to
iss art
col leg
Com mod
ele phant
rel ax
Le ad
New port
med e
cur ren
arri ors
point ing
ros aur
ros aurus
ident ical
Be ing
develop er
develop ments
After math
stor age
dep uty
less er
six ty
Fe z
fun gi
North umberland
govern ing
25 th
Jan et
Mon th
Mc Nichol
gener ate
expl ored
Pr im
adv ocated
Ad ri
Or d
Bo at
Tr ad
cor rid
lost ere
rad ar
bor rowed
Ed ition
human ity
Ex ped
Ex eter
suff er
Sy l
vill ain
bes ie
189 6
entire ty
har vest
campaign s
bel town
comment ators
Bra h
lack s
friend ship
Med ical
Thom pson
Mary ang
foc uses
pers isted
Ver stappen
thod ox
stay ing
pain ter
186 2
sat ir
cost umes
particip ation
Arch er
Art illery
conf used
conf idence
appl ications
frequ ency
Camp beltown
jud o
bon us
attract ive
deep ly
Sha olin
Go at
progress ion
administ ered
mig ration
Jam ie
deb ated
discover s
Bob by
log s
Fre edom
target ed
Fl ag
Bu en
cam eras
aware ness
vocal ist
athlet ics
mess ages
ordin ate
Ann als
exhib it
gradu ated
emphas ized
belong ed
propos als
Mu ham
din and
Fer dinand
restaur ants
gather ing
Athlet ics
mut ual
Ind ies
sail ors
Bru ins
plum age
Liber ty
submar ines
tz ow
Dur ham
affect ing
recru ited
correspond ing
gall ery
drug s
Mit su
Wolf pack
cens us
Ur ban
bom bers
frig ates
Magdal en
Amy lostere
alpha bet
aggreg ate
definite ly
dispatch ed
Gw end
Joh ann
Priv ate
Administ ration
declar ation
nephe w
Execut ive
Wikiped ia
reminis cent
Lein ster
patro ls
A ren
A way
C ul
E ch
F is
F ear
F ull
G rec
G ros
H akim
I l
I AAF
L S
L yn
M ak
M ets
N on
O thers
P ink
P esh
Q i
R uth
S EC
T i
T oy
T zu
V a
b ly
b ard
b bie
c en
c ade
c annon
d or
d ign
f et
f um
f fect
f ierce
g ear
h int
h ence
h oney
j in
l ac
r ice
s ink
s aving
t ong
u ble
u gg
z on
th a
th read
th rie
in spe
in complete
er ror
or ibi
en able
en counters
al og
of en
is le
he ir
ad h
am ing
de light
de bris
ol ar
im m
ith s
ay ana
con str
con tempor
con quest
id al
ri ed
ri fles
rom ance
all iance
In gram
ne arest
li an
tr un
tr unk
ex ile
ber n
man eu
over come
gr an
bl ind
ep i
ia h
pr ising
pr incess
pr inci
form ula
sc ores
rec ount
play offs
18 70
dis abled
sp ite
Th an
Un it
spe ar
inter vention
inter rupted
Al dean
ph ere
bu ff
gen es
ru ins
can ons
ten nis
sy ād
Wh it
sub jected
Jo an
cur ity
par ade
Nor mand
unt a
dec oration
Se curity
For mer
dist r
dist ribut
Gr ant
less ons
vol can
plac ements
Car los
enn a
car n
Col l
oth y
bre eds
North west
Gu thrie
cr usad
cour age
Cl ay
Cl air
Par achute
hand ling
arm oured
expl aining
ops is
chan ces
ref uses
aff air
suggest ion
fort une
27 th
wood land
cor re
Tw ins
cus sion
mix ing
ades h
agre ements
Reg iments
Sy ria
sex ually
189 3
189 9
coast line
Care er
know s
stat ues
estim ates
accept ance
Mor itz
contract s
nat urally
Cap ital
foc using
ita ire
igg ing
hol m
187 4
poet ic
Sou theast
Under neath
guitar ist
sus pected
advant ages
Di amond
Sovi ets
pi ke
mist aken
render ed
symb ols
phy lo
demonstr ation
Engine ers
MD OT
Bre thren
journal ists
fox es
eigh teen
mort al
prompt ing
Ari k
Class ic
exped itions
attend ance
Mur phy
Sus que
Well s
mast ers
UN ES
eter y
challeng ed
Row ley
Jud ith
frame work
oz ong
witness ed
EC U
thor ough
Gre ater
wel come
explos ive
arg uments
NO K
remo te
Marsh al
Cru iser
Sav age
nick name
Ga ozong
Ell is
listen ers
Cop ia
sam ples
implement ed
orb ital
abund ant
weigh ed
tox ic
overwhel med
exerc ise
fant asy
mam mal
Josh ua
tot ally
Dum pty
turb ines
constitut ional
labe led
depos its
sting ray
proxim ity
Chan ology
Hair an
Import ance
reper to
obst acles
descript ions
sanct uary
Lü tzow
repor ter
Industri al
Vist ara
Bhair ava
Univers al
mmet rical
Napo leon
Sax on
Cem etery
Commod ore
UNES CO
4 2nd
5 2nd
A br
A ff
B ac
B ach
D ry
E U
E ly
E aster
F ig
F let
F lying
F ountain
G oth
G erald
H ast
H ave
H ond
H utch
J ess
K id
K ub
K aiman
L im
N ation
N ob
O k
O kee
O jib
P os
P resent
R ound
S ang
W arrior
Z AC
a via
d ining
d imin
e ing
f th
f on
h ate
k W
m ology
m aps
m akers
p ull
r and
s ville
è re
in ich
in hib
er u
ed itions
re ver
re make
re hab
or ange
as ant
it ars
he ll
ad ir
se ated
ch and
ch ann
ch lor
was h
de x
ter ror
ce iling
con sequence
te les
by n
op ing
op ol
all ies
mo od
ist ers
In grid
sh aft
li er
cl one
cl amation
em ig
qu is
out ed
out put
over t
over lap
ass ert
iv orous
Ch uck
du g
St ones
bo ot
ke ys
ok ie
An sel
fin ed
co oking
inter sections
she et
fl av
mon ster
air n
bu st
Re bbie
As sist
ton a
Le o
New found
do ctor
ins ult
ins ky
je ctions
De al
ily n
cur ve
12 9
orn ith
Con dom
cho bee
Sh o
Ro byn
dec iding
trans mitted
dam ages
Mar ilyn
por traits
13 1
Car roll
light ing
Eu ropium
top ic
character ised
Mon ument
Mon ica
organ isations
expl an
mar c
Ad rian
Or leans
trad emark
Li am
Bo om
Gen eration
Per iod
Tr ade
every day
pen al
Ma j
compet ing
human itarian
sum mary
Pal mer
aver aged
sl aves
189 2
sw ept
break down
associ ate
cru cial
reli ed
reli able
carri ages
don ations
impro ving
separ ately
special ized
mater nal
lin ing
nine teenth
pract ical
185 9
Mark et
Hel en
stop ping
Jer ry
prevent ing
Arch bishop
aj a
ben e
conf ident
Tur key
Not able
jud ged
load ing
consider ably
stream s
Do ctor
dig it
kind s
Out side
possess ed
Met all
demand ing
expand ing
photo graph
Fl air
Cle ment
Jul io
Dam age
lock ed
artic les
97 8
Constant in
favour ite
imag ination
loy alty
Sub sequently
Xe O
atmosp her
strike outs
Bas ement
Fer ry
miner als
reflect s
Cub a
Sa igon
Hal f
remix es
distingu ish
passeng er
Dom nall
instrument ation
satis f
Cru ise
lik ewise
gor ith
Cad ets
seg ments
Rap ids
Tha iland
Bio graphy
Cur rent
persu aded
Confess ion
Lithuan ia
excell ent
bare ly
Offic er
Obser ver
verte br
Sue z
retre ated
phenomen on
AN ZAC
dispers ed
Crim son
exter nal
attor ney
Advent ures
Loren zo
Start ing
Ral ph
Exped ition
Pesh kin
princi ples
Susque h
Kaiman awa
Okee chobee
Newfound land
A ires
B od
B ull
C hair
C andid
E ps
E scape
F un
F und
G and
G ry
H add
I sh
J acqu
K et
K um
K od
K end
K ra
L og
L lan
M ann
M ob
M others
O w
P ear
P ione
R um
S ud
S incl
T ul
W ang
W atch
Y et
b rit
c av
d rown
d ads
f lower
g ains
k it
k itch
l ion
l ab
l one
l amb
m als
m ail
n ance
n ery
o ids
p el
t ends
w ire
th under
an ia
re v
re opened
en z
en lar
st ump
al gorith
ar ist
and ina
it all
it ate
ou b
le ather
ac rit
ac ept
il ogy
ur bed
for get
un ity
un successfully
ter rorist
ay an
ce li
id y
id ia
ul es
ri ots
res cent
res pected
com ics
mo des
pe er
pro be
pro long
In formation
In dol
em en
qu it
als ock
ha i
ass ign
act ively
Ch ile
str ange
her ds
comp aring
St ansfield
bo ost
form ations
rec apt
He y
18 36
gu es
gu itars
dis order
ult y
Th ing
no stic
Ar be
Com air
Com ics
10 8
spec ially
rel ay
ven om
hel or
12 2
there by
Con t
mill ions
met ap
dep ends
dist urbed
mil k
May or
stem s
Car r
che mistry
dr ink
sol itaire
rest rial
Fran z
late st
ham mer
Man or
Sc andina
trad ers
fort ified
Mus ical
Char an
Mo ving
sit com
scen ario
na utical
live stock
189 0s
35 5
carri er
ho tels
Mor ris
condu cting
Command ments
188 8
drop ping
mel od
186 3
Em ma
somet ime
block ade
Pre par
Mer ri
sal mon
acqu is
acqu ire
fail s
187 7
Film s
FI Ts
amed u
contr acept
Del ano
reser ved
reser ves
Bey ond
hop es
load ed
throw s
Sha o
Do ofen
escap es
Met ropolitan
Tru th
Cast ing
rum ors
investig ate
dise ases
hi atus
sec uring
mob il
Thunder bird
incorpor ates
concent rations
manufact urer
Lar ge
mechan ism
suppl ied
Histor ical
Kar l
branch es
stro ke
sed iment
hem mem
Nichol son
Leon ardo
cance led
remn ant
demo graphic
Cha u
Dur and
download able
correspond ence
achieve ments
agen cies
cler oder
AP F
tribut ary
foss ils
contribut ions
Barbar a
Sar ah
orient ed
helicop ters
mam mals
Confess ions
ske leton
biograph ical
fatal ities
Paralymp ic
Nash ville
RO K
Shad ow
descend ants
enzy mes
sket ch
anne x
Charac ter
recall s
Cart y
Reser ve
Barn es
Observ atory
Loy alsock
attribut es
precip itation
elig ible
vulner able
Fru it
Spir it
Hosp itall
Intellig ence
Buen os
Gwend olen
Arik amedu
reperto ire
Goth ic
chann els
Ansel m
Sincl air
enlar ged
Indol ence
Doofen sh
2 D
7 50
A ma
B E
B ran
B row
B oss
B oulder
C ost
D raft
E no
G y
G ran
H D
I mp
J a
K aw
K hoo
N ME
P y
R an
R ev
R ico
S ak
S cre
S overeign
S cleroder
T anya
V in
Z hang
c ans
d man
d well
d read
e ase
g ay
h att
h unt
h ier
j am
j unta
l at
l un
m int
m atic
m RNA
p ad
p um
p over
p ock
p ier
s oc
t ender
t ension
v as
v oyage
w is
é ra
an onymous
re moving
or us
st en
st uff
to vac
to ugh
it ating
ro ph
ac cord
ac claimed
ac eratops
se cr
om ed
be ak
be tray
ch ip
ch ron
The ater
un ci
un usually
ter med
con fluence
id an
el d
el dest
ri p
ot ten
pl ates
ut t
ab normal
su ited
pro jected
pro lif
pro sper
In deed
tr on
cl ouds
os ing
ill ed
ant on
out come
fe ver
but ter
ass ured
iv en
str ain
af fection
comp rises
St ay
si le
wor se
rec ip
play off
18 47
dis liked
dis solution
sp here
me gal
cre ature
Th ings
work er
amp ed
ced ed
inter ception
inter mediate
fl aw
vers us
ob serve
arch ipelago
reg ulation
reg iments
col ored
Re viewers
than ks
ful fill
10 6
rel oc
rel ating
my cor
je alous
add s
olog ically
Con sequently
dire ctions
Sh ara
ident ifies
run ner
dam aging
read ily
enn ial
ple ased
support s
Pl ant
fun k
requ iring
Her bert
track ing
Me gan
oman ry
care ers
Man ager
third s
ref lection
Or tona
stri ker
Gen e
ik er
prof ound
flo ating
vict orious
law suit
chart ing
dri ed
amb itious
Black burn
cell ular
sum mit
Reg ard
lay ing
Roy ston
appoint ing
bes ide
El li
Ham ar
far ms
sw ing
sw ick
har bor
cru ise
Du arte
Play ing
compl ained
compan ion
contract ed
Str ong
Ap pl
gra ves
185 3
185 8
Most ar
sell er
188 5
think s
Gl as
pan els
discus sing
maintain s
educ ated
Cer t
commit ment
liter ally
ump ire
mat urity
verse ly
thick ness
discuss ions
Catholic ism
Ital ians
celebr ation
stitut ed
cu le
Fin land
photo graphy
prov inces
err ors
investig ated
Bol ton
rout ing
rout ine
Gi ã
lif estyle
uzz i
Ve eru
delay s
contact ed
sn ake
legisl ature
deploy ment
mort ar
repair ed
Addition al
strengthen ing
Sus sex
Ros berg
Philip pines
contest ed
Muslim s
cool er
symp athetic
Mel bourne
accident ally
Vol unte
Fel icia
recru it
convict ion
nick named
assess ed
Bron cos
proceed s
Labor atory
Cult ure
nav igation
Jenn ifer
paras ites
exerc ised
resign ation
Av tovac
ensu ing
lev ard
Rand y
frig ate
imprison ed
Express way
Paralymp ics
clust ers
dod o
coord inated
Contro l
RI AA
incur sion
Indones ian
neighborhood s
amaz ing
anticip ated
conscious ness
Knight s
veter an
conqu ered
Brun swick
Imm ort
Jag ann
neutr ino
Assy rian
Symph ony
envelop e
arsen al
Hoy sal
Pok iri
Won der
Micha els
alco hol
Pom pe
Tuck er
Vet tel
Trad ition
Ojib we
pover ty
mycor rhiz
3 20
3 30
4 0s
8 0s
A S
B ute
B oca
C ot
C ore
F ro
F us
F iction
F itz
G et
H A
H ern
J as
K ras
K usan
L A
L akes
L ED
M is
M ult
N ature
N umber
O M
O sw
P ad
R hy
S ex
S omet
T ed
V as
V oc
V oy
W a
W any
W emble
Y u
b ite
c ill
c airn
d ent
g el
g if
i ors
j er
k ids
l ighter
m 2
m ith
m old
o ak
p ic
p aved
r ar
r ings
s well
s la
s ided
s inking
t ab
v ass
in ction
er ia
the olog
the ories
re mixed
st ip
st iff
al be
le ted
ac a
ac ular
il tr
be i
ol ly
wh is
un ite
con ception
id i
te ch
res ort
op ted
pro se
pro ced
pro visions
li x
tr aces
ill on
di ver
man ship
qu ir
fe es
ra v
ra ham
ra ids
Ch i
Ch opin
Ch amber
bl ank
comp ut
St aff
ll o
18 40
18 38
gu en
dis sent
dis appointed
og a
og le
ff y
ens ional
ced es
ph al
fore ver
mon k
Au stin
ob on
under took
ind o
ru bs
sy nd
Com b
ty phoon
view ing
cons ort
rel ocated
sub stances
15 2
Be ck
Br igadier
war ships
war rant
met als
az e
Mar cus
less ness
che mother
east ward
top ological
Me thod
vari ant
flu id
Ad en
We y
ush ing
Or s
auth ored
26 0
Pe ggy
Indi ans
put s
fri ed
Per th
fr ames
tele phone
Mo ham
clear ing
ama ic
bas ement
rad ical
exp ense
capt ivity
compet itor
equ ally
Air lines
Su gar
ara oh
Ab bot
tradition ally
bet a
har ass
cru zi
pat ients
Hen ri
separ ation
hon est
Oli ver
Oli via
concl udes
Gal ile
coll ision
reason ing
Gl en
Dr ama
civil ization
Hol land
threat ening
inst ances
syn onym
bit ter
prepar ations
particip ating
ett a
visit or
phys ically
print s
Off ensive
screen play
mir tz
colon ists
Sur render
Bro thers
jud g
neg lected
nucle i
Pat riarch
tom atic
shoot s
pil gr
Tem pl
park s
mist ake
ec osy
Colon na
CA T
manufact ured
Four th
Mat ters
zer o
Kent ucky
hang ing
gradu ating
Writ ten
belong s
extra ordinary
Chap man
Kar am
tact ic
tact ical
chance l
Mort imer
compar able
multi player
highlight s
susp ic
Revolution ary
dog s
sail ing
Bor ough
lit ter
atom s
trou bles
eas ier
inf iltr
Hun ter
protagon ists
substant ially
spell ed
Mun ich
evacu ation
evacu ate
Vis ual
Here ford
jum ps
Wars aw
dim ensional
Elect ric
nav ig
ende mic
barr acks
adm its
jackrab bits
Vo ice
remember ed
osom es
Lithuan ian
infl icted
imprison ment
elder ly
Die go
Fem ale
swim ming
Ple asure
comfort able
stan za
prosecut ion
Yellow stone
Alb ion
Dri ve
Hom ar
lumin osity
Ferr ari
Od ys
Happ y
NF L
bron ze
Destroy er
amphib ious
cim ol
Hung ary
spaw ned
Muham mad
Fis cher
rand om
Susqueh anna
acrit ic
Arbe ider
Merri field
Chau vel
Doofensh mirtz
Kusan agi
Wany an
Wemble y
albe it
A val
A post
A stra
B ore
B lan
B ened
C atherine
D J
D ahl
F olk
G P
G rey
H ew
J ai
K i
L ear
L aur
L aby
M au
M atch
M ales
M CC
P atter
R aw
R ub
R aton
S in
S ide
T O
T unes
U P
U le
V H
Y am
Z ap
Z rí
a ic
c ury
d ome
d ings
d ressing
e us
e uk
f its
f urn
f ighter
f ission
g ow
g osaur
g ills
h ack
h urt
k ar
l akes
m ason
m ating
o eu
p ile
r in
r im
s ank
t ide
v ance
v ann
v ague
y r
in scribed
an or
on ation
re argu
re assigned
re printed
re venge
en compass
st ed
al er
al ysis
as ury
is ions
ic ular
le ve
se am
om on
ve to
ol ph
ol ulu
ir rig
ter rible
con if
con sequences
ul ls
ap olog
et ary
et ics
op a
pl ating
pl astic
um bri
are th
pro g
pro ven
li kes
em pty
oc r
ard i
per cussion
fe ctions
end orse
vi br
had rosaur
ge ant
gr at
Ch ance
Ch enn
bl ame
bl own
comp iled
land mark
ll or
ll otal
low ered
ction ed
sc ales
ke en
att s
18 37
dis continued
vel in
An na
Th i
Th ames
cent ric
br ass
ace a
iz er
ens a
inter net
fl ame
Ar amaic
ry pton
song writing
reg ained
reg ister
them atic
10 2
rel uct
New ark
New castle
Americ as
sel s
ane y
ane ous
number ing
ros oft
Con nie
eng aging
ident ification
ci o
Be er
hy per
hy pha
oper ative
ley s
sign ature
dist ress
xt ures
less ly
ah i
Col ony
Pl ensa
north western
cr imes
cr oft
south western
ons ense
Ste ph
issu ing
Pr ice
Pr adesh
Sp y
mar ble
king ship
ref ere
real ism
stit utes
Li SA
gram mar
colle cting
Gen er
fort ifications
tour ism
Har sha
Vi aduct
introdu ce
introdu cing
front ier
rock y
aver aging
Po zz
vill agers
sl ope
pred ator
Ab raham
uck le
stat ute
associ ations
pat ri
pat ient
Med way
survi ves
uk u
Cap com
Command o
188 3
viol acea
discus ses
bow lers
Brown s
cal m
occup ies
agon al
Hu guen
sal v
Tri als
Off icial
187 6
aj al
sil k
sil ent
teach es
RA R
Not ting
Spe c
La ud
Sol id
celebr ity
anal ys
prison er
possess ions
Met acritic
incor rect
park ing
Crit ic
Fl ash
grand son
clim ax
Bul gar
drum mer
peace ful
Pit cairn
wild life
dete ct
Fant uzzi
museum s
Chap ter
Baby lon
speak ers
Mic rosoft
rub ble
pal ace
Jeff rey
Sup port
Sus an
colour ed
nur sery
Crown s
atom ic
adapt ations
wid ow
commission ing
tack le
decre ased
Es sex
Low land
Mun ic
Fel dman
Vis count
Jos ce
Sav annah
predecess ors
expect ations
eff icient
volunte er
citiz en
proto type
astronom ical
Stop pani
gard ens
comed ian
analy zed
gri p
Yugos lav
eat en
ensu ed
congreg ation
Cook sey
Pow ers
enh ance
deleg ates
sho es
Wild life
poison ing
discipl ine
Publ ishing
contrad ict
Din osaur
Pier re
peck ii
kid n
innov ative
icken ham
Liter ary
explicit ly
entertain ing
aerodrom es
licens ed
Cry stal
None theless
Fried rich
Sag inaw
fab ric
fortun ately
Pitts burgh
Gree ce
Mom ent
Adri atic
Mitsu da
Va ish
contempor aries
Flet cher
rehab il
Constantin ople
Gand hi
prolif ic
Glas gow
Jagann adh
Somet imes
obon elli
chemother apy
Laby rinth
Zrí nyi
oeu v
Pozz obonelli
1 18
2 17
5 50
A str
A OC
B ud
C S
C arri
C ove
C ec
D ard
D uch
E gu
F ing
F ac
F ly
F ine
F oster
G em
H il
H old
H ương
H indi
I ran
I dol
J T
K er
L ang
L ars
L ocated
M M
M ā
N ek
N omura
O no
P ap
P hys
R P
R ou
R ank
R anger
R overs
S oc
S team
T ak
U í
V el
W o
b ab
b end
b aland
b unk
c ater
d ull
d rought
e 4
g le
i ary
l ung
m are
m aker
o ina
p ard
p apers
s overeign
s oftware
t iny
u ro
v ow
w arrior
z t
in formal
the aters
ed itors
re agents
at ab
or ian
st ad
st air
st ained
al together
as i
to ol
ic us
le aked
ro d
ro ost
ro scop
se min
se ize
de ton
de press
ve iled
ol o
ig ue
wh ist
un anim
un aware
ter ing
ter ia
con tem
con secr
ul um
op ard
mo ons
su ck
pe pt
pro claimed
In do
ne sts
tr am
od ed
od ing
ast ered
ast ery
ish am
ant ine
per pet
man ages
man oeuv
qu et
ment ed
over looking
ass ume
gr ades
Ch as
Ch ess
St or
der iv
ach arya
si zes
sc ream
He in
18 42
cont ents
cont ribute
dis agreed
me ter
after ward
og enic
br ed
mer ge
ens ured
ship ped
amp a
ann er
fl ot
arch y
les ey
Re creation
sy ll
Com par
Wh y
Wh ole
cons ensus
med ian
fer t
No vel
inn ocent
Con vention
Sh an
let t
Br us
tri ps
che f
bod ied
top ics
dom ain
prote ctive
Bl ake
Me g
Fran ç
cr atic
app rent
list ening
organ isms
vari eties
inc idents
All music
pri vi
Mc Lu
Ste ven
jo ke
By ron
government al
Pr us
command ing
fac ulty
stri ps
colle ctive
Indi vid
came o
ali ke
import ed
bar ons
bar ometric
Ser vices
ik i
cor rupt
cor pse
Tw ickenham
cult ures
fron tal
country side
compet itors
manag ing
Har vey
compos ers
Ed die
Ber k
black s
fle x
Pal en
ring ton
sl ated
Ham el
far ther
cir cles
Sci ences
fav ored
Town sville
cop per
Ang lesey
Bra ves
Robert son
individ ually
hon ors
Cr ush
185 2
185 5
Cam er
dol ls
phas es
Dr um
bi blical
invest ors
186 6
sat ire
exc ited
nest ing
priv ately
187 2
cou pled
Lu is
temper ate
gal ax
Camp us
ili ers
Che ster
attract ion
Sto kes
exper iments
necess arily
finan cially
health y
step ped
dark ness
web sites
prov oked
tax i
symb olic
murder ed
spect rum
Dist ribution
excl uded
pup pets
depict ions
flank ed
Engine ering
ceremon ial
gam ing
manufact ure
manufact urers
northwest ward
encour age
illustr ations
Sen ior
Tim baland
Hib iscus
beach es
mort ality
hur dles
Even ing
87 8
rival ry
dan cers
Pho enic
inf est
stret ch
desc ended
wid th
Test s
advis ories
bin ary
electric ity
Dom oina
Ye omanry
controll ing
cry pt
shel ters
suppor ter
expect ing
Spring field
assess ment
Person nel
decis ive
horn s
Rhodes ia
abol ished
accom mod
Palmy ra
surpr ising
inher ited
collect ively
tu be
1850 s
reservo ir
Confeder ate
frustr ated
Az ores
aph ore
Malay sia
WC W
cyto plas
toler ance
truck s
exem pl
accomplish ments
infer ior
disput es
rede velop
Comple te
legitim ate
pap al
comprom ise
metall ic
spar se
stere oty
brut al
denomin ation
Hind enburg
divers ity
Bright on
circul ated
pseud onym
jur is
Commer cial
Wed nes
boil ers
Leban on
warn ings
vio let
corrid or
bene ath
Metall ica
Chair man
Eps om
Mob ile
Pione er
sla very
Ule ki
hypha e
Bulgar ia
Cec ily
Egu chi
Mā ori
McLu han
2 O
3 70
A ut
A side
A gre
A mun
B uch
C ann
C lar
C rist
C oss
C AA
C inem
C ott
C avalry
D ah
F ab
G M
G el
G ross
H as
H az
J ill
K arn
K aly
K ashi
L P
L en
L ions
M ason
M ust
M ove
M oney
N T
N ur
N ig
N ancy
O L
P in
P ut
R ing
R it
R ear
R ough
S cap
U prising
V ick
V arious
a thed
b apt
c ogn
c lip
d os
d ors
e ager
f ro
f ers
f itting
f ont
g olf
h ung
h urricanes
i ć
k un
l en
m ound
m ould
m aid
n ian
o i
o val
p enn
p agan
r ill
r ack
t ended
t ides
t ensions
u cle
v intage
w ield
y uan
z ens
á l
ń ski
in struct
in stein
an ing
the or
on z
re pt
re vel
al u
ar o
is a
he aven
le ap
ro be
ad ul
ad orn
se aled
am ic
am oto
ch am
ch ond
de z
de ll
ve er
im men
im mun
ig ations
con vert
id ol
ab sent
pro spect
In ari
sh oo
sh irts
ne um
li b
art en
em barr
est ates
est uary
ak ur
oc ar
per forms
man sion
ack Down
ge ography
not ion
not ices
ud or
ip h
her ed
her al
af er
af raid
up s
up rising
bl ues
pr ices
sc rapped
18 20
part ition
gu ards
sp ill
sp ans
sp ont
sp aced
ite cts
cre am
Th akur
no va
any where
Al am
Al ways
fl our
fl att
mon s
mon itors
Ar med
Ar ms
air ing
air lines
ob sole
under lying
reg ulations
En vironment
ru ined
season al
ern er
sy mmetrical
sub ordinate
my celi
ma j
med ic
med ley
iel der
ific ate
No bel
sur faces
15 1
inn ed
par rot
add le
Nor se
orn ament
Con stitution
ci als
30 th
hy p
stor ed
mill imeter
Se as
Se bast
Wor king
ib re
ib ly
Is la
mil itia
tri be
ah u
che stra
east er
Col in
Pl ains
11 1
bre ath
Gu ang
care fully
public ity
last s
organ ize
hum orous
Ad venture
Pro ctor
real ize
real izes
fac ade
Or igins
24 3
24 th
sk a
Co al
Pe ace
ator ial
fort ress
ik a
members hip
indu ction
moder ately
Air borne
key board
Ed mund
Reg ion
lay out
ov a
techn ologies
quad rup
break er
tre ason
mass es
Some thing
ho le
vir us
commer cials
Game play
compl aints
free ly
reve aling
rid icul
super f
188 6
pan ic
186 0s
Sm ackDown
intens ify
Mer i
Mer cedes
Zealand ers
Sing ing
coach es
Tri ple
Arch itect
cou ples
whe at
Wood s
Wood ward
Wood full
Del hi
dev ices
Record ed
determin ing
Sol ar
achi eving
Dis ney
request s
dark er
Long acre
eu x
hu veer
mole cule
investig ating
Mem ory
Prince ton
pul p
Ka hn
Prote ins
brown ish
Leg isl
strugg ling
alle st
Way ne
farm land
captain s
uzz le
Mass a
dress es
require ment
Bre ed
Hy d
legisl ative
recon cil
extr ater
favour ed
Dev on
hur st
Xe F
clean ing
resem bles
virt ue
myth s
sul fide
Bor g
auto biography
disc arded
publish ers
AR IA
Row son
Bru ges
nie ce
roof s
Wy att
tack les
spons orship
Hard y
fold ed
ceratops ians
explos ion
crown ed
squadron s
vary ing
ja velin
Rif le
WW E
recre ation
disci ples
Ant illes
Stock holm
mud a
orche stral
plate au
Guy brush
employe e
fing ers
limit ations
escort ed
Fa ith
Sem aphore
invent ed
politic ian
Win ston
absolute ly
Cob ain
Ful be
Lud low
strict ly
Tam il
Ah k
coord ination
colog ist
Hur on
Rag huveer
hin der
confront ation
plas ma
accum ulated
advoc ate
thro at
Cho ice
promin ently
Crusad er
Ultim ately
diagnos ed
Brid ges
motif s
popul ace
neighbour ing
Lt d
accus ations
desper ate
Nov ak
Ost end
delic ate
horizon tal
Agr icult
Hang zhou
Aren a
Ech marc
tong ue
crusad ers
teles cope
kitch en
metap hor
unci ation
Fus iliers
Voy ager
Wey den
Astra eus
Bened ict
euk ary
reargu ard
JT WC
cytoplas m
Wednes day
Agre ement
immen se
embarr ass
obsole te
Echmarc ach
A bo
B I
B end
B order
B enson
C ou
C rom
C os
C row
C lan
D P
D iana
D angerous
E ld
F igg
H O
H unt
H ank
H IV
I X
J ak
K az
K ling
K akapo
L or
L al
L iang
M ing
M ent
M ess
N R
N ina
P ick
P sy
P ris
P SP
R ight
S F
S ant
S aw
S car
S event
T B
T et
T ask
T ama
T udor
U sing
W S
W es
W ord
W iz
W oman
a ford
b ou
c um
d il
d itch
d igging
e es
e uc
g io
g rossing
h ast
i Tunes
j ar
k el
k ers
l ust
l amps
m im
n ava
p ent
p odium
r ational
t ors
t ier
v ard
w ake
w restling
w ilder
z her
z og
z ora
Æ l
ã o
in form
in direct
in struction
in die
in vertebr
an us
the ology
ed ible
re ly
re bound
re marks
at ivity
en th
st ir
st ors
st unt
st atic
st olen
st umps
al arm
ar as
it i
ic ating
he ter
he ated
he avi
le m
le p
ent ity
am and
am end
om n
ly ric
ch ains
was hed
de struct
de vote
ol ese
ir is
ow l
ce sters
con fig
ul ator
et c
et ed
op p
mo sa
In s
sh ine
tr ap
tr ace
art if
ex agger
ill um
ill ance
di ving
per m
per ce
out fit
end ers
not iced
ine as
ine ae
rit es
but ton
Ch ase
Ch erry
up stream
der ives
ep ing
wor ms
pr ince
au then
tim ing
ser vers
18 33
ok an
gu ilt
pres byterian
dis placement
sp her
me er
pos thum
ren ched
og na
mer ie
mer ger
mer ging
ens uring
co graphy
would n
under neath
ind a
kn ight
ret iring
Re ed
Re formed
gen y
can e
Com et
later al
cons umed
sub merged
ins ist
ins ki
ma x
ma el
appe aled
16 4
17 69
eng ra
pop e
down graded
Be eth
hy dr
trans formation
oper ator
crit ically
ib n
13 5
overn ight
dr ag
Pl um
sol ic
sol utions
attack ers
continu ously
Her bie
Her mann
Me ad
Me gal
Fran co
ime ters
count ed
app ers
partic les
Par ade
inc umb
All āh
kill er
arm our
person a
sent enced
Ge ography
expl orer
mar sh
mar row
ref using
stri kes
28 0
Co x
Batt alions
Tr aining
Tr acks
stead y
Church ill
Port land
Port able
tele vised
flo ors
decl ining
comb ine
Vi j
sound ing
Ed in
Ex am
Ber muda
prim itive
Phil lips
know ing
broad ly
reli ance
carri age
Mor ay
Red Oct
rail s
Str uct
mode led
Rock star
reason able
FA U
length y
Tor ch
Bel fast
bow ler
ti ary
touch ing
watch es
proper ly
Arab ia
Cong olese
los es
hol otype
Mid dles
Cer tain
Tom ita
cost ume
sal t
minor ities
dead line
187 9
187 0s
broadcast s
Under ground
link ing
Che mical
market ed
Land s
Sto re
determin ation
progress es
progress ive
celebr ations
Ty phoon
Tran sit
complex es
rum ours
plant ed
distin ction
cis es
ec cles
horse power
secret ly
spect ators
Er zher
Ka iser
mob ility
wear s
Bul let
Turn pike
poly gam
athlet ic
flank s
ceremon ies
avoid ing
mountain ous
narrow ly
dete ctive
princ ip
Hy der
Sen ators
frag ilis
SP N
speak s
address es
Eli ot
firm ly
actress es
rac ial
Arm strong
rif fin
Admir alty
Kr ish
decre asing
cab in
supposed ly
twel fth
dub ious
Jun ior
affect s
Tal k
Por trait
Fair ies
strateg ies
theat res
Carl isle
demol ition
integr ated
Stock well
profit able
legend ary
Lev ine
orb its
Pict ure
ugh t
excess ive
Dor othy
Sle aford
osom al
Amb assador
instru ctions
hypo thesis
lad ies
liber al
det ached
ais le
quant ities
colog ical
loose ly
psych ological
Buck ingham
endar merie
promin ence
Crusad ers
Cla ire
dee per
Raid en
zomb ies
Survi vor
monit oring
Plat te
Wol ver
Represent atives
Hub bard
Colomb ia
Poet ry
Dian e
relax ed
trunk line
syād vāda
Kub ica
Assist ant
explan ation
Hadd ock
Cont inent
acquis ition
Hoysal a
indo or
Comb ined
Ors ogna
Odys sey
Patter son
refere e
Notting ham
dors al
Sebast ian
Abo ve
euc alypt
heavi est
cesters hire
authen tic
RedOct ane
Erzher zog
4 80
5 7th
6 0s
9 10
A ur
A mand
B P
B ear
C i
C and
C ave
E ra
E ye
E rik
E SPN
F inch
F rid
G av
G lor
G lam
G hat
G aga
G iven
H E
H im
H ous
H ood
H ollow
H BO
I van
J ama
K or
L ak
M am
M ith
M ood
M ond
M umb
N x
N as
N ame
N guy
O il
P ig
P end
P aper
P ont
P agoda
R ut
R ather
S ev
T ou
T ob
T ry
T OT
V ers
W ally
Y oko
Z one
a qu
b ent
b bles
c art
c ence
c ue
d un
e cology
f ra
f ric
f ret
f oul
f athers
f ielder
g ag
g um
h ub
i ences
m our
n ity
n ée
r er
r one
s ends
v ap
v ain
v ador
v oting
w o
w y
w yn
Å les
Ō zora
in der
in vention
in visible
er ary
er up
an chor
ed iting
re ction
re med
re building
en vision
al in
ar p
is cu
ou k
ic z
le x
il ian
se ctors
am pton
om orph
ch t
ch amp
for aging
de cent
de vised
The od
The mes
ver dict
un ton
un even
con sp
con sequently
ag ne
id ency
el ing
el ong
ul ip
op ter
ut ed
ab str
ab ling
all ied
su ite
are na
pro pri
In cre
ne o
ne ur
ne ys
li fel
li oz
tr ilogy
est ion
ex pressing
oc he
ast ing
ant is
gh an
per former
per secut
man ual
end ors
end angered
ord ination
iv ic
str and
str ings
po res
po ster
bl og
bl ance
comp ares
St age
ew ard
wor ried
att ain
rec y
rec ipes
18 21
18 31
18 34
gu ided
dis rupted
ile y
me g
An field
Th or
we go
fin ite
ren owned
no graphic
pre valent
ric on
co y
spe cts
ance stry
ance stors
inter n
inter course
Al ter
Al lies
Al onso
ang les
Au di
Au ck
new er
ob serving
ob serves
when ever
under water
under graduate
kn ife
kn uckle
ret aining
Re y
Re ign
Re formation
Re ading
some body
Le ading
New man
sel sk
appe als
go at
mus cimol
cur ed
fer al
found ers
12 1
loc als
Sh i
Sh apur
pol i
Se ctor
met ic
leg ally
13 7
Gr isham
design ing
War ner
War wick
come back
car avan
group ed
Fe et
Pl atoon
sol ving
Bl air
atter ing
Me yers
cr ack
prom ising
prom oting
cour ty
tal ented
cast les
Man ual
Man hatt
Cl aws
count s
Mon te
hand ful
hum ili
Mc Dou
gener ating
short s
Sc out
ax is
review ing
Pr ay
Ad d
church yard
23 rd
fel d
effect iveness
refer enced
Per onist
ator ies
Bar r
Bar bours
fr act
27 5
polit ically
wood s
every body
augh ter
pen is
bur st
post season
total ed
rad i
Comp et
Cent ury
never theless
soci eties
Su z
ner vous
Ber lioz
Rich ie
Road s
mission ary
Ham let
cop al
process es
cru el
Ev il
Sw amp
dou bled
special ist
Mor avia
compl aint
concl usions
Str ange
nat ives
Mac Arthur
Bay eux
Ver meer
account ed
avail ability
188 4
drop s
stay s
Qu arter
Bel le
bi as
fre ed
business man
Em ily
touch ed
happ ens
independ ently
econom ics
Sing le
natural ist
pay ment
pay ments
ump ires
mat rix
slow ed
mor ale
Lu ther
screen ing
contr ary
RA F
defeat s
rein carnation
jud icial
emer ging
meant ime
Sal vador
wal ked
kil ogram
necess ity
Di amand
portray ing
fit ness
log ical
AI DS
Fre eway
plant ation
enjoy able
cat aly
odon t
Cle ar
crow ded
Prote in
Prote ction
Fri end
Leg end
kin son
strugg les
preser vation
180 1
sust ain
concent rate
gam bling
repe at
Pop Matters
Lar wood
Max im
Ly coming
alleg ations
propos es
Dun n
pursu ed
thr iller
resol ve
element ary
CE O
Never soft
Gard ens
Si beria
Fish er
trail er
coal ition
Democr ats
Row land
categ or
wart ime
negoti ate
negoti ated
Gar th
stal k
accur ately
patron age
cry stall
hun ters
fi xtures
leuk emic
agu ar
intention ally
integr ation
Ell en
Jere mi
dynam ics
crash ed
contribut ing
interpret ations
Pict ures
util ized
Fernand o
Plan et
persu ade
patch es
Stand ing
Glad ys
instru cted
shr ines
enh anced
scr atch
preced ed
Poly tron
frustr ation
embr y
sop hist
suburb s
culmin ated
sentiment al
refuge es
synthe si
jew el
clin ical
coinc ide
apprec iated
intim ate
Feel ings
Sn ake
Ep is
ighth ouse
sacrif ice
Econom y
fest ivals
Pup pet
constitu ency
Bes ides
echo ed
mathemat ical
stap le
Num bers
tut or
Arn old
iast ical
Sche er
eros ion
summon ed
Harmon ix
Uygh urs
Tun nel
Belt line
haz ard
Gamb ia
Normand y
Coll ins
Aff airs
atmospher ic
Kum ar
Scandina vian
dread n
Pompe y
mycorrhiz al
Bute town
Zap ata
Huguen ots
Dard en
atab ase
Brus sels
accommod ation
Cott am
Dah lan
shoo ter
Isla is
Tama ulip
Æl fric
incumb ent
Edin burgh
Torch wood
Amand a
Mumb ai
Åles und
Manhatt an
Diamand is
Tamaulip as
6 50
A o
A ch
A mp
B rom
B ile
B asket
B aja
C ele
C rane
C abo
D re
D il
D are
D OT
E uras
F ight
G of
G ay
G ru
G east
G onz
H undred
H ears
I b
K em
K PA
L N
L ion
M oth
M ansfield
M insky
N ol
N ir
N ail
O ro
O wego
O ricon
P all
P red
P itt
P rison
R CA
S K
S O
S ip
S pr
S ove
T apes
V all
V ik
W ever
W ins
W ii
Y a
b il
b ors
b ons
b ilities
c ile
c ann
c hel
c itation
d inner
e e
e be
f ol
f ond
f rog
g ents
g ale
g lee
g endarmerie
h ag
h ollow
i astic
j ail
j iang
j okes
k h
l ady
n an
o ley
r amp
r ats
s lower
s aints
t ire
u able
w ines
w ages
z el
è res
ó w
in son
in hal
in sufficient
an cho
the l
ed on
re production
re pet
re united
or gans
st aging
ar ray
es cal
is ch
to bac
le st
le ctions
le tons
ro pe
ro bot
ro bust
se aw
be osaur
ch ore
ir ie
ig uous
un popular
ay ette
con fined
ag h
ct ory
te ars
ul tra
ri ving
ap per
op us
rom e
pl ural
pl ains
pl agu
all ing
ist o
ist ically
sh ed
sh ame
sh af
sh rubs
ne apolis
cl an
cl utch
art a
em pt
igh test
ak h
ak in
di version
di ocese
ort on
fe as
end uring
ud a
av or
bl ad
comp act
pr oud
bo hem
ater nal
att ribute
18 40s
cont ing
dis par
dis may
dis appointment
dis appointing
sp inning
des ir
vel t
An tar
An alysis
fin s
no it
Un limited
Un iverse
inter im
inter ven
Al pha
ph araoh
ang led
mon o
mon itor
min ed
air fields
vis a
ob ia
ry ing
reg ulated
ose velt
En nis
day light
game company
Re cent
Re ports
ru in
ty ing
On line
spec ified
ele g
rel ates
sub mit
New ell
cap ped
cap itals
back wards
mus cle
De c
ific ant
mi to
cri be
No thing
sur passed
inn ati
Con nor
Con serv
Con tin
Con servative
Ro osevelt
cle ver
team mates
sign als
sm ugg
sm allest
diff ers
Se ym
Mar vel
Mar cell
Wor thing
leg ends
rece iver
vid ence
Is is
tri vial
Ger ry
Gr ac
read s
Car n
che ap
dr ains
national ist
Eu gene
Pl ace
prote ctor
prote cting
Bl uff
name ly
tal ked
Ac ross
ling ton
gener ations
short age
period ically
By z
flu ores
Pr as
Ad vert
bro od
bro ok
month ly
Or chestra
Li k
Bo o
26 th
mid night
Pe ck
vo id
half time
refer end
craft s
Bar bie
fr id
Char med
times lot
bas al
eder ation
manag ers
Har bor
novel ist
Vi king
key boards
Ed ith
Jack ie
amb ition
Ex it
Ex peri
teen age
burn t
ov sky
So ir
battle cruiser
host ing
broad er
reli eve
Min neapolis
cret ion
Val uable
Sw an
Mad res
My cena
rid ges
length s
hous er
argu e
Gl itter
flight less
Hel m
aut onom
186 7
Hol l
box es
That gamecompany
Hu ai
Tri poli
FI BA
cou ver
perform ers
keep ers
Sou l
squ at
Del ta
grant ing
Go ogle
Cal der
Dis appeared
bank rupt
Fle m
Ven ge
tax es
target ing
scient ist
Mem ber
hi ro
qual ities
Cle an
Bul garian
Jul ia
kin der
Cra ig
Hait ians
demonstr ate
restr ict
spread ing
Def ensive
lock s
exhib its
Ve eras
yellow ish
encour aging
mechan ics
Lis bon
Lis zt
Cy clone
Dun can
NH C
eigh teenth
acad emy
resem bling
Fer b
Cold play
Blo ody
dream s
Pho ebe
sens ation
contest s
worship ped
auto mat
Rod rig
mushroom s
nell um
commission er
Bos i
ici ency
spons or
Test ament
exer cises
convoy s
pled ged
joint ly
icon ic
convict ed
Marsh all
custom ers
volunte ered
neighbor ing
Sher idan
tick et
abol ition
nut ri
arte facts
consult ant
inaug uration
Pict ish
Ur n
valid ity
invent ory
feed back
adm ired
mos que
insur gents
inher it
ske letons
Trib une
Nam bu
Cab ral
Shel by
Shel ley
labe lled
uncertain ty
sper m
clust er
adopt ion
Michel le
Case y
1830 s
Ta unton
Obser vers
Charac ters
facil itated
Indones ia
Pic ard
compens ation
subsid iary
juven ile
juven iles
Lind say
sew age
Author ity
gau ge
diagnos is
ogen esis
mathemat ics
persist ent
surve ys
Kick ing
Krist ians
Ric ci
Thir ty
conven ient
antagon ist
pian ist
Boot leg
Sie ge
guerr illa
issart ensis
satir ical
bern issartensis
epi thet
Than houser
Hond uras
Condom s
Ish mael
arist ocr
wis dom
Fro st
Osw ald
umbri a
Vaish nava
Duch ess
Move ment
lib ret
Woods boro
Breed ers
Hyd nellum
eccles iastical
Hyder abad
Mood y
Theod ore
knuckle ball
Ao T
Gof raid
Geast rum
Sove ts
ancho ly
shaf ts
Veeras ha
3 17
7 0s
A ber
A gg
A mede
B ab
B ody
C N
C inc
C ai
C ze
C risis
D iction
E mer
F ass
G T
G ent
G ut
G lee
H av
H ost
H inge
I D
I UC
K iss
K ai
L ex
M ind
M arri
M aine
N est
P on
P itch
P ike
P DR
S lo
S ank
S ons
S ister
S afety
S nell
T ir
T ric
T sub
T ina
T resco
T otten
W R
W int
W ied
W ica
X X
a ig
b oun
b ree
b ied
b ureau
c ia
d um
d red
d irt
e 5
f ume
g ill
g ae
i y
i able
l uk
l aps
m ns
o a
o ath
p end
p ipes
p neum
s ions
s ins
u ate
u its
v ae
v ara
w er
w ig
y i
y lide
é s
ü r
ć a
in stant
an ic
the ft
on ed
ed ia
re pr
re play
re fur
at ric
at aka
or ers
en ne
en stein
en roll
en closed
en acted
en abling
al ine
ar ma
ar ise
ar rows
as sets
it ure
it ime
ou che
ro qu
ad her
se men
am en
om itted
ch ants
ur ated
ur ance
was ps
de posit
ol ate
ol ive
im ply
im print
wh it
wh ites
un identified
un necessary
un veiled
te t
us z
by pass
ul an
ul ing
19 1
op o
op hus
um m
ut s
ut land
ab rupt
all oy
mo ored
mo dest
sh aw
sh aring
li a
li ver
tr igg
tr aced
cl ick
em bro
ich erry
ast ed
di verted
ant ib
out lets
out numbered
out lined
fe it
vi k
over looked
ass ignment
Ch ay
up date
bl ess
port ico
St ri
lo go
lo ves
sc andal
int ensive
18 25
gu ess
gu ys
dis cern
sp ik
me al
An at
An ci
Th orn
fin ity
fin ance
no vation
ance stor
amp h
red dish
ph ones
Ar men
vis or
under way
reg ret
reg ards
reg ulate
kn ights
ret ains
Re action
gen etics
than e
char itable
so ap
so ils
10 4
view er
sub urban
sub tle
sub stituted
cri bed
cur ric
No va
15 5
15 00
long time
Con cer
Brit t
down s
Sh in
Sh ot
Sh iban
ped est
Ro th
Ro oms
dec ree
hy brid
let te
ste aling
war ming
crit ique
met ropolitan
success es
open ly
open ings
50 th
itt ings
design ers
che ese
August us
serv ants
car ving
mark ings
report ing
Wil der
Wil frid
Cl im
ling u
All Music
differ ently
Ste ad
And h
match ed
Or thodox
Ph ineas
28 th
Co venant
Indi ana
aken ing
similar ity
Batt les
commun al
fr amed
struct ured
gl am
ik h
every where
test ified
post pon
decl ines
To o
Ne ed
rap per
activ ist
activ ists
law yers
Su ff
sound ed
teen ager
fle e
sett ling
ung le
Pal m
Mont agu
Sci ent
campaign ed
Grand e
Min h
accept ing
ug ge
Am ateur
Med dings
mean while
Flor a
Cr usade
Str at
mode lled
Ver tig
counter attack
account ing
prob able
acc idents
bill ed
pan ther
Dr am
186 9
bell s
hard ly
transport ing
hair style
Pre vious
prec ious
intens ification
Dan ish
fail ures
mis es
187 3
Light ning
FI SA
prior ity
Fort une
exam ine
gal er
Not es
radio active
demon s
Earth realm
ato es
Record ings
attract ing
conv inc
hero in
Tre asury
Second ary
Tenn ant
Ram on
withdraw ing
Tem pest
Fin ley
wound s
Ven ez
log istical
types et
pick ing
dem ise
Ottoman s
investig ations
scient ious
ec lip
Er n
lic ence
pra eter
Jul ius
chor al
Van couver
Leg ion
forest ed
Burn ley
raid ing
gam er
revol t
Ann ual
Bre ese
illustr ate
ingu ished
smo king
seek s
Commission er
alleg iance
negative ly
benef icial
moment um
cust ody
council s
Sat ake
virt u
avi an
fictional ized
sul fur
Democr at
faith ful
inf ant
paralle ls
stret ches
conve ctive
Bos nia
san ctioned
advis ory
Hor us
accur acy
Qedar ite
Gram mar
Ele ph
Stud ents
fashion able
Less er
hun ted
carbon aria
Loc ke
Bron ze
shark s
Yo sh
orche str
elev ations
Corn wall
check ed
Kit ty
tight ly
ctic ut
goddess es
DAG s
Div isions
stall ion
Sel f
fant astic
lob ster
lob bied
bac teria
agi ar
Pow der
constitut ed
Nic ol
depos ited
commemor ated
Bou levard
Fem ales
agar ic
synthe sized
enthus iastic
stress ed
verte bra
Polit ical
Andre a
devast ated
Comple x
Bald win
Lau rence
Nap a
reject s
Ultim ate
Hem is
pron ounced
Conne cticut
motiv ated
philosoph ical
zomb ie
physic ian
enforce ment
acceler ated
exceed ing
surve illance
disgu ised
Ol af
Tow ards
cub ic
Invest igations
oxid ation
Gabri el
Zim mer
Montene gro
compat ible
Grec ian
gran ite
Cruiser weight
Current ly
Gry llotal
Brow ard
Scleroder mat
Voc al
Hew itt
Laur a
Chance llor
Phoenic ian
juris diction
Gross man
adorn ed
flatt ened
Beeth oven
Frid ay
abstr act
Auck land
selsk ap
McDou gal
Bile ća
Basket ball
tobac co
plagu ed
Seym our
Lik ewise
Ricci ardo
Amede o
Cinc innati
Cze ch
Fass l
IUC N
Tresco thick
Wint ory
refur b
Vertig o
Venez uel
praeter visa
2 21
9 0s
A M
A U
A e
A ne
A ret
A gust
B ever
B ros
B rent
B omb
B har
C av
D hang
E ty
E lection
F U
F east
F CC
F oli
G ren
H U
H its
I bra
J ur
J utland
L of
L ope
L ester
L ulu
L erner
M ans
M ake
M ik
M otion
N ab
P ed
P ent
P au
P ale
P iano
P iper
Q x
S mo
S part
S pect
S anti
S ett
T ol
T rom
T 30
T rent
U day
V ent
V ernon
W ake
W anna
X I
Z omb
a us
b ir
b row
b ars
c ated
d 5
d ong
d ick
d runk
f ford
f uck
g ases
h agen
i ot
i ant
k rat
l é
l ity
m ire
n ude
n omen
n onsense
o es
o bey
p ah
p agoda
p amph
s ab
s urn
s killed
t ired
t ables
v ana
w and
w ic
w arriors
y an
th ood
in ating
in fect
in put
in test
an xi
on de
on ance
re vision
re constructed
re jection
en forced
st ake
al k
al ert
ing red
it ational
ic ant
ic uous
le z
ro e
ac er
il er
ent on
ent renched
se ap
se ld
se pt
se cre
se eds
am ine
om o
be ast
be que
for k
for gotten
im it
im min
im mature
un ions
un ted
un sure
un happy
un preced
ter iscus
con fer
ag eway
id ity
el ope
ul ance
ot ive
pl ague
um an
ab i
su ed
are z
ne b
cl ed
em ics
em placements
est e
est y
di al
ber ys
per ip
qu ot
qu otes
out ages
out law
vi able
ha il
ge ograph
but t
gr ants
act ic
po x
comp rise
ev ogn
lo ch
lo gg
sc iences
ure thane
att itudes
18 44
pres um
pres sur
pres umed
off spring
dis ast
dis cre
dis playing
dis appearance
dis charge
dis solved
des ires
cre ep
cre ates
An gl
ice a
no ct
pre h
pre ference
pre historic
ric ally
Un ic
ang s
fl ock
fore cast
mon astery
Ar tic
air space
vis uals
vis ibility
bu gs
ob jections
arch ed
arch ery
arch itects
Re vi
Re port
Re ub
Re covery
Re clamation
ru th
ru gged
can opy
ide ology
lar vae
rel ate
Af ghan
do ctors
16 5
sup press
par odies
17 94
17 59
add y
Nor theast
eng er
Sh op
Sh ield
ci us
Be havi
hy men
develop s
pol es
let ting
ste als
sm ell
sm outh
diff ered
may be
present ing
crit eria
cy l
Mar qu
Mar ía
io ch
14 5
tri bal
tri angle
fun erary
aim s
def ine
cr acy
Par as
water way
fur s
hal t
period ic
Europe ans
Pr inci
mar ine
Ad vance
We ber
fact ions
colle ctor
vo ters
quar ies
Per haps
find ings
Canad ians
Port smouth
fan cy
Tw el
Tw ice
Pol es
Count ies
gar age
Har aj
pur ple
Vi ew
compos ing
Ed mon
fle ets
Rich ards
High lands
experi encing
far mer
sw ift
fif teenth
recogn ise
profess ors
ded u
nar ration
employ ing
Game Spot
concl uding
lam beosaur
research ed
contract ing
Ap proxim
Gal entine
redu ces
House hold
Cap illa
dy n
travel ers
counter parts
super structure
188 7
quarter ed
Qu ite
football er
Coun ter
36 th
hom ore
hom eless
186 4
hard cover
treat ments
Ter ror
cal endar
Rose berys
text ile
score less
Card inals
pay s
mis sile
conf isc
Lu ke
cele st
Under wood
pitch ers
Frank fur
ih an
Sur rey
Land ing
ML s
dev il
Ca en
emer ge
hero ic
mig rate
celebr ating
Dis covery
anal og
alo gues
possess ing
portray s
regard less
arc ade
except ions
except ional
tax a
ec to
Pen elope
Alex and
corn ers
iron ic
heart ed
Leg ends
grass land
Gi ant
Rob ot
Rob bie
incorpor ate
border ing
folk lore
deliver ing
rem astered
Andrew s
lif es
rush es
candid acy
Op éra
illustr ation
guest s
sand stone
Writ ers
extr av
Rol l
benef its
glo be
cust omer
question ing
Rog ers
domin ance
scholar ly
Tra fford
fair y
scar ce
udd ers
stro v
Hell er
rac ist
Broad casting
glass es
gro ve
Brook lyn
ji had
Gra ves
rol ophus
doub ts
willing ness
assem ble
Stevens on
explos ions
Wind ows
hun ter
agree ing
bond s
gor illa
Pass ion
Ant ioch
decor ative
shif ts
shif ting
ropol is
ios ity
Joy ce
aks in
answ ers
obl igation
convent ions
cod ed
impl ied
column ist
divor ced
doct r
Stand ard
Trib ble
Bah am
barri ers
intent ional
biograph ies
shock ed
dwarf s
harmon y
switch ing
sop homore
culmin ating
Publ ish
haw ks
deser ted
enthus ias
quant ity
exem pt
coinc ided
nom ine
supplement ed
pione ering
disput ed
intercept ions
facil itate
devast ating
thi op
compens ate
affili ated
profession ally
icy cle
Wer ff
Kle ine
wrec k
antiqu ity
Lamb ton
Andr é
Hit ler
Mother well
edit orial
guaran tee
moist ure
Ukrain e
Lem on
Scr atch
summar ized
Nf 3
dramat ically
Aw akening
Sic ily
Vari ety
colleg es
Syl via
Pear l
prolong ed
Scre en
Elli ott
Cert ifications
Tradition al
Jas per
Aval on
Bore as
analys es
pept ide
Hein rich
Franç ois
Individ ual
Palen que
cham bers
superf icial
Borg nine
Pris m
Sevent een
Wiz ards
Krish na
Glam organ
envision ed
embry os
sophist icated
Sip py
bohem ica
desir able
mito chond
Pras ad
kinder g
Veerasha iva
Diction ary
galer icul
Eleph anta
Powder finger
Hemis phere
Aret usa
Foli ot
Ibra him
Santi ago
immin ent
unpreced ented
Afghan istan
Princi pe
Haraj uku
Approxim ately
3 19
5 16
A gn
A chie
B g
B ard
C ort
C live
D iss
D ock
E R
E mb
E rics
E ighth
E thiop
F 1
F é
F ind
G O
G ama
H ear
H ence
H ull
H orses
I C
I M
J azz
K ap
K ant
L l
L ing
L one
L act
M if
M urch
M ale
M anning
M ental
N os
N ord
N ue
N ike
O u
O gh
P to
P ain
R are
R ise
R ena
R FU
S aid
S ched
S ier
S elect
S trait
S lav
T her
T aking
T ank
T anz
V ing
V ision
V ery
V atic
V III
W B
W ł
W it
W id
W adi
X u
Z h
a es
b assist
c ivic
f ran
f use
f ores
g ly
g lor
g ems
g ully
h il
h ides
h iding
k ok
k les
l ain
l unch
m ise
m uzzle
p ub
r ut
r age
s om
s late
s que
t is
t awa
u z
u arius
v oy
w right
z co
z hu
z oo
è me
š ka
ا ل
in flict
in sect
in fections
an om
an te
the istic
on er
on ium
re joined
re hears
at ile
en light
en rolled
st om
st ag
st icks
st idia
al tit
ar on
ar is
ar bit
and s
of eld
is aurus
is evogn
to la
he mis
se al
am m
am bo
be ads
de pressed
de lb
de ceased
The a
ol ence
ir ty
ir ony
ir delb
im mers
ig m
ig ouche
ver b
ow itz
un used
un beaten
un employment
ter restrial
con color
ag ara
id as
by rinth
el bow
el ih
ul ov
op hon
com pose
pl ated
pl agiar
ab dom
all us
his m
mo th
su bl
pe ers
pro port
pro ph
pro vision
In ocy
sh uto
ne on
ne uro
li z
tr im
tr aw
os es
ther mal
art ments
em bodied
est a
ex ceeded
di ale
ber ian
ant imon
per mit
man or
out door
end ra
vi z
over ly
ha iled
ord a
ine ffect
ass an
ass ists
ud ding
if fer
du ck
fir ms
af firm
po graphy
20 2
bl u
comp uls
St ing
ep ide
au tomatic
lo o
ign ore
18 24
18 45
18 75
18 39
ran o
cont am
aw k
dis gust
dis mant
dis cretion
sp p
sp are
sp anning
sp iders
comm ence
cre atures
An ime
ell ular
Th arp
Th aksin
ren s
ren ds
ren umber
cent s
urn al
ace y
pre mises
mer cen
mer chants
co ordin
inter se
inter act
inter active
fl ocks
mon ks
min ded
air field
bu ying
bu ilder
ob s
col ades
ret aliation
Re ala
gen ius
Com ing
10 3
my cologist
do zens
ma at
well s
back drop
De Grom
sup pression
found ations
par atro
Con rad
Sh ank
trans itive
Br am
Br andon
Se th
dep rec
For bes
13 8
mil it
open er
vol unt
vol ley
ank le
che ek
la byrinth
dr ained
car tr
Col er
Bl ofeld
fun gal
Gu err
Me c
gun nery
ony ms
prom ises
tal lest
govern ors
Man heim
reach ability
build s
world s
constru cting
sequ ent
camp uses
Euro gamer
tra uma
cas uarius
dest inations
expl oring
Pr imet
Sp isevogn
ref usal
command os
fac ial
Co ol
Co ach
mid st
mid fielder
Dy nam
vo is
vo ke
half way
round about
different iation
different iated
Bar re
fr action
gl iders
test imony
Mo ors
bur den
night s
decl are
critic izing
tro phy
To irdelb
capt ures
Har vard
occur rence
board ing
Ke e
Ex per
Reg ional
bus y
marri ages
rock et
aver n
sex y
sl ot
coast s
relig ions
rul ers
sw amp
peak s
mot ive
mass acre
cru st
35 8
termin al
pat riarch
ug s
Mor oc
Mac l
court ship
counter part
super vision
prob ability
Tor o
goals cor
Egy p
aut onomy
Que bec
bri de
hard er
syn thetic
Res cue
School s
Arab ian
enter prise
possib ilities
happ ening
text ure
defin itive
surround ings
Law s
execut ives
Hu izong
sal ts
48 th
Dan te
Sch ol
priv acy
Bal tic
acqu iring
bot t
flow ed
staff ed
Lo han
Art ists
mir r
mir ror
Under taker
Spe ctor
jud ges
Fore ver
Lou ise
Ty p
iny l
deb ts
Squadron s
Di arma
photo s
Rad ar
Rad ical
AI F
mist ress
Lan ois
tax onom
Ever ett
recover ing
Dou g
spl inter
Pen gu
qual ify
impact s
paper back
iron clad
relief s
Jul ie
Pan ama
draft s
Ben adir
Dist inguished
Van Der
tran sc
tran sp
tran sept
demonstr ating
incorpor ating
Bet ter
sculpt ed
protest ed
excav ated
thir teenth
Demo krat
narrow er
Histor ically
Hy de
sand y
lys is
Field s
Ry der
pack ed
Ali en
Ret aliation
resist ible
compar isons
compar atively
resem blance
domin ate
Bas in
virt ual
Domin ion
Tra vel
Tra vis
Nat al
Rel igious
Alli ance
Jain ism
trou bled
cool ing
anth ology
Liber ation
Team s
launch ing
sight ings
tend ency
Low e
Jun o
Pers ians
ceratops ian
patron s
recru iting
cry stal
tip s
strip ped
tos s
tos is
lik ened
lik elih
Init ial
Bron x
lu x
wet ter
spaces hip
valu ed
grav itational
chrom atin
diag ram
serial ized
Descri bed
superior ity
Bang kok
pure ly
obl ig
Jenn a
Rest aur
Rest igouche
Prom otion
lob by
copy right
consol es
Avi v
Glo bal
Sle ep
pist ols
vul gar
Gam er
Gam ing
intent ions
Magdal ene
Wu zhu
tot als
install ation
alleged ly
Kur stin
Iraq i
surge on
Say id
gray ish
semif inal
las er
pir ate
enzy me
sket ches
spor adic
Polit ics
predict able
Panzer gren
Ri vi
intercept ed
Andre as
outr age
profession als
Dod ge
Kau ai
Syn opsis
recommend ations
Honor ary
seventeen th
spark ed
corpor ate
Mong olia
Fut ure
wonder ful
Rat ings
Ice land
Num erous
reward ed
prest ige
prest igious
crimin als
femin ist
conspir acy
gentle man
FO CA
Stat istics
ambush ed
memo irs
cliff s
Ey es
cra zy
parad ox
incred ible
Map le
Pra irie
Sour ce
anno y
confron ted
besie ged
Amylostere um
LS U
dign ity
maneu ver
mammal ian
Hast ings
penal ties
digit ally
satisf y
Bod ø
Jacqu es
Kend all
annex ed
Ama zon
pock et
Immort al
Core y
vass al
theolog ians
mason ry
irrig ation
Steph an
rehabil itation
vow el
depress ions
corrupt ion
Camer on
galax y
Karn ataka
Nig el
Scap a
Environment al
maj ors
Dangerous ly
invertebr ates
princip ally
Glor ious
consp icuous
Alter native
Amp s
Nail z
Oro zco
repet itive
Contin u
Byz antine
Experi ence
Venge ur
pneum onia
Anci ents
postpon ed
Strat ford
vertebra e
Sclerodermat ineae
Bever ly
Angl ican
Reub ens
cyl ind
celest ial
kinderg arten
Erics son
Pto le
Sier ra
ulov E
Primet ime
Spisevogn selskap
Toirdelb ach
Diarma it
VanDer Werff
Demokrat en
likelih ood
Panzergren adier
2 10
3 DS
4 50
A V
A ud
A cre
A cap
A 48
B le
B ate
B ess
B read
C é
C ay
C od
C had
C ould
C ake
C ock
C ode
C roy
C yn
C Os
C asc
C edar
C oul
C ushing
D at
D ow
D ere
D up
D ana
D ami
D harm
E is
E MI
F M
F land
F ighter
F TA
G S
G az
G io
H F
H P
H ed
H ari
H ilda
I N
I T
J ains
K art
K ress
K erry
L ic
L ab
L iv
L ep
L ines
L oss
L iga
M ys
M ullen
N ile
N orton
O K
O R
O was
O uter
O ahu
P es
P un
P are
P em
P aw
P ie
R C
R im
R ous
R ange
R ights
S N
S ales
S oftware
S ihan
T ale
T rot
T akum
T oso
V ă
V es
V ig
W ies
W ak
W inn
Y ing
Z inc
Z ero
b age
b iz
b ble
b ids
c 3
c ig
c anyon
d ishes
d atabase
e a
f used
f right
f ax
g 3
g il
g low
g ob
g ins
h ay
h ler
i ett
j aguar
k ara
l ace
l ens
l ots
m itt
n ch
o ce
o que
p aternal
r agon
s ø
s ap
s its
t ann
t ents
t ze
u h
u pl
v inyl
z an
è te
ễ n
th al
th orn
th umb
in dis
in appropriate
er dale
re a
re build
re mission
re visions
re agent
or row
en viron
st ow
st alled
st unning
ar th
as p
es a
is se
is bury
ing er
to id
to ile
to ys
it ement
he ster
he arts
he aling
ro ster
ro okie
ac omo
ad icea
am er
om y
ur an
ur ine
for bidden
de en
de position
de tract
de acon
ol us
ir rit
im posing
ig ators
ver n
wh ip
un ic
un ts
un released
un common
un finished
con joined
id o
id ium
ul co
ul atory
ri um
ri ved
ri ft
ot enic
res by
res ide
com rad
rom an
pl aster
ab ort
ab olic
mo thers
pe c
sh rub
ne sty
li br
tr out
tr aps
ate mal
cl uded
os mith
em inent
od us
ill ion
ast on
ast ro
di able
di visional
gh ats
man ned
man uel
end o
tw ist
over saw
ha el
ha uled
ord nance
ge ological
rit e
ip oli
Ch es
Ch all
str ained
her ent
up coming
bl ade
comp are
comp ress
comp artment
comp artments
St up
ev angel
ach t
au cas
tim ed
sc rew
att y
int a
int us
18 18
18 17
18 22
ok ho
ree f
pres sures
pres idency
ile e
sp ine
Th ousand
og an
br ides
br altar
no x
pre fers
ric ke
ff ic
ens ahl
Al tar
ann ular
fl int
ie ve
ie ff
min eral
min ds
air borne
ob ed
ob ic
ob servers
arch es
En ix
ind ent
Re ad
Re con
Re ich
Com ic
Wh edon
num er
10 9
view points
ton es
ele gans
Le Chuck
sub continent
New market
do le
ins ign
sing led
Jo ey
back up
12 24
sur faced
17 90
17 66
cho osing
Sh am
ped al
Ro ch
Ro ok
run off
ste gosaur
sm art
She en
She ar
near ed
Mar se
For bidden
ib otenic
13 3
grap es
state hood
Car ly
Car lo
dr agon
ris ks
light ly
top s
Pl ain
Pl aza
mark ers
continu ation
get ic
Bl aine
rest ed
stand ings
pon ents
def enses
bre vi
bre ach
Gu est
Gu atemal
Fran ces
gun powder
cour aged
Oc cup
care taker
ys ław
Cl aude
Mon uments
appro ve
just ified
inc en
town ships
tra verse
gener ic
short ened
Ste la
Ad olf
ref it
match ing
Or b
aff o
Bo adicea
Ph on
sk irts
colle ctors
lim b
lim iting
mag ist
23 2
local ized
den y
den ial
ali ens
suggest ions
Te pe
commun ists
bar row
Bar rett
27 0
ik opter
Tr in
Tr ain
Char l
Char ter
cor onation
hold ers
Mo to
Mo resby
pen ultimate
clear ance
Pol l
indu ced
post ers
post ure
Des ert
rad ial
exp ired
program mes
Har per
Vi enna
omet ry
compos ite
should ers
law ful
Ed wards
amb iguous
Ex change
bus es
sex punct
techn ically
Po e
bes ides
sl ender
pred iction
El se
Ham burg
far o
cop es
host ilities
goal tender
tre asure
associ ates
cru ising
got t
termin ated
cert ificate
accept s
impro vised
pat rolling
Mad h
Am end
Cr ime
My ers
Jew els
rid ers
Ver mont
super nova
viol ated
viol ations
alter ation
Bel ieve
Vir gil
Dr agon
Hel ikopter
fre estyle
invest ed
186 8
Hol iday
But ter
syn th
responsi bilities
zz i
fru its
hol der
Mid way
Cer atop
Tom orrow
Mer cury
defin ing
exc itement
commit ments
according ly
mic als
dead ly
mis understood
187 1
ben z
ben ch
Scientolo g
frequ ented
exam ining
Wood stock
fa una
Mil an
Mil es
Mil ton
Mil itia
ato ire
Bro ken
Sol omon
Go ing
Sal mon
Sal isbury
Tour ism
mig rants
Mill s
Os iris
finan ced
speed s
Di ocese
husband man
Fin ance
plant ations
ec centric
pul ling
qual ification
lic ense
Jul es
background s
Gi acomo
Gi braltar
Burn side
Civil ian
gn osis
neigh bors
prop eller
Commun ications
captain ed
Produ cer
Bur ton
reign ing
dete ction
shap es
contact s
Cre ation
frag ile
Gall ipoli
recon cile
Den is
favour able
mort ars
pursu ing
Public ation
resc ues
attend ant
multi pl
susp ension
philos opher
Tra ffic
hall s
jack et
prefer ring
Aer osmith
NL F
rac ism
Arm oured
hydro x
Jud ge
aug mented
assass in
assass inated
Hor izon
Dom estic
Vol ume
shop ping
psy chi
vac ant
Wind s
surviv or
rhyth ms
Tal ent
mention ing
hat red
safe ly
tos aurus
resour ce
monument al
Cru z
cinem ato
fi br
fi xture
eff iciency
Mozamb ican
absor ption
Mot tola
Ball iett
Rom ans
lav ish
Ton ight
rank ings
bigg er
sam pled
convers ations
proceed ings
trust ed
trust ees
elim ination
Geoff rey
Labor intus
comed ic
shar ply
flash back
weigh ing
forth coming
shor test
stim ulated
Cas ual
slip ped
Profess ional
Bah á
instru ctor
shr ink
earn ings
Gro ening
Sl ant
bulk head
explo its
ux e
commemor ate
Fi rec
renov ated
Bat ou
jew ell
Shaw n
elimin ating
prefect ures
nom adic
fide lity
gross ed
chord s
penet rate
Mitchell s
Nu clear
outr ight
pray er
Twenty 20
Cit ra
retre ating
subsid ies
supervis or
morph ology
Tan aka
Mong ols
Wer neth
pron unciation
Kle in
Beat les
crush ed
antiqu ities
aerodrom e
stap les
inser t
inser ted
consolid ated
adjust ed
monit ored
deterior ated
cultiv ated
punct uation
microscop y
Finn ish
Yang tze
Gabri elle
theore tical
shad ow
Magn olia
obsc ure
casem ates
barrel s
Prop ag
aude ville
spokes man
redesign ated
fon ts
Expedition ary
Kod okan
algorith m
hemmem a
Imp act
lun ar
Volunte er
Vas co
Method ist
Karam okho
Homar us
Arbeider en
Laud erdale
contradict ory
Carri e
bunk ers
gle ba
stair case
Kaly anas
Rit ual
Alam os
Architect ure
Border ers
Eld er
TB SA
destruct ive
config uration
spher ical
Hubbard ton
Continent al
eucalypt s
Mond lane
Nguy ễn
mour ning
vap or
elong ated
lifel ong
endors ed
Audi o
courty ard
conting ent
noit ulovE
Conserv atoire
Bluff s
referend um
Kristians and
WR U
Wied ensahl
Britt any
Ety mology
Lope z
Trom sø
disast rous
extrav ag
Baham as
enthusias m
Achie vement
Kant ara
Lact arius
Nue ces
stom ach
proph ète
Inocy be
Egyp tolog
Acap ulco
Croy don
Casc ade
Dere k
Mys ore
Owas co
Sihan ouk
Takum i
environ ments
comrad es
sexpunct atus
4 20
4 40
4 48
A 4
A aron
B B
B ant
B og
B hai
C over
C aught
C ensus
C unning
D T
D ell
D igg
D irt
E qu
E stab
E cology
F ate
F rit
F ix
F ring
F lot
F anning
G h
G onna
G ospel
G iger
G riffin
H at
H ale
J i
J et
K as
K es
K he
K ow
K ess
K av
K ree
K ah
K ids
K rypton
L ed
L ans
M um
M ine
M ade
M AC
N an
N ant
O z
P L
P ly
P rec
P iz
P ied
P ond
P hy
P uck
P ayne
R att
R ash
R even
R osen
S ut
S po
S abor
S aga
S isters
S cribe
T T
T ac
T ate
T ade
T runk
T ampa
U m
W yn
Z y
Z ion
Z ack
b 5
b ic
b ach
b atch
b ald
c z
c ran
c ute
c rescent
d ers
d angers
e cological
f ittings
g ig
h og
j ut
j ub
j ungle
k au
k ang
k az
l li
l ude
l overs
l ighthouse
m end
n inj
p unk
q q
r he
r aged
s ocks
t art
t ill
t ics
t issues
u ce
v arez
w arts
w agon
y el
é r
th ief
in as
in ers
in os
in ability
in experienced
in adequate
er i
an tel
an atom
on ing
on tolog
re act
re pre
re public
re actors
re productive
or iously
en di
en ary
en cer
st up
st ops
as ci
as ures
is k
is an
is ure
it ched
he x
ent e
ad u
ad mit
ad mission
se greg
be fri
be loved
ch ol
ch op
ur u
ur ging
for wards
de ter
de vi
ve il
ol ution
im ped
im person
ver age
ver bal
un ified
un changed
un reliable
ter rif
ter races
con stitute
con stell
con scientious
ag round
ag ua
el ly
ul f
ri ve
ri uc
ap arte
ap preh
res up
pl ots
ab d
ab bot
ab brevi
oun ge
ist a
pe at
pro pose
pro portions
pro visional
pro spects
In stitution
sh ires
ne e
li ff
li ken
em per
em bass
od ds
ex changed
ex ported
oc o
di ve
ant ically
gh ai
man ia
ess es
ess ion
ess ays
qu er
qu es
qu ote
out posts
out fits
fe ather
ha ven
ra h
ass y
gr im
gr ab
ud y
ip s
Ch in
Ch asing
str um
own s
up grade
St a
St alin
ew ski
ev a
pr as
tim eline
lo id
lo ving
ign or
ke ley
att aining
He ath
18 16
18 23
18 29
18 46
18 41
ran ces
dis agreement
sp ike
sp rites
me ad
me teorological
cre sts
we ig
no ve
pre mise
mer it
mer cy
iz ons
iz hou
Un fortunately
ff man
co venant
into x
ath lon
inter ned
inter ference
inter mitt
Al ma
Al ban
Al icia
fl aws
bec k
air play
new born
ob li
ob session
under going
under gone
ble eding
ind ication
Re leased
char m
Wh ig
Wh ilst
ron s
ron ym
where by
ele ctoral
ef er
ust er
Le vi
sub strate
New ton
do ctoral
ins ight
sel aig
appe aling
cap abilities
ari um
16 9
back ward
De e
ific ent
ven mire
fer ry
ars enic
sup pressed
12 3
12 4
12 7
12 8
15 7
par anor
17 61
loc ate
line up
Con cept
Con struct
Con cert
Con flict
Con versely
cho ices
down ed
Sh ang
Be e
Be i
Be aut
mill imeters
pol ished
ste amed
ves en
Mar ina
io graphy
dep ot
ca es
tri angular
50 s
ah ar
design ations
Car son
August ine
coun sel
coun cill
dr aining
east wards
ple asant
ris en
Pl anning
sol itary
sol uble
mark er
rest ing
fun dra
pon der
11 00
Me h
Wil lie
govern ance
ham pton
25 1
Mon ster
app ell
vari ants
All ister
ae us
hum our
Mc Allister
Sc outing
home town
best owed
roy alty
story telling
expl ores
Pro per
ai res
Bo let
mid t
addition ally
und ara
Inter ior
aster oids
take off
sty list
commun icate
Bar ra
Bar bad
struct uring
Ser geant
gl u
Tr ap
Char ity
Port age
popular ised
bur row
net te
given ess
critic isms
exp elled
exp enses
capt ive
compet ent
pur ity
rent ial
Scot ia
dri ves
announ ce
Ber keley
medi ately
Sy bil
various ly
aver ages
Po venmire
sl aughter
El vis
script ed
pair ing
carri ageway
ho ly
don ors
impro per
nar rated
Stre ets
Act s
free ze
nine teen
coll ided
Ver ne
gra zing
past oral
Ze e
tor rential
viol in
Dep uty
Gl ou
Gl enn
dol l
amount ed
mel odies
deli vers
Dr ake
bow led
ti ème
treat ise
specific ations
But ton
hit ter
transport s
lie utenant
Star r
Rose y
Rose mary
Jer zy
prec urs
Mal one
Mer cer
bridge head
food s
jour n
bal anced
flow ing
Ot tawa
conf using
appl ic
Im age
Im mediately
rat ina
exam ines
fill ing
Not ts
vic ious
49 th
Del ia
reser vation
rict ion
Haw ks
earth star
Sto ke
Sol di
Sha h
Tour nam
bad ge
Lou d
semb lies
Tre vor
personal ities
Boy z
cu it
Ill ustr
abandon ment
bid ding
Queen stown
err one
err atic
render ing
Bu ff
spect ral
Young er
rhy mes
clim bing
phy si
Dire ctors
Cra w
pup il
assault ed
assault ing
girl friend
shell ing
demonstr ations
flank ing
Group s
function ing
prop elled
ordin ance
door way
Bon aparte
contain ers
Ly rically
sn akes
condition al
extr as
Tim or
Isa ac
acad emics
fat igue
catch es
catch ing
disp ens
Hart ley
Pet it
highlight ing
hall uc
isol ation
nur sing
Coast al
sul f
Rod dick
Ru wan
Hun ters
symp ath
gro o
Bos sy
Bos nian
Dream s
Gar rett
NS B
intr icate
Aston ishing
abo om
Kat ie
card inals
Ash ley
Ele ments
march ing
brand ed
psy cho
explos ives
valley s
icon ography
calcul ators
aggress ively
Ra o
veget arian
Ut tar
lu br
Rom antic
Point s
consum er
select ive
chronic le
Every thing
nut s
thin ly
perspect ives
Kit ana
spr ings
utz pah
Nar vesen
simultane ous
Bio grapher
municipal ities
altern ating
Ren ault
Rest oration
Sel en
diplom at
asser ts
rep ent
sevent y
congreg ations
Trib bles
scr apping
Confeder acy
Sl ash
det achment
Beet ons
steep le
lord s
concess ions
Ship building
deliber ate
kne eling
Peters burg
Langu age
pp g
margin al
Web ster
renov ation
Cir cuit
Edge worth
prev ailed
fasc ist
hin ke
pes os
pione er
chest nut
advertis ement
Sn apper
nas als
resid ues
sew er
recommend ation
BM W
Heavy weight
disrupt ion
Liter ature
Pole hinke
Ext inction
retro spective
Highland ers
physic ist
ener getic
chie fly
feud al
Tai yuan
oct agonal
Guild ford
homosexual ity
Dub ai
Tat anka
mask ray
conver ting
conspir ators
Chand ler
Ass ault
Hab it
drift ing
memo ir
distort ions
Nf 6
pla que
affir med
Trou ble
Ax is
Sit riuc
anno ying
Auto mobile
Amylostere aceae
Johann es
Cul ver
dor f
Diamond s
mistaken ly
phylo genetic
phylo geny
thorough ly
Abr ams
ANZAC s
Hospitall ers
soc cer
prosper ity
butter fly
flaw ed
whis key
VH S
furn iture
conif erous
Chenn selaig
Hil o
Lars sen
RP G
fert ility
Shan ghai
privi leg
revel ation
ridicul ous
Legisl ature
hinder ed
artif acts
Megal iths
Wolver hampton
fra ud
jewel ry
Fight ing
Nir vana
Carn ival
Aber deen
Host ile
Snell ing
Clim ate
ingred ients
beque athed
Revi val
ruth less
confisc ated
doctr ines
galericul ata
Ogh ratina
Tanz ania
Ving tième
Vatic an
shuto ut
Rivi ère
Vă n
Roch dale
jewell ery
Fring e
Flot illa
Kree ft
Mum ia
Ply mouth
Tade usz
resup ply
emper ors
paranor mal
0 600
3 10
4 60
6 40
6 60
7 2nd
A st
A ten
A pol
A CE
B j
B ian
B ung
B irth
C ros
C ash
C aster
C rescent
D and
D ore
D ual
D TV
D uck
D NL
E at
E sc
E ffect
F ra
F ford
F ellow
F ashion
F rog
G le
G ust
G aza
H itch
H unting
I o
J ig
J ump
J ava
K ed
K ot
K ies
K ell
K ath
K ung
K ram
K itsune
K aboom
L ac
L ay
L od
L omb
L ucky
L ayne
M T
M é
M ü
M ick
M ane
M ek
M ali
N ak
N ub
P R
P ong
P ros
P FA
P ayette
R ice
R az
R ama
S v
S ad
S pl
S af
S oy
S uc
S ogn
S election
S aints
T I
T ake
T jo
T urt
T aj
V ed
V ab
W ad
W are
W arriors
Y at
Y ah
Y uc
Y uk
Z en
a um
b ran
b ony
c 5
c ip
c age
c ites
d ow
d ash
e ze
e ches
f ile
f ash
f lip
f resco
g end
g ling
k ā
k et
k its
k ary
k ovsky
l au
m u
m ural
m asked
m opol
p all
p our
p ix
p uck
r n
r era
r amps
s ive
s age
s ax
t am
t ly
u f
v acharya
w rist
w akes
w ishing
w rought
y at
y am
ñ o
ā v
th am
in oc
in und
in consist
in dem
in valid
er un
an u
an an
an che
the ological
re acted
re venues
re structuring
at ars
at tested
or g
or ously
en cycl
st um
al is
al pine
ar re
and ro
as ha
es p
is i
it ative
he ct
le wine
le isure
ro gen
ro ds
il ated
il ib
ad ers
ad ors
ad joining
ad ysław
se lections
am ass
am ended
be aver
ch in
ch asing
de mean
ve z
im ir
im per
ig ma
ver ness
un developed
un covered
un official
un opposed
un acceptable
ter race
con ical
con currently
ag les
te a
te ed
te ar
te tr
el in
ul ous
ot us
op ers
op las
ain es
pl enty
um ann
ab l
ab du
all ot
all athus
00 00
ist ern
su e
su its
su ki
pe as
pe sts
pro bes
pro pul
pro voke
pro gnosis
In former
In tro
In door
In verness
ne ct
cl ade
cl ado
os cap
art an
em it
em aker
ex pose
ex posing
oc aly
ill us
ich i
ich es
ast s
out flow
fe eds
end a
vi us
ha ul
ra is
ge ometry
not oriously
but tons
ass i
iv ism
Ch ul
Ch ick
Ch utzpah
str anger
du p
av āda
bl end
St am
ev ille
sc utt
att i
att ende
rec i
18 35
ok er
ran n
dis agree
sp y
sp ines
me th
des k
An up
fin der
ren dez
br u
br ack
br ugge
incl ination
ue z
no bility
pre lim
pre mature
pre max
Un cle
co hes
spe eches
ance stral
ced e
inter f
Al aska
ang es
fore most
air d
ob sess
ob jected
reg ain
ind ul
ret ali
ern acle
char ming
ty res
10 7
Le ón
ins ane
sel ess
Jo anna
cap ability
16 00
16 48
well er
.. ..
cur ves
No strov
15 3
15 4
17 3
17 95
Nor bert
Nor folk
Con n
Con ception
Con cern
down ward
Sh and
Sh ould
Sh annon
ident ifying
cer y
