{
    "types": 5729,
    "lic": 7914,
    "Moving": 14749,
    "Ven": 6166,
    "affiliated": 19811,
    "numbered": 11643,
    "prehistoric": 19194,
    "finish": 7632,
    "cloth": 9072,
    "Agust": 18969,
    "Seymour": 18618,
    "##strong": 16637,
    "##ices": 3051,
    "ʕ": 232,
    "extraord": 13901,
    "economy": 7848,
    "occurring": 11651,
    "##ipher": 16807,
    "##uck": 3530,
    "armies": 11822,
    "Ganges": 12783,
    "growth": 6600,
    "##ive": 1856,
    "Highway": 5659,
    "Mex": 3767,
    "ầ": 534,
    "Constant": 6241,
    "Politics": 19783,
    "Scot": 4880,
    "##erved": 4103,
    "ank": 15219,
    "ect": 18180,
    "##ught": 15094,
    "dispat": 10965,
    "Vis": 11291,
    "satirical": 18085,
    "Les": 6494,
    "consciousness": 16145,
    "examine": 18991,
    "##ease": 4508,
    "activity": 5499,
    "Rothschild": 11712,
    "enlight": 19458,
    "outg": 19476,
    "##acharya": 15959,
    "reminiscent": 13957,
    "Panzergrenadier": 19786,
    "ș": 209,
    "World": 2602,
    "testified": 18457,
    "##ili": 11029,
    "only": 2120,
    "performing": 7363,
    "Earnest": 13120,
    "leading": 3786,
    "rivals": 12428,
    "Cyr": 10227,
    "cooperation": 12793,
    "##amed": 2478,
    "concentrated": 11383,
    "Europe": 2842,
    "Ph": 2892,
    "##egov": 9654,
    "130th": 11115,
    "Rock": 3682,
    "reinforced": 11692,
    "attitude": 11778,
    "Kil": 7549,
    "##asury": 15549,
    "Right": 17145,
    "##ivic": 17218,
    "##restling": 9408,
    "agricult": 6695,
    "Beauf": 19803,
    "Lisbon": 17959,
    "restricted": 9953,
    "##render": 6731,
    "exam": 4607,
    "resur": 13293,
    "##ark": 2022,
    "##7": 1058,
    "eye": 6135,
    "boundary": 10084,
    "planets": 12922,
    "ECU": 13966,
    "particip": 4352,
    "HBO": 17124,
    "##cot": 17727,
    "##iott": 17722,
    "Grossman": 18575,
    "beque": 18781,
    "speed": 5320,
    "##本": 1193,
    "ш": 318,
    "mill": 2405,
    "remarkable": 12962,
    "clouds": 15077,
    "iron": 5550,
    "Hear": 5427,
    "liner": 12184,
    "Days": 13014,
    "introduce": 15645,
    "##ward": 2050,
    "inj": 4154,
    "##兵": 1324,
    "offered": 5359,
    "rails": 16728,
    "prison": 6231,
    "pieces": 6601,
    "Anna": 16846,
    "##ird": 2269,
    "##leet": 3604,
    "Hok": 9195,
    "5th": 6256,
    "basket": 7462,
    "Tanya": 14826,
    "spark": 15576,
    "##CP": 19359,
    "accompl": 7143,
    "##come": 7335,
    "keep": 4698,
    "cross": 3552,
    "##intend": 8103,
    "##aze": 12489,
    "Vegas": 12028,
    "堤": 759,
    "Lorenzo": 14506,
    "Anim": 14374,
    "Wizards": 18688,
    "dispersed": 14443,
    "##actory": 15964,
    "summar": 12928,
    "accuracy": 19743,
    "incre": 2710,
    "##phant": 11330,
    "Bec": 4835,
    "partic": 2676,
    "##penter": 11262,
    "collect": 8344,
    "cable": 13716,
    "relax": 13775,
    "replaced": 4089,
    "##nels": 10755,
    "Hud": 9194,
    "Berhtwald": 12729,
    "1985": 6483,
    "##achelor": 16947,
    "Global": 19775,
    "Ž": 202,
    "floating": 15075,
    "Distinguished": 19688,
    "conclusion": 10403,
    "##waters": 19355,
    "##iber": 3762,
    "Carre": 10279,
    "Video": 6722,
    "text": 5303,
    "##bre": 10373,
    "Zagreb": 12202,
    "Sag": 13984,
    "Mole": 15151,
    "exclusively": 9995,
    "Bou": 11270,
    "Ingres": 10709,
    "##ț": 1691,
    "patron": 8699,
    "Tem": 5101,
    "Jason": 10728,
    "##é": 1035,
    "Gram": 7603,
    "partners": 13538,
    "Bear": 13213,
    "jet": 11743,
    "##alid": 19375,
    "##22": 17734,
    "airlines": 16417,
    "convention": 7888,
    "郭": 963,
    "interest": 4095,
    "##ville": 4222,
    "##aulipas": 17357,
    "manag": 3238,
    "##ع": 1411,
    "Wimbledon": 8578,
    "Agency": 12533,
    "delayed": 9758,
    "Steel": 16998,
    "誓": 938,
    "##裁": 1565,
    "env": 4922,
    "defin": 6515,
    "175": 7408,
    "soundtrack": 5681,
    "##ensions": 10792,
    "##street": 11452,
    "##onso": 13738,
    "studios": 13795,
    "miner": 6306,
    "##xd": 16753,
    "willing": 8919,
    "Virgin": 4476,
    "Swamp": 17379,
    "naut": 14577,
    "足": 950,
    "##น": 1426,
    "É": 119,
    "ap": 4316,
    "Bu": 6055,
    "humorous": 16444,
    "Moon": 11732,
    "posthum": 16910,
    "short": 2781,
    "commandment": 9958,
    "path": 5089,
    "filmed": 6621,
    "lambeosaur": 19188,
    "love": 4026,
    "unnecess": 17999,
    "liber": 9201,
    "party": 5040,
    "##aris": 18246,
    "24th": 16905,
    "秋": 905,
    "Russell": 12538,
    "##orith": 14318,
    "UK": 4434,
    "days": 3092,
    "tested": 12232,
    "Vijay": 19183,
    "Cup": 3571,
    "setting": 7272,
    "retaining": 17281,
    "Films": 15013,
    "Death": 9492,
    "ineff": 16772,
    "澄": 871,
    "Cameron": 19865,
    "物": 879,
    "藕": 927,
    "broadcast": 4968,
    "Scotland": 5370,
    "saying": 3963,
    "##encing": 9581,
    "plag": 12455,
    "inhabited": 13664,
    "arr": 2658,
    "##ん": 1109,
    "inaug": 8827,
    "##even": 13308,
    "Ely": 14254,
    "##rix": 13758,
    "Iber": 15472,
    "Bermuda": 17093,
    "##reated": 12862,
    "rejects": 18268,
    "##ů": 1268,
    "##傳": 1188,
    "raids": 15366,
    "##iting": 3447,
    "McNichol": 13945,
    "Breese": 18477,
    "##出": 1351,
    "##icial": 6951,
    "displaying": 19028,
    "progressed": 12746,
    "##aid": 2209,
    "##ti": 9816,
    "##olves": 12863,
    "farm": 5801,
    "Mega": 9026,
    "AllMusic": 18361,
    "ʒ": 230,
    "##ewrit": 18790,
    "beast": 19404,
    "worth": 7916,
    "migration": 14190,
    "ru": 7968,
    "##oulder": 13772,
    "bowler": 16705,
    "eggs": 8575,
    "##aden": 18258,
    "home": 2843,
    "southeastern": 11105,
    "Information": 14612,
    "##anz": 4653,
    "mom": 4872,
    "##ß": 1287,
    "lying": 13042,
    "fitness": 17164,
    "printing": 13910,
    "Shop": 18853,
    "reference": 6334,
    "y": 92,
    "circum": 7892,
    "considering": 10286,
    "pled": 12454,
    "kun": 16714,
    "##andid": 5356,
    "Peronist": 17556,
    "Nixon": 4981,
    "narration": 19027,
    "##press": 3145,
    "Rhodesian": 11863,
    "convoys": 17857,
    "downstream": 11798,
    "hes": 17685,
    "##良": 1523,
    "ォ": 646,
    "##apolis": 13522,
    "draf": 10020,
    "Cann": 14535,
    "##actic": 17790,
    "##eg": 2150,
    "霖": 988,
    "##庆": 1168,
    "Pok": 13021,
    "192": 2852,
    "##urrently": 13118,
    "Hakim": 13971,
    "##osexual": 10271,
    "Log": 19958,
    "##ition": 1980,
    "documents": 9595,
    "##pres": 10791,
    "Fort": 4523,
    "shift": 11038,
    "£": 101,
    "Affairs": 17553,
    "Pil": 13696,
    "attacking": 8851,
    "Cock": 19924,
    "##occ": 14614,
    "##urer": 10145,
    "ن": 373,
    "lod": 15868,
    "92": 9428,
    "##inski": 16851,
    "##ends": 4169,
    "##ador": 7772,
    "##oided": 12844,
    "estimate": 13364,
    "perform": 2342,
    "##ricult": 6011,
    "officials": 6043,
    "##onation": 13737,
    "##itan": 7069,
    "##tha": 19406,
    "Care": 12586,
    "##iker": 14901,
    "##iens": 15534,
    "Patterson": 16957,
    "lect": 11899,
    "800": 6941,
    "##arius": 12441,
    "relegation": 12977,
    "191": 2624,
    "河": 862,
    "##uku": 15664,
    "colours": 12700,
    "Ing": 7107,
    "Hor": 8650,
    "coy": 19287,
    "Wind": 7556,
    "##rum": 6912,
    "Iv": 10873,
    "stated": 3264,
    "excellent": 14511,
    "##ampton": 18257,
    "Krak": 9173,
    "sacrif": 13165,
    "present": 3283,
    "reaching": 6408,
    "skull": 9240,
    "lawsuit": 15065,
    "bic": 17157,
    "plural": 17764,
    "Business": 10194,
    "silent": 15676,
    "strike": 6628,
    "Danish": 18121,
    "parallels": 18500,
    "formation": 6271,
    "##iffs": 12733,
    "##ż": 1641,
    "##able": 2057,
    "comic": 7345,
    "Nailz": 19885,
    "recognized": 6711,
    "stap": 12445,
    "Bald": 10471,
    "end": 2168,
    "mer": 3981,
    "r": 85,
    "Liver": 4931,
    "邦": 960,
    "below": 5457,
    "##onna": 5354,
    "##wealth": 8333,
    "##awa": 6588,
    "proof": 14611,
    "organ": 2850,
    "naming": 11746,
    "confined": 17868,
    "##hen": 2243,
    "myel": 14684,
    "mi": 3863,
    "##ifferent": 19178,
    "##i": 1031,
    "round": 3771,
    "burns": 6527,
    "##isted": 3492,
    "annex": 14671,
    "Switzerland": 11130,
    "Up": 4690,
    "##द": 1163,
    "Commer": 12678,
    "Flet": 14401,
    "promising": 17333,
    "presenting": 18927,
    "incorporating": 19696,
    "gener": 2495,
    "higher": 5423,
    "##ute": 2634,
    "individual": 3878,
    "##usted": 7041,
    "##urse": 9457,
    "##nal": 9207,
    "Nash": 10013,
    "ascend": 12246,
    "##oi": 19332,
    "Hitler": 19134,
    "##ributed": 4094,
    "##el": 1740,
    "America": 3294,
    "##iago": 18745,
    "ロ": 693,
    "##orus": 5852,
    "injury": 6630,
    "licence": 18514,
    "grows": 12727,
    "Oscar": 9900,
    "ṃ": 524,
    "υ": 279,
    "##etical": 16319,
    "Bj": 19917,
    "##rative": 19334,
    "##rey": 5063,
    "##achute": 12099,
    "audience": 5482,
    "have": 1948,
    "therm": 15431,
    "##her": 1800,
    "##illing": 7827,
    "##ewhere": 7873,
    "gather": 6760,
    "genre": 8555,
    "concept": 5290,
    "crime": 7941,
    "shear": 11326,
    "##ues": 2554,
    "major": 2666,
    "##itled": 8030,
    "Grant": 14096,
    "##igouche": 19399,
    "্": 415,
    "damaged": 4278,
    "clar": 12465,
    "Wool": 17666,
    "##ato": 7337,
    "##ificial": 8846,
    "swift": 18935,
    "1988": 6015,
    "Reformation": 17353,
    "renov": 10566,
    "##irection": 5743,
    "slower": 17833,
    "unders": 18995,
    "##ieces": 18929,
    "qual": 3921,
    "♀": 586,
    "##oration": 5143,
    "##white": 6372,
    "ษ": 448,
    "Thus": 10160,
    "##soft": 15583,
    "Clive": 19535,
    "script": 5262,
    "casuarius": 19604,
    "Juan": 7009,
    "Golden": 7595,
    "Kap": 15475,
    "merchant": 13428,
    "祈": 902,
    "mammals": 14770,
    "inner": 8085,
    "downgraded": 16863,
    "##ogenic": 14746,
    "##3": 1043,
    "directors": 10662,
    "37": 5465,
    "##lecru": 9794,
    "surveillance": 18336,
    "##psons": 8228,
    "Wheeler": 4399,
    "δ": 263,
    "Graham": 12212,
    "releasing": 13096,
    "Shelby": 18031,
    "signs": 11214,
    "##鋼": 1470,
    "コ": 654,
    "##se": 1853,
    "opening": 3937,
    "##track": 5344,
    "##prising": 8532,
    "##neath": 10426,
    "fame": 11740,
    "relates": 17781,
    "##ique": 3588,
    "Insp": 17234,
    "##omen": 3183,
    "ones": 7452,
    "Sierra": 19907,
    "canc": 5433,
    "hast": 17165,
    "suggest": 4833,
    "manner": 8097,
    "lord": 17691,
    "pace": 11015,
    "beings": 11034,
    "Brian": 7123,
    "Archaeological": 12186,
    "Why": 15999,
    "algorith": 14783,
    "shafts": 17766,
    "##Ch": 18230,
    "By": 2844,
    "ჳ": 509,
    "##inating": 9058,
    ",": 15,
    "fallen": 9771,
    "took": 2715,
    "Cor": 3365,
    "pur": 4145,
    "##eton": 6800,
    "Far": 7807,
    "intention": 7683,
    "Réunion": 9420,
    "##ulu": 10516,
    "Magic": 10958,
    "edit": 12125,
    "west": 3085,
    "awareness": 13890,
    "imagination": 14474,
    "##anner": 15986,
    "##vara": 16744,
    "Atl": 3382,
    "##aku": 9461,
    "铁": 976,
    "##utation": 7177,
    "obst": 9296,
    "inadequ": 19909,
    "angle": 12957,
    "deliberately": 13189,
    "##rist": 11753,
    "##azz": 6178,
    "dismissed": 7955,
    "Expedition": 14526,
    "##cial": 3752,
    "Gry": 14542,
    "turret": 15712,
    "Upd": 17419,
    "refuses": 14107,
    "music": 2517,
    "##ies": 1817,
    "Dw": 11579,
    "##bon": 5689,
    "use": 2537,
    "158": 15269,
    "spanning": 19436,
    "Twickenham": 16084,
    "##going": 8791,
    "DeGrom": 19590,
    "relieved": 13187,
    "ri": 14845,
    "##王": 1187,
    "ř": 187,
    "##okovic": 10157,
    "Tanz": 19275,
    "Sunday": 7804,
    "ḍ": 519,
    "##uge": 6503,
    "Bronc": 14921,
    "##aig": 19337,
    "settlers": 7591,
    "portrays": 19012,
    "insp": 3722,
    "##ature": 2857,
    "aren": 15581,
    "decorated": 11403,
    "hurricane": 3635,
    "Sett": 18678,
    "was": 1752,
    "adding": 7306,
    "##aging": 4959,
    "reb": 3855,
    "Indonesian": 15104,
    "##orous": 8204,
    "Bedell": 11709,
    "interpret": 9180,
    "Operation": 6489,
    "expert": 10677,
    "##gn": 4602,
    "Burns": 8571,
    "−": 580,
    "telec": 17340,
    "lands": 6596,
    "somet": 3342,
    "runner": 17827,
    "manuscripts": 11869,
    "Herald": 11218,
    "##arden": 15223,
    "Cap": 3913,
    "applied": 7377,
    "unity": 15949,
    "Farr": 19940,
    "א": 330,
    "##ures": 2345,
    "together": 3740,
    "Ming": 16689,
    "scripts": 13534,
    "##ém": 18220,
    "##rock": 18774,
    "rang": 6001,
    "##urd": 8598,
    "opined": 12939,
    "164": 7111,
    "submar": 7357,
    "entitled": 9303,
    "##agus": 15564,
    "contempl": 16078,
    "##ers": 1781,
    "Indonesia": 18045,
    "League": 3131,
    "midfielder": 19855,
    "strictly": 16607,
    "Joh": 11210,
    "Living": 11285,
    "Bulls": 9785,
    "kiss": 14574,
    "173": 12901,
    "revel": 16331,
    "aims": 18691,
    "##ipped": 5265,
    "Kaly": 16224,
    "corpor": 12519,
    "Opp": 16692,
    "help": 3595,
    "conclud": 4632,
    "Stef": 7875,
    "infilt": 15300,
    "prominently": 16526,
    "Survey": 10583,
    "contacted": 15048,
    "Admiralty": 17016,
    "Transport": 8177,
    "disrupted": 17264,
    "##足": 1664,
    "Jutland": 19209,
    "Marshall": 17996,
    "state": 2689,
    "seg": 7508,
    "rapid": 5033,
    "Yellowstone": 15420,
    "encounters": 14177,
    "Eric": 9040,
    "Ferry": 14465,
    "##itall": 14595,
    "dent": 15857,
    "Ch": 1886,
    "Talk": 13468,
    "Tom": 4390,
    "##fic": 3362,
    "##icia": 9924,
    "Lester": 19054,
    "Nazaire": 13403,
    "activist": 18408,
    "der": 4566,
    "##oting": 14874,
    "##ambers": 14955,
    "##ations": 1982,
    "il": 8373,
    "##ía": 7259,
    "collections": 12708,
    "##olen": 9824,
    "Arikamedu": 14796,
    "##ontin": 11480,
    "regard": 4007,
    "##ension": 5727,
    "assessed": 14913,
    "##arked": 8911,
    "covered": 5214,
    "Sultan": 12049,
    "absolute": 12566,
    "##inguished": 16099,
    "##ू": 1542,
    "ਲ": 417,
    "law": 3415,
    "sale": 9629,
    "floors": 17034,
    "afterward": 15963,
    "gest": 17680,
    "from": 1808,
    "enfor": 9362,
    "influences": 9088,
    "Corps": 5440,
    "Ur": 6823,
    "Shel": 10061,
    "draws": 12932,
    "い": 594,
    "performer": 17301,
    "Arena": 16834,
    "テ": 666,
    "Tar": 13467,
    "##feld": 16290,
    "Stage": 17770,
    "traveling": 12154,
    "##ة": 1412,
    "accurate": 11401,
    "cust": 6436,
    "30th": 16442,
    "struck": 5707,
    "Urn": 17976,
    "affect": 13347,
    "reserved": 14897,
    "advisories": 16156,
    "belie": 2813,
    "instrumental": 13641,
    "Archae": 7480,
    "Den": 6720,
    "batter": 5102,
    "Cit": 11272,
    "relief": 5453,
    "Π": 251,
    "swall": 14421,
    "Euro": 14673,
    "empt": 17819,
    "Aviv": 19686,
    "##oni": 12856,
    "Kr": 4854,
    "doesn": 9164,
    "He": 1955,
    "offensive": 5786,
    "transmitted": 14381,
    "Bon": 6056,
    "tower": 5959,
    "fifteen": 10562,
    "featuring": 5592,
    "Fire": 7808,
    "1831": 17404,
    "##like": 5185,
    "adoles": 18819,
    "succeeded": 7653,
    "Rockstar": 16928,
    "hosp": 11155,
    "Languedoc": 12790,
    "Autom": 17515,
    "1923": 10553,
    "##bow": 11755,
    "ʿ": 237,
    "##ulated": 4155,
    "##ore": 1860,
    "somewhat": 8721,
    "W": 58,
    "wars": 8822,
    "Tony": 10878,
    "Roosevel": 17990,
    "seat": 7347,
    "##roft": 14601,
    "Afghanistan": 19214,
    "##vy": 14010,
    "working": 4021,
    "##ange": 2491,
    "##光": 1385,
    "desired": 13782,
    "##uth": 2568,
    "ros": 19315,
    "Throughout": 7161,
    "turns": 7843,
    "Cab": 8257,
    "##再": 1140,
    "Bruges": 16556,
    "opportunity": 7427,
    "regardless": 18959,
    "병": 1002,
    "bar": 3412,
    "RF": 17144,
    "##eveloped": 14514,
    "reservoir": 9891,
    "##mire": 18748,
    "narrow": 5896,
    "disband": 10927,
    "businesses": 12152,
    "##omo": 17209,
    "ة": 355,
    "submitted": 10794,
    "measures": 8938,
    "Etymology": 19935,
    "species": 2739,
    "campaigned": 18416,
    "lock": 15178,
    "##echism": 9082,
    "##ecut": 3737,
    "Could": 19923,
    "ditch": 19292,
    "happen": 6575,
    "Hurricanes": 12213,
    "##est": 1804,
    "hands": 5400,
    "flat": 8610,
    "Connectic": 18497,
    "adorn": 17780,
    "Annals": 13892,
    "cluster": 18817,
    "Jain": 6978,
    "depression": 4528,
    "Olympics": 8303,
    "environmental": 10450,
    "##rington": 17388,
    "##breaker": 19778,
    "enabled": 13296,
    "rumors": 14763,
    "Coast": 6932,
    "logic": 11535,
    "manifest": 14633,
    "Wonder": 14830,
    "##番": 1356,
    "advertis": 11111,
    "##熱": 1705,
    "CB": 19224,
    "##靂": 1259,
    "stump": 14602,
    "ago": 9363,
    "##it": 1729,
    "dried": 14833,
    "thought": 3334,
    "depicted": 7633,
    "san": 7764,
    "##ci": 11166,
    "approaches": 11960,
    "acqu": 4902,
    "sufficient": 9768,
    "slate": 19529,
    "##に": 1669,
    "Academy": 5758,
    "captures": 19564,
    "stretches": 18504,
    "##inaw": 12071,
    "Sug": 12604,
    "##iece": 7531,
    "aver": 3712,
    "plagued": 18571,
    "Osc": 9620,
    "adventures": 13330,
    "Levine": 16996,
    "motifs": 17065,
    "##eh": 13053,
    "1919": 7228,
    "remastered": 19186,
    "##ack": 1861,
    "Muslims": 15056,
    "##ridge": 6985,
    "Liter": 11727,
    "##ether": 5222,
    "##anded": 5167,
    "Is": 2442,
    "芳": 923,
    "religion": 6626,
    "crossed": 8415,
    "##芳": 1422,
    "Kannada": 9520,
    "tech": 16733,
    "##urr": 2963,
    "muscaria": 9251,
    "loan": 9410,
    "Charts": 10674,
    "livestock": 14781,
    "positive": 4510,
    "##aked": 7571,
    "Celtic": 10108,
    "Alg": 11198,
    "广": 791,
    "Space": 9477,
    "Pruss": 16433,
    "attend": 6233,
    "##at": 1720,
    "lav": 17690,
    "criticism": 6559,
    "Hope": 9906,
    "starring": 11064,
    "vs": 11162,
    "王": 883,
    "Harold": 10192,
    "##andra": 11312,
    "inscriptions": 10209,
    "Bradman": 12945,
    "##ਹ": 1447,
    "contrace": 14652,
    "坂": 758,
    "##广": 1609,
    "##ქ": 1703,
    "##ori": 9353,
    "Dam": 5255,
    "part": 2018,
    "banned": 10126,
    "##ub": 1922,
    "##IV": 14018,
    "WA": 18160,
    "u": 88,
    "gren": 17806,
    "horror": 12552,
    "##izer": 13300,
    "Eastern": 6316,
    "begin": 5953,
    "check": 9678,
    ";": 30,
    "##ploy": 3239,
    "Fly": 16217,
    "herb": 13773,
    "taking": 4217,
    "##avan": 14607,
    "campuses": 19707,
    "##ś": 1178,
    "1870s": 16940,
    "##世": 1497,
    "mem": 4261,
    "disbanded": 13193,
    "addresses": 17462,
    "generals": 9476,
    "Kansas": 9702,
    "sentences": 10554,
    "Lim": 14549,
    "solid": 8051,
    "jumps": 14839,
    "leaked": 15943,
    "Manager": 14959,
    "Fowler": 5087,
    "candidate": 8718,
    "##ḷ": 1635,
    "Maj": 13692,
    "introducing": 16467,
    "##者": 1128,
    "##iment": 3172,
    "##ards": 2818,
    "turning": 7784,
    "respect": 4243,
    "aw": 5602,
    "Shelley": 18030,
    "##2": 1056,
    "##enden": 10162,
    "amph": 11053,
    "##fly": 12631,
    "bern": 17158,
    "Pand": 13461,
    "rubble": 15734,
    "##战": 1526,
    "Victoria": 8116,
    "feet": 3449,
    "rec": 1890,
    "119": 14654,
    "Faith": 16218,
    "U": 56,
    "##מ": 1568,
    "Tropical": 5036,
    "opponents": 8168,
    "Nat": 10602,
    "Johnny": 12298,
    "Universal": 14221,
    "warnings": 16632,
    "##ants": 2822,
    "Cal": 3398,
    "Med": 3760,
    "question": 5524,
    "Times": 4152,
    "Î": 121,
    "##ilis": 11765,
    "design": 2521,
    "attendance": 14173,
    "intensity": 6101,
    "Next": 10354,
    "profitable": 18396,
    "implied": 19099,
    "disastrous": 18824,
    "##FC": 19366,
    "Being": 13819,
    "##ς": 1176,
    "##作": 1514,
    "Ne": 4235,
    "Coldplay": 17971,
    "announcement": 11815,
    "Protest": 8872,
    "ERA": 7488,
    "focused": 7593,
    "reviewers": 8853,
    "coup": 8556,
    "##reement": 16313,
    "##ivalent": 7787,
    "Good": 6188,
    "remind": 12673,
    "ჯ": 505,
    "colony": 6361,
    "die": 7965,
    "united": 16368,
    "ele": 2783,
    "corners": 19024,
    "Ingrid": 14530,
    "testing": 10442,
    "swing": 15311,
    "Wales": 3816,
    "07": 8435,
    "rendered": 14222,
    "finale": 11062,
    "hyphae": 16057,
    "ver": 5531,
    "600": 6634,
    "arrangement": 8710,
    "Marlborough": 8874,
    "act": 2189,
    "##irth": 4060,
    "ended": 4509,
    "Evita": 7049,
    "##anian": 14593,
    "intentions": 19451,
    "publish": 16395,
    "crickets": 12200,
    "Sch": 4412,
    "Lincol": 10592,
    "Range": 19979,
    "punishment": 11100,
    "Ill": 5128,
    "Angel": 4422,
    "shot": 4208,
    "chord": 13764,
    "##list": 16749,
    "minute": 4803,
    "Across": 17903,
    "##wick": 9214,
    "drama": 7537,
    "##mark": 5869,
    "fought": 6793,
    "gradually": 6969,
    "##odore": 10518,
    "靂": 990,
    "sealed": 16798,
    "##atabase": 17579,
    "storage": 13753,
    "Commodore": 14093,
    "Bulgarian": 18052,
    "fastest": 11999,
    "Era": 17111,
    "crew": 3967,
    "Witchcraft": 13032,
    "XI": 18689,
    "モ": 685,
    "Pict": 9042,
    "thr": 5650,
    "102": 12479,
    "Dare": 18120,
    "Radio": 7380,
    "Dom": 7855,
    "น": 437,
    "fungi": 13900,
    "##rophic": 19130,
    "opposite": 8875,
    "occurred": 4819,
    "try": 6653,
    "##wer": 18749,
    "felt": 3368,
    "est": 2372,
    "##pton": 7576,
    "##scop": 8922,
    "manages": 15961,
    "proteins": 5268,
    "satisfy": 19758,
    "dads": 14568,
    "##oina": 15970,
    "##河": 1169,
    "##μ": 1174,
    "trapped": 11318,
    "sculpt": 6161,
    "characteristics": 7937,
    "area": 2538,
    "White": 3798,
    "##ardo": 7828,
    "technology": 7315,
    "NS": 10352,
    "entertainment": 11813,
    "spec": 2187,
    "ý": 158,
    "Early": 4365,
    "Mal": 4400,
    "彼": 801,
    "coaster": 13548,
    "repaired": 15074,
    "Thr": 15953,
    "##ase": 2429,
    "##oco": 19423,
    "##ications": 5720,
    "##nds": 18242,
    "Δ": 248,
    "rich": 7610,
    "Never": 7330,
    "Rugby": 9121,
    "ambassador": 12948,
    "##gio": 18228,
    "Humphrey": 12201,
    "study": 3837,
    "Joyce": 19098,
    "mRNA": 14295,
    "##yc": 4813,
    "MCC": 15483,
    "losses": 7082,
    "Arn": 12672,
    "suc": 5696,
    "eleven": 9483,
    "辛": 953,
    "toxic": 15415,
    "varying": 16571,
    "rook": 16727,
    "##ve": 2381,
    "developed": 3333,
    "claim": 3009,
    "##ague": 2630,
    "Hy": 6787,
    "##clair": 14097,
    "##ha": 4359,
    "imper": 16827,
    "##ite": 2014,
    "Johnston": 8768,
    "sentimental": 17524,
    "racist": 19068,
    "Febru": 3142,
    "##rast": 8273,
    "clear": 3747,
    "most": 2113,
    "##iz": 1988,
    "Prize": 10835,
    "##onica": 8325,
    "Xe": 8588,
    "irr": 16982,
    "##spective": 17306,
    "Ultimately": 16602,
    "dec": 2122,
    "torped": 5993,
    "speech": 8350,
    "Stories": 9836,
    "ran": 4935,
    "subpl": 18323,
    "depressed": 19793,
    "Jos": 5891,
    "Yo": 10124,
    "is": 1780,
    "Newfound": 14370,
    "Grande": 18417,
    "Sec": 3513,
    "civil": 4071,
    "afraid": 16615,
    "Awards": 4411,
    "##icts": 6386,
    "explos": 7741,
    "submarine": 9256,
    "Staff": 12878,
    "##porary": 4249,
    "##umberland": 13385,
    "Sweden": 11114,
    "indust": 3847,
    "Inari": 16341,
    "Underneath": 14147,
    "2009": 2902,
    "Mogad": 5917,
    "GameSpot": 19180,
    "ぐ": 602,
    "##ク": 1157,
    "cooling": 19727,
    "episode": 2441,
    "Washington": 5994,
    "Above": 16892,
    "Nos": 19257,
    "ė": 173,
    "##mond": 5779,
    "##zi": 9352,
    "##orter": 7338,
    "a": 68,
    "gaming": 15864,
    "##แ": 1659,
    "Clean": 16214,
    "##water": 8082,
    "ḷ": 523,
    "Commun": 5857,
    "humanitarian": 14417,
    "Passion": 19097,
    "138": 16005,
    "meg": 10027,
    "followers": 9148,
    "ż": 201,
    "Island": 3559,
    "Indust": 6415,
    "政": 821,
    "Katia": 13413,
    "beg": 2833,
    "journal": 6137,
    "Cour": 4929,
    "Jurchen": 9688,
    "Trip": 14164,
    "en": 1954,
    "##inet": 8975,
    "Thanhouser": 18087,
    "families": 6815,
    "##umps": 8213,
    "embry": 15332,
    "Guinea": 13439,
    "誡": 939,
    "##ả": 1395,
    "Roth": 9442,
    "chart": 3584,
    "##cedes": 15262,
    "Blue": 5617,
    "vap": 18728,
    "acknowledged": 13659,
    "##ological": 3274,
    "locals": 17295,
    "successful": 3427,
    "##ask": 3841,
    "cure": 16250,
    "subsequently": 4927,
    "scattered": 10161,
    "Falls": 11280,
    "gu": 2620,
    "blend": 13417,
    "pac": 17695,
    "Allen": 9950,
    "clin": 10529,
    "##ered": 2158,
    "Office": 7796,
    "##anza": 12539,
    "require": 6039,
    "Kend": 14548,
    "receives": 10406,
    "casualties": 5862,
    "ship": 2482,
    "deliver": 9576,
    "Canterbury": 9083,
    "removed": 5343,
    "sole": 10751,
    "suffer": 14118,
    "Okeechobee": 14529,
    "##po": 9918,
    "##itor": 4955,
    "air": 2424,
    "finishing": 7884,
    "relev": 13294,
    "films": 4776,
    "##aguar": 17492,
    "##part": 17705,
    "drafts": 19773,
    "##hol": 9206,
    "Wrestling": 11895,
    "##iah": 16812,
    "##ihan": 19623,
    "coat": 13547,
    "##ump": 4122,
    "Robyn": 14450,
    "Räikkönen": 12031,
    "Enter": 4865,
    "##Grom": 10764,
    "geography": 17465,
    "Nigel": 19873,
    "Map": 13977,
    "properly": 16943,
    "Winds": 14757,
    "Hum": 5019,
    "##asing": 7866,
    "portrait": 10065,
    "pec": 11598,
    "##anies": 4638,
    "amounts": 10059,
    "reviewing": 17329,
    "##vement": 5312,
    "magnitude": 9982,
    "mile": 5937,
    "金": 968,
    "goods": 11668,
    "facilitate": 19127,
    "Ron": 7130,
    "##anks": 4745,
    "Davis": 9859,
    "exceeded": 19428,
    "##rait": 7458,
    "##anthe": 19430,
    "##aj": 2275,
    "雪": 986,
    "Walter": 7793,
    "##テ": 1371,
    "confl": 4589,
    "closed": 5147,
    "denied": 7894,
    "amid": 12478,
    "##icing": 14021,
    "エ": 645,
    "Wash": 5893,
    "disease": 5902,
    "replacement": 8169,
    "Usta": 9199,
    "1876": 15666,
    "ask": 4106,
    "brand": 12299,
    "stays": 17754,
    "schedul": 6252,
    "strengthening": 15052,
    "metropolitan": 18342,
    "slavery": 16003,
    "ac": 2185,
    "mental": 10617,
    "##pense": 12291,
    "Flair": 14402,
    "inhib": 14594,
    "saving": 14007,
    "##oT": 17185,
    "sanction": 17989,
    "XII": 10880,
    "##ović": 15936,
    "dram": 4839,
    "72": 7022,
    "29": 3597,
    "gamb": 15863,
    "periods": 9084,
    "ล": 445,
    "best": 2854,
    "depl": 16340,
    "RE": 16697,
    "roadway": 12717,
    "ét": 17703,
    "readers": 9673,
    "Leeds": 11485,
    "solution": 11505,
    "directed": 3860,
    "Before": 6455,
    "princ": 4876,
    "met": 2367,
    "##mosp": 6385,
    "##ats": 2652,
    "DAGs": 18536,
    "T": 55,
    "##ions": 1904,
    "since": 2661,
    "apart": 8111,
    "Queens": 9017,
    "Rä": 11733,
    "guerr": 13332,
    "active": 5474,
    "lane": 7915,
    "##ved": 2126,
    "##osure": 8033,
    "Call": 11577,
    "employment": 12936,
    "Berlin": 10300,
    "Moz": 7645,
    "##ces": 2076,
    "remixed": 15371,
    "Foster": 15813,
    "bulkhead": 18032,
    "ग": 390,
    "##ắ": 1702,
    "NC": 5933,
    "Aer": 7024,
    "Head": 6446,
    "##aith": 6003,
    "##sch": 8323,
    "##sk": 12625,
    "##ahl": 15614,
    "66": 7384,
    "partition": 16377,
    "wa": 6078,
    "incursion": 15118,
    "reserv": 7350,
    "Around": 8127,
    "find": 3075,
    "Har": 3676,
    "九": 708,
    "v": 89,
    "##妙": 1341,
    "lobbied": 18529,
    "sust": 5782,
    "р": 312,
    "Companies": 12514,
    "##ques": 13084,
    "tributary": 14767,
    "##hel": 2638,
    "Performance": 12799,
    "canons": 14069,
    "libret": 18086,
    "thesis": 13498,
    "And": 2761,
    "shop": 9555,
    "##essional": 15619,
    "##aults": 13125,
    "agar": 15960,
    "dev": 3753,
    "existed": 8331,
    "149": 16878,
    "##揺": 1689,
    "incorpor": 5861,
    "##乃": 1340,
    "lay": 4951,
    "Section": 10606,
    "##raid": 11040,
    "Templ": 14726,
    "shooter": 17767,
    "pover": 14844,
    "Dictionary": 18640,
    "##ports": 4475,
    "პ": 488,
    "commit": 9075,
    "##遇": 1607,
    "Sle": 9622,
    "Football": 5392,
    "Sussex": 15055,
    "Bg": 19219,
    "batteries": 11244,
    "华": 737,
    "permission": 11322,
    "1866": 16060,
    "tries": 8347,
    "Inv": 14337,
    "fields": 8052,
    "Near": 10484,
    "Watch": 17463,
    "breeding": 6519,
    "inst": 2461,
    "##淹": 1413,
    "##nd": 1719,
    "##arsha": 15268,
    "looked": 8625,
    "hers": 6289,
    "existing": 7376,
    "Magazine": 7050,
    "##cil": 3610,
    "Certifications": 19169,
    "melodram": 19171,
    "diameter": 8359,
    "Techn": 8883,
    "##ívar": 8451,
    "Aqu": 14534,
    "##eness": 8028,
    "nevertheless": 17361,
    "Howard": 7951,
    "Style": 13287,
    "Americas": 15604,
    "manufactured": 15363,
    "##rieved": 11866,
    "Demokraten": 19914,
    "##ή": 1251,
    "##itate": 14596,
    "##ientious": 18364,
    "traffic": 4853,
    "Conserv": 17934,
    "##iano": 4639,
    "reunited": 18055,
    "cause": 4933,
    "##ashion": 6662,
    "meters": 10945,
    "synagogue": 11843,
    "##ご": 1690,
    "##iat": 15888,
    "##iche": 13505,
    "oppos": 8408,
    "movie": 6154,
    "##artment": 3999,
    "interv": 3785,
    "Series": 5175,
    "Guild": 12502,
    "mail": 15871,
    "invol": 3214,
    "clusters": 15120,
    "facts": 14978,
    "劇": 732,
    "Woodfull": 16512,
    "##ke": 2962,
    "withdraw": 5958,
    "##aign": 3417,
    "##м": 1440,
    "##榮": 1553,
    "##end": 1976,
    "commission": 4861,
    "promotional": 11817,
    "##elling": 3493,
    "Sk": 7251,
    "full": 3405,
    "infer": 10766,
    "##adys": 13143,
    "fest": 13475,
    "NFL": 15440,
    "Bed": 8647,
    "subject": 5276,
    "Ibrah": 19129,
    "##ention": 2809,
    "Stock": 8528,
    "agricultural": 8642,
    "classes": 7998,
    "discip": 10062,
    "Counter": 18988,
    "Germany": 5263,
    "achievement": 13859,
    "Jan": 2659,
    "Nek": 15830,
    "nam": 17170,
    "##onies": 17735,
    "##yards": 18729,
    "Wł": 19279,
    "hors": 5998,
    "131": 12500,
    "Hospitall": 14792,
    "Caval": 19927,
    "Britt": 17814,
    "厂": 738,
    "20th": 5050,
    "journey": 7798,
    "##ucky": 9675,
    "<bos>": 2,
    "offs": 10053,
    "##9": 1036,
    "Waterfall": 10087,
    "discern": 18347,
    "Solar": 16518,
    "Ste": 6301,
    "Barn": 18386,
    "Cec": 9431,
    "Shim": 11788,
    "uses": 5192,
    "##oan": 17708,
    "Liang": 16688,
    "陳": 981,
    "cyt": 9674,
    "crowned": 16568,
    "AML": 7387,
    "accomplish": 10978,
    "Afghan": 18918,
    "##ineas": 16809,
    "##ffin": 16820,
    "##ille": 3540,
    "ant": 2905,
    "##κ": 1575,
    "rebuilt": 10457,
    "##ajuku": 18858,
    "##ו": 1256,
    "Awakening": 19154,
    "##iti": 18250,
    "##una": 11188,
    "programs": 7014,
    "markings": 18384,
    "spiritual": 9248,
    "clearly": 9865,
    "cost": 3899,
    "Dre": 18635,
    "natural": 4917,
    "ю": 322,
    "##uces": 9734,
    "##া": 1686,
    "ל": 338,
    "Spanish": 5081,
    "##roud": 13767,
    "Coldrum": 11555,
    "actor": 5874,
    "propos": 7154,
    "insect": 18407,
    "enh": 9733,
    "Fisher": 14259,
    "resolution": 11041,
    "Kauai": 19799,
    "Gothic": 14543,
    "##σ": 1604,
    "##ordan": 3852,
    "##oking": 10923,
    "Entertainment": 6853,
    "##ˌ": 1623,
    "Nic": 4679,
    "Parks": 11076,
    "Cub": 6976,
    "separated": 7745,
    "comparable": 15718,
    "tack": 9720,
    "Dudley": 10995,
    "Hears": 17937,
    "##リ": 1402,
    "Writ": 6213,
    "exempl": 16167,
    "る": 634,
    "difficult": 3557,
    "Alex": 5405,
    "Cha": 15230,
    "##essor": 5724,
    "trained": 9731,
    "touc": 16310,
    "Sioux": 10985,
    "rece": 2451,
    "interpre": 10325,
    "Turk": 6024,
    "arm": 3743,
    "Large": 15704,
    "##E": 1060,
    "Sev": 7812,
    "##igious": 12645,
    "prepare": 10860,
    "##aurolophus": 19197,
    "Local": 11729,
    "Rain": 8961,
    "insects": 12521,
    "rob": 6687,
    "vehic": 5622,
    "predict": 14125,
    "bo": 3411,
    "ơ": 204,
    "arose": 13470,
    "Abbot": 19737,
    "Christopher": 10670,
    "¡": 99,
    "Ep": 10868,
    "illeg": 9259,
    "animation": 11674,
    "St": 1867,
    "Pet": 5348,
    "Sydney": 11363,
    "Qedarites": 12777,
    "Bi": 7057,
    "SAS": 10360,
    "apolog": 16071,
    "##ared": 3178,
    "##ucle": 15241,
    "##aised": 3276,
    "satisf": 9245,
    "notably": 9647,
    "##case": 12851,
    "ded": 4795,
    "km": 2518,
    "struggle": 9601,
    "Gregory": 12004,
    "17": 2371,
    "##ont": 2208,
    "arguments": 14136,
    "descended": 16127,
    "##asses": 16365,
    "Hoysala": 17084,
    "sponsor": 18503,
    "Champion": 12263,
    "registered": 11783,
    "##ween": 2137,
    "exceptional": 18976,
    "monarch": 7880,
    "Medway": 15656,
    "Dav": 3237,
    "allows": 6891,
    "readily": 14969,
    "##DOT": 18232,
    "##ivation": 12444,
    "counted": 19537,
    "modern": 3404,
    "lover": 11157,
    "##ܗ": 1494,
    "##onst": 4051,
    "##jin": 14591,
    "confront": 10680,
    "##formed": 8460,
    "detected": 11496,
    "centres": 13785,
    "doctor": 14744,
    "##aim": 2717,
    "Fri": 6531,
    "Upon": 7052,
    "##hum": 10898,
    "genuine": 16187,
    "##pite": 3117,
    "##s": 1029,
    "Toniná": 11261,
    "##enses": 10535,
    "viewer": 18905,
    "revealing": 16507,
    "carrying": 9022,
    "recovery": 11098,
    "sad": 9717,
    "stayed": 8834,
    "produces": 10804,
    "##ident": 2573,
    "Oh": 7435,
    "Albums": 9786,
    "##pected": 12843,
    "##lez": 19395,
    "Bay": 3962,
    "##ych": 6349,
    "##entine": 12642,
    "relieve": 18023,
    "flooding": 5913,
    "written": 3056,
    "beyond": 6940,
    "orchest": 8525,
    "Chancellor": 18596,
    "##agre": 7401,
    "emplacements": 19187,
    "ई": 388,
    "15": 2360,
    "seemed": 8716,
    "praising": 12091,
    "52nd": 14463,
    "fission": 15502,
    "uncertain": 10195,
    "font": 16255,
    "con": 1791,
    "蘄": 929,
    "Ó": 123,
    "##oof": 5730,
    "absol": 8790,
    "Nashville": 14773,
    "couples": 16468,
    "Met": 5073,
    "characterized": 9750,
    "drown": 14713,
    "##宋": 1184,
    "cat": 3309,
    "appoint": 8298,
    "თ": 481,
    "Doyle": 12208,
    "Mark": 3978,
    "90": 5096,
    "Russian": 7019,
    "Do": 6786,
    "Hyde": 19721,
    "ं": 386,
    "FCC": 19942,
    "##rel": 6298,
    "Maurice": 12993,
    "##iva": 4714,
    "opportunities": 9600,
    "##ersey": 6691,
    "involve": 13575,
    "severe": 7003,
    "##icking": 11780,
    "##irect": 2312,
    "9th": 6429,
    "Vand": 12221,
    "##60": 16762,
    "Huai": 17962,
    "affecting": 13832,
    "Job": 19951,
    "videos": 8722,
    "##atem": 19372,
    "Complex": 18320,
    "FIT": 13152,
    "abundance": 14214,
    "##ド": 1613,
    "##ence": 1950,
    "##ि": 1521,
    "##ors": 2067,
    "##owers": 4988,
    "starts": 6743,
    "utter": 17973,
    "fail": 4700,
    "vertebrae": 19875,
    "received": 2670,
    "amount": 5277,
    "Ministry": 9496,
    "presents": 12292,
    "monastery": 19170,
    "publicity": 16435,
    "tor": 5022,
    "Seattle": 11355,
    "1966": 7224,
    "ณ": 434,
    "Nicole": 5624,
    "##砲": 1343,
    "##riers": 17227,
    "principles": 14507,
    "region": 3570,
    "Mental": 19254,
    "towers": 8708,
    "##ealous": 13807,
    "Buenos": 14795,
    "shorter": 11039,
    "##olic": 4105,
    "sales": 5764,
    "academic": 8574,
    "Republican": 9869,
    "Rud": 14276,
    "undertaken": 12008,
    "ɾ": 225,
    "##aford": 16743,
    "denial": 19640,
    "pole": 12614,
    "Gri": 12592,
    "afternoon": 10341,
    "##ensional": 15246,
    "progresses": 16961,
    "##け": 1379,
    "unless": 12660,
    "resear": 7268,
    "##ints": 16301,
    "sout": 5803,
    "fav": 3586,
    "##aton": 7175,
    "##eth": 3389,
    "##yson": 7031,
    "Children": 10705,
    "Villaret": 12549,
    "Dahl": 15764,
    "Observers": 18017,
    "Executive": 13835,
    "enthus": 10857,
    "Montreal": 12934,
    "Ern": 18471,
    "##oning": 18759,
    "motion": 7534,
    "Dream": 7248,
    "circular": 13360,
    "nation": 5647,
    "Ship": 11428,
    "##ダ": 1270,
    "not": 1874,
    "swept": 14760,
    "arsenal": 14895,
    "Bess": 17607,
    "##ll": 2417,
    "powered": 10856,
    "affair": 13831,
    "split": 8245,
    "objects": 8993,
    "Mk": 11142,
    "promoting": 17380,
    "Dry": 14250,
    "zoo": 19327,
    "##agle": 7454,
    "enth": 9226,
    "##ह": 1416,
    "rooms": 9602,
    "Mayor": 14390,
    "digitally": 19844,
    "##γ": 1304,
    "decre": 7302,
    "Prom": 10411,
    "Toso": 19991,
    "Mozamb": 8183,
    "ノ": 673,
    "Bath": 9192,
    "promise": 13339,
    "dream": 9268,
    "##sta": 8520,
    "##apul": 18789,
    "pm": 15182,
    "LP": 19244,
    "Ard": 17271,
    "Shortly": 7657,
    "fish": 8194,
    "26": 3121,
    "objective": 9778,
    "rej": 9927,
    "plaster": 17239,
    "Curt": 12815,
    "Barbie": 17981,
    "Labyrinth": 15478,
    "served": 3695,
    "##uits": 11446,
    "The": 1754,
    "##ston": 3649,
    "Play": 3950,
    "##ane": 2238,
    "Gar": 5088,
    "6th": 7431,
    "lap": 8444,
    "Kev": 9439,
    "Haven": 6788,
    "turbines": 14218,
    "Breeders": 18099,
    "##yuan": 19330,
    "prepared": 6714,
    "Hong": 12035,
    "Adrian": 16007,
    "##irected": 19508,
    "Ryder": 19708,
    "impressed": 10454,
    "aft": 16703,
    "dwarf": 9901,
    "Maine": 18138,
    "##充": 1698,
    "Kody": 11588,
    "Syria": 14129,
    "Carib": 7362,
    "autobiography": 16625,
    "college": 7366,
    "parent": 11336,
    "sixteen": 11801,
    "accounting": 18460,
    "poets": 12119,
    "exposure": 9384,
    "counties": 9749,
    "Gabbar": 13407,
    "Jeff": 6675,
    "Ferrari": 15435,
    "##rep": 16312,
    "operator": 16862,
    "Wu": 13029,
    "##gend": 6034,
    "Tull": 18679,
    "means": 5385,
    "Energy": 13215,
    "Chi": 14891,
    "comparisons": 19715,
    "bi": 3768,
    "infection": 11814,
    "##az": 2395,
    "rotation": 11119,
    "outstanding": 13305,
    "Wa": 15164,
    "##ages": 2678,
    "XeO": 17036,
    "mis": 5802,
    "micro": 7673,
    "fir": 1897,
    "bit": 6641,
    "##ഹ": 1697,
    "##eland": 8274,
    "##urric": 2830,
    "Stew": 7456,
    "##uration": 7727,
    "Catholicism": 15021,
    "transformation": 16854,
    "councils": 18496,
    "9": 28,
    "enforcement": 18538,
    "##sis": 4725,
    "rac": 7201,
    "##ooking": 7220,
    "institutions": 8422,
    "Fried": 12403,
    "Collection": 11853,
    "parks": 15356,
    "incon": 19444,
    "definition": 10451,
    "<": 31,
    "Thor": 19459,
    "sm": 2396,
    "##iph": 13080,
    "50": 3286,
    "Berk": 11232,
    "applic": 19651,
    "varies": 13112,
    "fier": 13994,
    "administration": 7426,
    "70": 4914,
    "twelfth": 16899,
    "strategies": 17029,
    "completing": 10805,
    "174": 11212,
    "smooth": 9943,
    "bought": 7436,
    "##ima": 11616,
    "About": 7526,
    "##nest": 6473,
    "decommissioned": 13199,
    "Reviews": 13391,
    "##oses": 5633,
    "##alling": 13763,
    "become": 3079,
    "topological": 15285,
    "demonst": 5677,
    "##lock": 10374,
    "abroad": 11472,
    "poisoning": 15760,
    "erected": 10105,
    "injuries": 9314,
    "significance": 11227,
    "Scandinavian": 17564,
    "##cast": 4166,
    "Ors": 15288,
    "conviction": 14956,
    "whether": 4829,
    "##abling": 16344,
    "##esty": 18281,
    "performers": 17818,
    "night": 3443,
    "##ici": 7340,
    "outcome": 14902,
    "Aur": 16660,
    "##uk": 3974,
    "afford": 12917,
    "NY": 4269,
    "closer": 9165,
    "hostile": 12341,
    "##ingly": 6990,
    "ي": 376,
    "Dj": 4887,
    "##望": 1602,
    "temples": 9577,
    "##uty": 10514,
    "seven": 3340,
    "Fish": 7856,
    "Fey": 5713,
    "listed": 4734,
    "Edge": 13122,
    "42nd": 14455,
    "didn": 7112,
    "extent": 9233,
    "Fun": 17618,
    "theologians": 19859,
    "suppl": 6069,
    "1982": 7583,
    "besie": 14493,
    "##original": 19192,
    "##K": 1075,
    "##mented": 16358,
    "medley": 16447,
    "GA": 7125,
    "flu": 7218,
    "maintaining": 11488,
    "Ac": 3994,
    "outs": 17267,
    "glass": 7638,
    "Written": 15367,
    "reg": 2176,
    "fountain": 9713,
    "sque": 19323,
    "Spir": 13326,
    "Furthermore": 10852,
    "Diamond": 14225,
    "civic": 19288,
    "##き": 1205,
    "ministers": 13322,
    "##ably": 3210,
    "whom": 3991,
    "##ë": 1388,
    "invest": 4201,
    "Females": 18544,
    "toler": 10768,
    "Grammy": 9110,
    "formations": 15252,
    "Jak": 16682,
    "絵": 910,
    "Haiti": 7652,
    "overlap": 15724,
    "##eff": 15193,
    "chef": 16063,
    "Hey": 18820,
    "midfield": 14963,
    "ﷲ": 1008,
    "##ink": 2456,
    "platforms": 13637,
    "lev": 15580,
    "##roph": 11177,
    "##inian": 9281,
    "##eces": 17213,
    "installation": 19771,
    "pill": 12837,
    "forget": 14027,
    "rush": 13252,
    "##erts": 7067,
    "##у": 1674,
    "remark": 5872,
    "brut": 11950,
    "Djedkare": 6279,
    "Valley": 6208,
    "observ": 4534,
    "Earl": 8104,
    "Commons": 10546,
    "##insky": 14377,
    "み": 626,
    "##idges": 7616,
    "Pont": 15155,
    "Tennyson": 7159,
    "Australian": 3566,
    "##lers": 6082,
    "determination": 16948,
    "Ré": 7552,
    "explo": 10066,
    "sun": 7721,
    "criticised": 9163,
    "ca": 13037,
    "striker": 15051,
    "Rather": 17146,
    "\"": 5,
    "sail": 7443,
    "Country": 11075,
    "dislik": 13535,
    "travels": 12726,
    "Beg": 10225,
    "dealt": 13284,
    "fluores": 17987,
    "superiority": 19753,
    "Experience": 19821,
    "nine": 4271,
    "##思": 1350,
    "Bradstreet": 11686,
    "symptoms": 12998,
    "Forb": 13559,
    "col": 2492,
    "aided": 13712,
    "##C": 1047,
    "Idol": 16115,
    "mate": 12424,
    "deciding": 14365,
    "Americans": 6697,
    "tour": 3401,
    "##gé": 7770,
    "overseas": 9509,
    "wonderful": 19827,
    "spare": 19435,
    "Seym": 18078,
    "charged": 10058,
    "proble": 3726,
    "fault": 12420,
    "game": 2123,
    "##terbury": 9063,
    "Legisl": 16539,
    "Odaenathus": 5888,
    "Who": 9298,
    "fired": 6479,
    "sud": 7825,
    "Abu": 6668,
    "initiated": 10292,
    "schools": 5119,
    "justice": 12127,
    "affil": 12329,
    "##ト": 1375,
    "However": 2574,
    "prohibited": 12981,
    "dual": 11293,
    "##iya": 15535,
    "cit": 7496,
    "waste": 13748,
    "PopM": 13897,
    "Ramon": 18470,
    "##kind": 18747,
    "biographical": 19613,
    "favorite": 8419,
    "##ya": 6795,
    "Sugar": 17541,
    "birds": 4541,
    "tallest": 19729,
    "##iqu": 4282,
    "Historically": 19700,
    "Dí": 13451,
    "##iture": 15548,
    "Bosi": 17993,
    "Studies": 11832,
    "governor": 8917,
    "Ever": 4368,
    "Uí": 15842,
    "##ous": 1899,
    "ā": 161,
    "##bum": 2206,
    "Tre": 4837,
    "Mor": 3470,
    "##CO": 10906,
    "flight": 5008,
    "elected": 5768,
    "margin": 12314,
    "##inand": 13736,
    "##iod": 2762,
    "Since": 4651,
    "إ": 352,
    "Roberts": 8232,
    "compiled": 15589,
    "legit": 12510,
    "restrict": 9387,
    "dancers": 16644,
    "Republic": 4291,
    "##iction": 3690,
    "pharaoh": 17850,
    "beaut": 6771,
    "##ogna": 16916,
    "Chel": 6903,
    "Plateau": 12305,
    "1500": 18341,
    "Beet": 18373,
    "Benedict": 16654,
    "##atever": 11466,
    "opp": 2890,
    "ḥ": 522,
    "Christi": 11494,
    "##yers": 15191,
    "dismiss": 6276,
    "Regard": 14972,
    "##ình": 12070,
    "Marg": 15250,
    "155": 9379,
    "Bod": 12810,
    "##55": 18233,
    "funerary": 19112,
    "c": 70,
    "positions": 5010,
    "Kō": 11005,
    "Bend": 16662,
    "##ears": 9646,
    "##adh": 12643,
    "Colony": 15622,
    "##avor": 17224,
    "tournaments": 10311,
    "Dec": 2728,
    "genes": 12139,
    "##rific": 15569,
    "mycologist": 19772,
    "asserted": 13542,
    "northwestward": 16108,
    "threat": 4128,
    "arsen": 19450,
    "Acad": 5215,
    "hung": 13241,
    "Project": 7185,
    "size": 4311,
    "孟": 770,
    "##raw": 3082,
    "convoy": 8695,
    "million": 2530,
    "Bow": 9801,
    "Gielgud": 12808,
    "ROK": 14557,
    "purp": 5369,
    "exhausted": 12565,
    "##膀": 1504,
    "Sarn": 5775,
    "make": 2893,
    "式": 797,
    "commanders": 11346,
    "Territ": 8485,
    "##ried": 3091,
    "##ills": 4015,
    "soil": 8100,
    "cav": 18175,
    "limited": 4484,
    "Sep": 16242,
    "##essed": 6953,
    "stronger": 12719,
    "Sy": 3634,
    "Storm": 5114,
    "caused": 3476,
    "##ber": 1847,
    "meeting": 5463,
    "rugby": 9124,
    "infl": 3021,
    "Mitchell": 11127,
    "Destroy": 12762,
    "extends": 13102,
    "##osity": 11770,
    "historically": 11226,
    "##fully": 6622,
    "doors": 14074,
    "convict": 14678,
    "Vettel": 15125,
    "school": 2825,
    "Māori": 16205,
    "##abol": 16343,
    "Wayne": 16538,
    "Bad": 9800,
    "マ": 682,
    "Ælf": 17100,
    "##senal": 7952,
    "Egy": 4077,
    "Aden": 15279,
    "Brom": 17809,
    "deter": 11495,
    "praetervisa": 18616,
    "Pau": 18670,
    "Nancy": 16232,
    "even": 2787,
    "##adier": 10146,
    "fres": 15566,
    "bou": 18692,
    "ण": 391,
    "Cob": 9613,
    "##uble": 14054,
    "η": 265,
    "dif": 2411,
    "Amede": 18112,
    "children": 3203,
    "ฐ": 433,
    "age": 3471,
    "Die": 10595,
    "##ław": 13260,
    "guitar": 4718,
    "##enth": 3545,
    "protecting": 17844,
    "subsequent": 6933,
    "Brigades": 13098,
    "Andreas": 19796,
    "##yles": 8198,
    "chlor": 15929,
    "bulk": 10098,
    "substant": 7406,
    "##rove": 15914,
    "divine": 8231,
    "Halo": 11545,
    "acoust": 12104,
    "Monte": 17384,
    "Square": 8561,
    "task": 6646,
    "Herz": 9665,
    "southeast": 7538,
    "##iform": 9067,
    "emot": 5615,
    "##愛": 1670,
    "Charlotte": 11101,
    "veter": 11600,
    "velocity": 13679,
    "Hunter": 15397,
    "Geography": 16885,
    "caps": 11332,
    "ṇ": 526,
    "セ": 660,
    "Leon": 7182,
    "biographer": 9242,
    "##oncé": 5253,
    "Person": 8442,
    "stage": 3985,
    "kits": 7913,
    "heroes": 11775,
    "##uity": 18744,
    "drive": 6806,
    "hence": 13995,
    "ł": 182,
    "lie": 13243,
    "tur": 6262,
    "favour": 6422,
    "overwhelmed": 14212,
    "techn": 3455,
    "Ko": 12597,
    "Dana": 19933,
    "##ั": 1195,
    "im": 2015,
    "Jud": 7061,
    "##س": 1322,
    "railway": 8418,
    "prevented": 10175,
    "prefer": 6883,
    "aimed": 11397,
    "Fu": 13967,
    "Yorkshire": 12711,
    "sew": 11017,
    "Bloom": 13554,
    "##atile": 19373,
    "L": 47,
    "##inals": 8912,
    "meetings": 8934,
    "funding": 7643,
    "SEC": 13987,
    "##sylv": 5184,
    "government": 2848,
    "considerable": 8115,
    "Singing": 16505,
    "ベ": 681,
    "##velop": 2361,
    "hour": 5487,
    "##iang": 9359,
    "memorial": 9501,
    "icon": 9538,
    "announced": 3568,
    "##low": 10903,
    "／": 1011,
    "blow": 11641,
    "examination": 12351,
    "##ョ": 1159,
    "##跡": 1665,
    "##uskhuri": 13208,
    "spite": 14890,
    "##orse": 3596,
    "disp": 4364,
    "iconic": 18024,
    "1897": 11972,
    "Hinge": 18131,
    "Min": 3766,
    "##raft": 2841,
    "housed": 11825,
    "Eccl": 11573,
    "intimate": 17254,
    "Manchester": 5962,
    "##atorial": 14970,
    "reag": 12079,
    "Know": 10730,
    "foreign": 6299,
    "宫": 777,
    "color": 6125,
    "fossil": 14777,
    "newsp": 4901,
    "mans": 17693,
    "##ر": 1466,
    "Roman": 3122,
    "stone": 5332,
    "impress": 6882,
    "Jacob": 9418,
    "Bron": 11482,
    "Years": 11684,
    "Harm": 12596,
    "Travis": 19795,
    "May": 2460,
    "veloc": 13049,
    "academy": 17966,
    "Advert": 17839,
    "Aven": 7025,
    "##rane": 5975,
    "##NC": 10248,
    "##ycake": 10968,
    "tends": 14580,
    "neur": 15280,
    "Phoen": 7659,
    "revived": 11787,
    "##ish": 1887,
    "manufact": 5903,
    "Hyp": 17626,
    "oribi": 14004,
    "stretched": 12775,
    "metallic": 16175,
    "280": 16909,
    "م": 372,
    "##arat": 17202,
    "stance": 17753,
    "്": 426,
    "##ana": 3465,
    "##mission": 6950,
    "Peggy": 15441,
    "Time": 5445,
    "Interchange": 11241,
    "##ibe": 16376,
    "##artments": 19429,
    "birth": 4537,
    "##olulu": 15555,
    "##ラ": 1329,
    "Heritage": 11219,
    "史": 743,
    "Mycena": 18073,
    "##onance": 18760,
    "ray": 8968,
    "Baker": 9430,
    "##ious": 2079,
    "Eaton": 9432,
    "π": 274,
    "pan": 6261,
    "##iveness": 8293,
    "personally": 10814,
    "##tym": 12120,
    "pose": 14005,
    "controversial": 8794,
    "Derby": 13401,
    "engines": 9390,
    "स": 402,
    "Trond": 11650,
    "##č": 1098,
    "females": 6560,
    "##load": 6767,
    "##hl": 7765,
    "##after": 8972,
    "Vulcan": 12383,
    "protagon": 7150,
    "##oors": 17186,
    "enthusiastic": 19125,
    "mature": 12122,
    "weapons": 6678,
    "debt": 13569,
    "Broadcasting": 19182,
    "##omin": 2590,
    "puma": 13723,
    "##inese": 4332,
    "##resc": 17808,
    "##acked": 8156,
    "##iper": 11193,
    "Hemisphere": 19145,
    "seed": 14341,
    "क": 389,
    "Society": 5623,
    "76": 5467,
    "discontin": 14389,
    "map": 8886,
    "format": 9738,
    "##stappen": 13746,
    "##ittings": 18350,
    "##aels": 13052,
    "Madh": 16930,
    "recognition": 8109,
    "Lond": 3335,
    "ghost": 15767,
    "favourite": 14471,
    "resistance": 9518,
    "aim": 7495,
    "##orer": 7922,
    "coastline": 14126,
    "Moment": 15788,
    "##elly": 17210,
    "Pras": 18368,
    "deals": 12254,
    "Gulf": 6757,
    "collector": 18886,
    "Hardy": 16563,
    "ニ": 671,
    "neighb": 11106,
    "Imag": 10076,
    "recalls": 14622,
    "##澤": 1310,
    "executive": 6875,
    "winner": 8512,
    "graduate": 12739,
    "hunt": 14838,
    "Abby": 9960,
    "kilomet": 5345,
    "markets": 13823,
    "##ocrat": 17236,
    "unidentified": 18305,
    "Gy": 14262,
    "remake": 14364,
    "##έ": 1306,
    "winds": 4068,
    "##ta": 12623,
    "Prof": 8918,
    "rendition": 13938,
    "##я": 1230,
    "Design": 8781,
    "writes": 6513,
    "Ext": 10822,
    "ず": 609,
    "##eping": 11048,
    "##av": 1802,
    "Officer": 14444,
    "##ank": 2196,
    "nearly": 4307,
    "##ne": 3322,
    "##aint": 3315,
    "profit": 10819,
    "##ression": 17298,
    "若": 925,
    "unwilling": 19810,
    "tong": 14298,
    "expeditions": 14183,
    "Cricket": 11274,
    "colonial": 8060,
    "boot": 11898,
    "internet": 15700,
    "villages": 9006,
    "num": 2167,
    "serve": 6657,
    "S": 54,
    "##ire": 1942,
    "##lim": 5313,
    "##acements": 14026,
    "identify": 11672,
    "student": 6359,
    "cm": 4584,
    "de": 1821,
    "manor": 19472,
    "Jerusal": 8238,
    "space": 5224,
    "enforce": 18022,
    "companion": 17073,
    "Mum": 18136,
    "##lane": 12848,
    "拉": 815,
    "dynasty": 9323,
    "battleships": 10850,
    "city": 2494,
    "contribute": 16126,
    "ball": 3413,
    "cleared": 9769,
    "##imeter": 11184,
    "Protection": 17452,
    "clos": 3749,
    "Tsub": 18516,
    "payments": 17932,
    "totaled": 17354,
    "Massa": 16540,
    "hol": 5969,
    "André": 19141,
    "900": 9330,
    "eth": 7100,
    "aired": 6451,
    "##nam": 18736,
    "seeking": 10706,
    "authorities": 5910,
    "Astraeus": 16659,
    "##attering": 17336,
    "aff": 3219,
    "##back": 4437,
    "allegiance": 18533,
    "Tigers": 11566,
    "absorbed": 12015,
    "columnist": 19059,
    "shelter": 15387,
    "norm": 5104,
    "exped": 6597,
    "Lew": 6258,
    "Hawai": 5526,
    "data": 6686,
    "Herzegov": 10110,
    "disliked": 15122,
    "nautical": 14801,
    "Mike": 6468,
    "topics": 16016,
    "Norwegian": 12165,
    "discovered": 4569,
    "marry": 9574,
    "##itia": 11450,
    "Tribble": 19085,
    "า": 455,
    "##こ": 1274,
    "##jan": 12240,
    "downtown": 10239,
    "subcont": 19871,
    "##mas": 4859,
    "##ember": 2030,
    "Hence": 19237,
    "sentiment": 10555,
    "reveals": 9078,
    "Sh": 2241,
    "moves": 7181,
    "camer": 12360,
    "conform": 13519,
    "hairstyle": 18592,
    "commands": 11345,
    "##apes": 7072,
    "authority": 6204,
    "Every": 8709,
    "taste": 11752,
    "drugs": 13923,
    "e4": 16253,
    "尾": 782,
    "а": 297,
    "##iation": 3724,
    "em": 2344,
    "gri": 12421,
    "line": 2697,
    "##ー": 1269,
    "wh": 1785,
    "##per": 1931,
    "peak": 3612,
    "cadmium": 5997,
    "consequ": 8212,
    "Saprang": 8498,
    "330": 15350,
    "distant": 12494,
    "₹": 576,
    "corpse": 16201,
    "subord": 12892,
    "cert": 3519,
    "Thai": 12467,
    "Fat": 12209,
    "##ud": 1846,
    "liqu": 10890,
    "Wilf": 14708,
    "fluid": 15382,
    "##inal": 2081,
    "viewed": 7525,
    "baseball": 7628,
    "Netherlands": 8954,
    "Pozzobonelli": 15806,
    "Occ": 12603,
    "Eve": 12588,
    "##ou": 1736,
    "Fred": 10654,
    "destroyer": 11357,
    "##ust": 1893,
    "Ut": 9337,
    "沂": 860,
    "songs": 3028,
    "Spector": 19526,
    "##rez": 13061,
    "##の": 1093,
    "Race": 11427,
    "competed": 13345,
    "Undertaker": 19650,
    "Duke": 8234,
    "locked": 18707,
    "themes": 5834,
    "ỹ": 549,
    "##aws": 8039,
    "Keys": 12548,
    "豫": 945,
    "continues": 5876,
    "精": 908,
    "those": 2858,
    "Homer": 7712,
    "Stu": 10921,
    "Rafael": 13676,
    "##AT": 8974,
    "1958": 8343,
    "preparation": 9974,
    "hiatus": 14517,
    "associated": 5136,
    "departed": 11850,
    "ჭ": 503,
    "virus": 17533,
    "デ": 667,
    "##ody": 2709,
    "Saginaw": 15789,
    "loosely": 16968,
    "##irc": 3375,
    "##ney": 4527,
    "Pan": 9266,
    "##ortunately": 16516,
    "##藥": 1631,
    "narrower": 19697,
    "##rosion": 14153,
    "Conf": 5877,
    "undergo": 12677,
    "Wolfpack": 13928,
    "kicked": 12956,
    "Lesser": 18566,
    "word": 4596,
    "##graded": 8171,
    "vague": 18209,
    "##yle": 3068,
    "Prot": 5927,
    "switch": 13844,
    "ride": 10621,
    "consistently": 12160,
    "add": 2332,
    "lengthy": 16936,
    "##t": 1020,
    "Zo": 17669,
    "##aut": 4436,
    "conting": 17776,
    "##au": 2443,
    "##ogan": 12462,
    "requ": 2899,
    "Summer": 7285,
    "targets": 11688,
    "##family": 19854,
    "´": 108,
    "##EA": 12239,
    "Rash": 19980,
    "Kling": 16684,
    "exercises": 17995,
    "intercept": 11208,
    "##夫": 1573,
    "Qu": 4041,
    "應": 809,
    "isotopes": 12994,
    "Schm": 14146,
    "Heart": 10702,
    "m2": 15511,
    "requirement": 16541,
    "picked": 8240,
    "Defensive": 17942,
    "Carpenter": 12293,
    "Scapa": 19505,
    "rebuilding": 17485,
    "proper": 4196,
    "##ン": 1160,
    "##akur": 16345,
    "##ჳ": 1474,
    "patient": 18924,
    "Tax": 10362,
    "##elskap": 18601,
    "suddenly": 11862,
    "##athed": 17201,
    "body": 3258,
    "Mullen": 19969,
    "Museum": 5264,
    "Us": 6212,
    "possibly": 6093,
    "##self": 3174,
    "Composition": 12513,
    "people": 2561,
    "salv": 11987,
    "Federer": 3792,
    "Asian": 10539,
    "##roke": 13272,
    "Paranthodon": 13444,
    "logistical": 18464,
    "colonies": 10080,
    "impro": 3728,
    "elsewhere": 9657,
    "mot": 3818,
    "##ishop": 4591,
    "withdrawal": 10576,
    "relationship": 3654,
    "forty": 10254,
    "Liz": 12042,
    "discusses": 15667,
    "##ode": 2295,
    "settlements": 10189,
    "concrete": 7147,
    "portion": 6156,
    "habitats": 11839,
    "##hys": 3644,
    "##for": 4036,
    "##itars": 14321,
    "Ou": 19259,
    "Playing": 14942,
    "ヘ": 680,
    "judicial": 17924,
    "##ם": 1192,
    "##hib": 4321,
    "Faulkner": 13004,
    "##rino": 13051,
    "aug": 17156,
    "Sand": 8962,
    "complete": 4440,
    "Mississipp": 7790,
    "Tintin": 5816,
    "Cyrus": 11714,
    "condom": 5658,
    "Alfa": 12553,
    "blamed": 13792,
    "terrible": 15643,
    "11th": 7837,
    "neighbouring": 16626,
    "##istic": 3697,
    "보": 1003,
    "Marc": 7353,
    "raise": 8970,
    "##ovE": 19431,
    "Cubs": 10455,
    "Isla": 16420,
    "bill": 4302,
    "##ional": 3202,
    "##oloph": 16779,
    "BBC": 6376,
    "ị": 539,
    "childhood": 9954,
    "##mann": 7685,
    "runway": 11797,
    "angry": 13618,
    "buff": 15606,
    "Freder": 7510,
    "ost": 16264,
    "ỳ": 548,
    "eur": 7719,
    "03": 9798,
    "Hawaiʻi": 11544,
    "##im": 1773,
    "Á": 114,
    "##icient": 6541,
    "Unf": 17270,
    "##ying": 3311,
    "##fore": 2164,
    "native": 5378,
    "patrol": 12518,
    "Manual": 16891,
    "##ompany": 17382,
    "Tribune": 17997,
    "71": 7094,
    "##ieth": 10401,
    "repertoire": 14797,
    "Mott": 15481,
    "Stratford": 19904,
    "autonomy": 19646,
    "does": 3426,
    "annually": 9235,
    "##I": 1062,
    "NH": 6863,
    "fram": 13073,
    "##TA": 15197,
    "##ance": 1981,
    "lost": 3220,
    "preservation": 17296,
    "fond": 16711,
    "evac": 7509,
    "##ampion": 6658,
    "money": 4695,
    "Armed": 16380,
    "WWE": 16578,
    "ネ": 672,
    "Party": 5156,
    "ll": 7817,
    "寝": 778,
    "##inct": 4543,
    "##angers": 6777,
    "candidates": 11995,
    "Berg": 13135,
    "##aic": 14009,
    "Andrews": 19030,
    "##ipel": 12260,
    "##und": 2550,
    "Break": 18114,
    "organizations": 8292,
    "##dy": 15532,
    "Tyr": 17659,
    "Arab": 4200,
    "##acent": 7977,
    "concert": 4909,
    "speaking": 7474,
    "pitching": 11816,
    "##ients": 7920,
    "ส": 449,
    "pron": 11928,
    "object": 4791,
    "conclusions": 17555,
    "##iastic": 17723,
    "Ranger": 15838,
    "stressed": 19402,
    "neighbour": 12361,
    "##ais": 14859,
    "##ipas": 17246,
    "copy": 11523,
    "##願": 1585,
    "taxi": 16090,
    "convey": 11962,
    "##ius": 3636,
    "recru": 7773,
    "thoughts": 13556,
    "Coach": 19616,
    "Exeter": 13834,
    "Eva": 5878,
    "Hindu": 7749,
    "Pop": 5934,
    "##erted": 7823,
    "Egypt": 4082,
    "mathemat": 12026,
    "CAA": 16215,
    "lyrical": 12734,
    "indig": 8335,
    "Delta": 17616,
    "series": 2286,
    "##fu": 18751,
    "ゲ": 653,
    "##ف": 1465,
    "penet": 11678,
    "conduct": 4008,
    "conc": 2385,
    "own": 2506,
    "employees": 10565,
    "myster": 12133,
    "network": 4268,
    "##ấ": 1145,
    "##uction": 2663,
    "##zz": 4402,
    "Cel": 13012,
    "Principe": 19078,
    "Two": 3692,
    "dollars": 8009,
    "interests": 9372,
    "##gans": 12434,
    "Byz": 17853,
    "halt": 18902,
    "perception": 13298,
    "porn": 18719,
    "##iss": 2087,
    "Ass": 3147,
    "uniform": 10393,
    "Gen": 9433,
    "Community": 12362,
    "nests": 15872,
    "ま": 625,
    "commenting": 11818,
    "comfortable": 18562,
    "irrigation": 19882,
    "see": 3448,
    "ram": 16726,
    "battlefield": 12731,
    "##ships": 14150,
    "##quarters": 4678,
    "Adam": 8545,
    "Scully": 9741,
    "shared": 7574,
    "however": 3090,
    "driver": 10182,
    "Zagre": 11897,
    "adoption": 18034,
    "##ince": 2301,
    "spoke": 9360,
    "##ira": 10774,
    "117": 10172,
    "Vasco": 19997,
    "morale": 17421,
    "ˌ": 239,
    "##00": 1947,
    "stop": 4247,
    "eas": 7099,
    "1848": 12741,
    "attackers": 16874,
    "voting": 17423,
    "%": 8,
    "Toy": 15494,
    "fifth": 4556,
    "MacArthur": 17604,
    "Team": 8061,
    "wr": 6647,
    "knew": 7687,
    "鍵": 973,
    "milk": 13103,
    "##orian": 15899,
    "comics": 14884,
    "##lec": 9212,
    "ば": 621,
    "Arizona": 12173,
    "Tz": 13028,
    "promot": 3548,
    "Minnesota": 5484,
    "##hedruli": 12464,
    "##ining": 4757,
    "Evil": 17360,
    "##burgh": 10099,
    "ɢ": 220,
    "##rooms": 12077,
    "captivity": 15290,
    "Dor": 9264,
    "##idance": 13275,
    "talking": 10447,
    "Vij": 15845,
    "accommod": 8723,
    "previously": 4081,
    "cameras": 13952,
    "started": 3437,
    "Portugues": 5710,
    "##onder": 7930,
    "Trafford": 19153,
    "turn": 2856,
    "桜": 845,
    "Argent": 6104,
    "##atha": 11940,
    "odes": 17466,
    "intersections": 14457,
    "##ādvāda": 14527,
    "##ä": 1114,
    "##eared": 12870,
    "enforced": 19106,
    "25th": 13818,
    "depict": 7522,
    "##lon": 14307,
    "genus": 5422,
    "ultimate": 14158,
    "1896": 13845,
    "Trav": 11061,
    "someone": 8098,
    "Agricult": 16495,
    "Additional": 15050,
    "insert": 16918,
    "ỏ": 541,
    "##angu": 3618,
    "##itar": 3053,
    "Verm": 11894,
    "##RI": 19364,
    "mon": 2262,
    "Lanc": 8504,
    "##ulance": 18785,
    "##appers": 19578,
    "Nam": 14819,
    "abnormal": 15119,
    "##金": 1414,
    "##和": 1577,
    "Townsend": 5522,
    "Panther": 17141,
    "ESPN": 17595,
    "discrim": 19520,
    "##prise": 6270,
    "hosted": 8786,
    "##ulators": 16335,
    "Hương": 15818,
    "unusual": 8431,
    "RAR": 15715,
    "##ject": 2613,
    "O": 50,
    "partly": 8684,
    "Ghost": 10327,
    "confluence": 15018,
    "position": 3114,
    "creat": 3769,
    "last": 2722,
    "皮": 898,
    "cinem": 8020,
    "wisdom": 18101,
    "devastating": 19128,
    "lanes": 11012,
    "##emark": 13754,
    "Rous": 18144,
    "musc": 5746,
    "##entle": 10771,
    "่": 463,
    "consid": 2597,
    "he": 1816,
    "##eding": 4598,
    "Hokies": 9899,
    "##idia": 13749,
    "forest": 5829,
    "##ko": 14308,
    "Ⴕ": 472,
    "Final": 5375,
    "stru": 3909,
    "Merc": 15344,
    "particles": 16879,
    "Find": 19229,
    "Devin": 12941,
    "vessels": 9023,
    "suggesting": 9409,
    "murd": 13886,
    "Dup": 17615,
    "##weight": 9560,
    "##gets": 10501,
    "intensified": 9018,
    "##nel": 4394,
    "frigates": 13935,
    "望": 836,
    "##rets": 8086,
    "triangle": 18893,
    "Helen": 14436,
    "Mc": 2769,
    "PlaySt": 6181,
    "Gabriel": 18574,
    "##ugu": 10164,
    "extension": 9297,
    "##W": 1100,
    "ambig": 16965,
    "##ube": 7623,
    "join": 3097,
    "UEFA": 10112,
    "Retrieved": 13399,
    "##urricanes": 9485,
    "Warsaw": 15392,
    "critics": 3661,
    "Sun": 4131,
    "Cresswell": 10861,
    "draft": 6944,
    "##ocracy": 16978,
    "Kinn": 17630,
    "##cat": 17726,
    "contam": 19447,
    "Everett": 19644,
    "910": 18513,
    "##istics": 5006,
    "Ful": 11420,
    "Contin": 12953,
    "Standard": 19138,
    "explain": 10812,
    "##angs": 17788,
    "historian": 6523,
    "Shawn": 19496,
    "Zealanders": 16504,
    "##lik": 7503,
    "##ovsky": 17769,
    "Cla": 17835,
    "fighter": 17679,
    "##arya": 11773,
    "establishing": 9593,
    "Congolese": 16945,
    "##ж": 1549,
    "serv": 2740,
    "##ì": 1243,
    "classification": 10671,
    "duties": 8495,
    "passed": 4325,
    "##ί": 1333,
    "##ý": 1529,
    "repet": 13568,
    "Symph": 12387,
    "preval": 14664,
    "Me": 3572,
    "##umed": 5077,
    "nomen": 18712,
    "effort": 5989,
    "Italians": 15023,
    "schem": 8757,
    "##ended": 2645,
    "fix": 6319,
    "Catholics": 12742,
    "##etr": 17747,
    "Writers": 19042,
    "debts": 19570,
    "List": 11139,
    "แ": 460,
    "Heavy": 11626,
    "##hears": 15199,
    "Baja": 17609,
    "conven": 13520,
    "妙": 767,
    "Domnall": 14489,
    "designated": 6092,
    "##aken": 2947,
    "्": 410,
    "ow": 8818,
    "limit": 8930,
    "ჺ": 516,
    "Gill": 10871,
    "toss": 16311,
    "##master": 15892,
    "##eare": 8602,
    "##з": 1248,
    "##owl": 4404,
    "##rect": 4672,
    "US": 2614,
    "block": 4418,
    "applications": 13871,
    "##bec": 16284,
    "sessions": 8819,
    "##ล": 1430,
    "##rous": 9287,
    "franchise": 8500,
    "commer": 3704,
    "reconnaissance": 9225,
    "í": 144,
    "treat": 4050,
    "Sm": 4069,
    "Uprising": 16245,
    "fit": 8265,
    "sweep": 15396,
    "oxidation": 18577,
    "##just": 19365,
    "Friedrich": 15780,
    "officers": 4779,
    "cent": 2071,
    "commentary": 13361,
    "kit": 10368,
    "breeds": 14100,
    "secretary": 11841,
    "Vistara": 14237,
    "Shadow": 14647,
    "wickets": 11557,
    "better": 4491,
    "dens": 9122,
    "Marily": 14367,
    "##ment": 1878,
    "fourteen": 12105,
    "remnant": 14751,
    "salts": 19668,
    "selected": 5368,
    "##read": 2975,
    "##acity": 7569,
    "Tig": 8813,
    "Chron": 10650,
    "80": 4753,
    "subjected": 14072,
    "Joyful": 11864,
    "##are": 2112,
    "ext": 2421,
    "1944": 6550,
    "preceded": 17499,
    "playable": 13301,
    "many": 2351,
    "chang": 3159,
    "##ss": 2089,
    "Strand": 8112,
    "administrative": 11713,
    "##ebe": 15610,
    "##ep": 2099,
    "choice": 7298,
    "25": 2725,
    "##erse": 11769,
    "nuc": 3577,
    "Hed": 17121,
    "Army": 3625,
    "public": 2684,
    "Alfred": 10216,
    "##ob": 2134,
    "displacement": 16979,
    "フ": 677,
    "##hips": 6591,
    "NBA": 6904,
    "Z": 61,
    "pract": 3961,
    "obsc": 12301,
    "Promotion": 19779,
    "larger": 4513,
    "##wegian": 11939,
    "##uit": 3761,
    "Maur": 10482,
    "Christian": 3912,
    "Dev": 4279,
    "Hamilton": 8297,
    "philos": 6784,
    "Perhaps": 18912,
    "pres": 2292,
    "pioneering": 19156,
    "hi": 12422,
    "ceiling": 14518,
    "heated": 17758,
    "##itely": 11915,
    "Nx": 19256,
    "inh": 5631,
    "plate": 13078,
    "counterparts": 19001,
    "Data": 11581,
    "##oded": 16792,
    "stationed": 9244,
    "rend": 10152,
    "Sout": 12825,
    "blues": 16398,
    "##fast": 17731,
    "calls": 7304,
    "diver": 10491,
    "##rett": 11222,
    "##gas": 12630,
    "authors": 7587,
    "assist": 4349,
    "Jeremi": 17413,
    "offense": 7931,
    "咲": 751,
    "that": 1777,
    "prim": 3424,
    "unsuccessfully": 14754,
    "tensions": 16271,
    "Cherry": 16669,
    "AS": 13682,
    "Sullivan": 13205,
    "##leased": 18775,
    "frust": 9833,
    "coalition": 17477,
    "correct": 7475,
    "##hua": 11699,
    "sport": 5783,
    "explains": 10067,
    "II": 2627,
    "##building": 17578,
    "notion": 16355,
    "##idding": 17884,
    "Cape": 9263,
    "##狸": 1143,
    "works": 3556,
    "##ata": 3667,
    "easier": 15380,
    "##SA": 8742,
    "device": 12337,
    "##urance": 11767,
    "secular": 13309,
    "Sha": 7144,
    "Chronicles": 10854,
    "fil": 11595,
    "Raf": 12411,
    "Boliv": 19681,
    "slightly": 5773,
    "eleg": 18375,
    "confron": 14412,
    "Chand": 12883,
    "##isf": 7446,
    "procl": 11619,
    "controversy": 8241,
    "##ck": 3575,
    "updated": 10983,
    "##liminary": 19019,
    "representation": 10827,
    "##hood": 5408,
    "Even": 6530,
    "inaugural": 12567,
    "Hem": 12593,
    "Merrifield": 15449,
    "Triple": 16535,
    "mult": 4044,
    "resources": 9112,
    "hub": 18187,
    "部": 962,
    "##que": 2846,
    "##its": 2320,
    "wrestling": 16737,
    "104": 14075,
    "vert": 7255,
    "owned": 5770,
    "Cle": 8880,
    "##elli": 7457,
    "Based": 13449,
    "##orld": 2184,
    "hosts": 13597,
    "oral": 14046,
    "Neb": 8583,
    "rows": 15187,
    "Susque": 14188,
    "fall": 3790,
    "ɽ": 224,
    "behind": 3732,
    "##abyrinth": 11876,
    "Phoenician": 18510,
    "ょ": 631,
    "energy": 6066,
    "tone": 8740,
    "##ikes": 16828,
    "##care": 17729,
    "Jerry": 14445,
    "meanwhile": 18430,
    "##seud": 10648,
    "Ernest": 10573,
    "club": 2920,
    "districts": 11954,
    "pun": 5552,
    "sensation": 18490,
    "It": 2004,
    "##pack": 13488,
    "##otte": 11033,
    "precise": 16527,
    "Ā": 160,
    "Billy": 12585,
    "intent": 16818,
    "Vul": 9623,
    "Bradford": 7801,
    "spirit": 9097,
    "restrictions": 12020,
    "Without": 11073,
    "Treasury": 18461,
    "central": 3842,
    "borrowed": 13932,
    "Observer": 14480,
    "1932": 8852,
    "##isle": 11172,
    "separate": 5544,
    "loot": 16715,
    "stock": 10777,
    "##ED": 11759,
    "##éd": 11911,
    "national": 3520,
    "Tunnel": 17550,
    "att": 2024,
    "ending": 4993,
    "##enne": 13555,
    "Bl": 2466,
    "##more": 6580,
    "##ap": 1814,
    "##eer": 6350,
    "##esc": 8518,
    "##aining": 2601,
    "Jainism": 19723,
    "leaving": 4744,
    "Kingdom": 3576,
    "##ア": 1444,
    "finds": 7048,
    "physician": 18443,
    "Jean": 8564,
    "whole": 4958,
    "warned": 12497,
    "##andy": 7730,
    "decor": 8399,
    "##pah": 18730,
    "difference": 10183,
    "Cardinal": 6812,
    "##ɔ": 1297,
    "ft": 3281,
    "##elsen": 9746,
    "##ially": 2501,
    "apply": 12272,
    "133": 15278,
    "Emperor": 9015,
    "rates": 9345,
    "appropriate": 11710,
    "Inn": 5169,
    "##OK": 9211,
    "Oke": 14274,
    "⁄": 572,
    "Secret": 5756,
    "methods": 7898,
    "industrial": 8236,
    "##bro": 11754,
    "##錡": 1639,
    "unexpected": 13673,
    "##보": 1653,
    "cougars": 11669,
    "##ち": 1298,
    "RAF": 16238,
    "##ant": 1859,
    "##apers": 7681,
    "reapp": 18267,
    "Store": 16351,
    "##ò": 1364,
    "wore": 11443,
    "noise": 12685,
    "fib": 15173,
    "horsepower": 16985,
    "friends": 5364,
    "Individ": 15998,
    "lyrics": 4782,
    "gal": 7558,
    "##iami": 5212,
    "##ibr": 6012,
    "layout": 16517,
    "newspapers": 10572,
    "compensation": 18049,
    "th": 1744,
    "Tracy": 10180,
    "comparing": 14629,
    "Aber": 18110,
    "##ain": 1796,
    "##equ": 10902,
    "##yche": 19002,
    "ܬ": 383,
    "##éra": 14861,
    "##ually": 2406,
    "edge": 6070,
    "ranged": 19036,
    "digital": 7598,
    "##ologist": 5009,
    "wedding": 7660,
    "counter": 4806,
    "##ol": 1750,
    "##ference": 4407,
    "forecast": 19825,
    "##ods": 10780,
    "Port": 3078,
    "multiple": 6713,
    "provinces": 14939,
    "magical": 12515,
    "coincide": 17520,
    "grap": 12477,
    "teach": 8763,
    "##linger": 11069,
    "Tang": 13706,
    "chase": 14615,
    "##jection": 18235,
    "##pen": 2288,
    "Banai": 8360,
    "noticed": 17245,
    "storms": 9667,
    "Seb": 14824,
    "##craft": 3441,
    "##com": 7398,
    "Ferr": 13390,
    "त": 392,
    "##劇": 1546,
    "ふ": 623,
    "Room": 11734,
    "crusad": 14099,
    "KPA": 17631,
    "magic": 12912,
    "Leg": 5995,
    "1931": 8772,
    "Greece": 15713,
    "come": 4439,
    "Dah": 10348,
    "mm": 3440,
    "July": 2733,
    "Full": 12590,
    "Χ": 254,
    "##aud": 7501,
    "1940": 6123,
    "react": 4248,
    "18th": 5984,
    "178": 9567,
    "##ა": 1278,
    "brigade": 6331,
    "bl": 2264,
    "synt": 7110,
    "##ope": 2399,
    "##イ": 1219,
    "##der": 2472,
    "chain": 11190,
    "##ownt": 8980,
    "enlar": 12375,
    "appropri": 9227,
    "upstream": 16829,
    "##lamation": 17069,
    "releases": 10278,
    "Giã": 15059,
    "Venge": 17664,
    "fictionalized": 18502,
    "metall": 11490,
    "ident": 3652,
    "Crown": 7016,
    "retail": 12474,
    "##auc": 14302,
    "##azing": 12300,
    "137": 14665,
    "heaviest": 16946,
    "Díaz": 13681,
    "##全": 1610,
    "execution": 11395,
    "broader": 17891,
    "ス": 658,
    "##ating": 2197,
    "victories": 9489,
    "Eg": 11881,
    "commercial": 4090,
    "cycl": 4250,
    "my": 2925,
    "exclus": 7054,
    "situation": 5339,
    "Wik": 11008,
    "footballer": 18962,
    "##Q": 1117,
    "Bey": 4699,
    "pain": 4112,
    "##izations": 7074,
    "sacrifice": 17546,
    "Gerard": 8544,
    "山": 783,
    "Patt": 7605,
    "victim": 11663,
    "116": 11792,
    "similarities": 12715,
    "Hav": 14265,
    "Anti": 12334,
    "week": 2653,
    "joins": 14411,
    "1886": 16481,
    "##atter": 2966,
    "๊": 465,
    "thin": 8830,
    "Darden": 17110,
    "Woods": 16510,
    "##otypes": 15770,
    "pedest": 18550,
    "injured": 10079,
    "acres": 7358,
    "ring": 7254,
    "rice": 15186,
    "Fab": 18642,
    "arrang": 4719,
    "background": 5588,
    "Mumb": 17133,
    "ზ": 480,
    "B": 37,
    "##ited": 2061,
    "Disc": 8439,
    "Open": 5205,
    "Eth": 13965,
    "##onian": 12437,
    "hybrid": 18426,
    "flowers": 13313,
    "##建": 1317,
    "too": 3473,
    "recurring": 12094,
    "nightingale": 12926,
    "origins": 10944,
    "Kyra": 12385,
    "makes": 4682,
    "##oyage": 9736,
    "##ard": 1838,
    "follows": 6089,
    "##ず": 1537,
    "Flow": 13816,
    "demand": 9391,
    "##ine": 1880,
    "Group": 5762,
    "Alb": 9290,
    "watched": 7640,
    "##ม": 1443,
    "##ซ": 1563,
    "##side": 2730,
    "breast": 14677,
    "archaeology": 10833,
    "eighth": 8443,
    "ties": 14579,
    "substantial": 9517,
    "Lights": 19962,
    "##enic": 10630,
    "acts": 8764,
    "Bour": 12811,
    "protein": 5682,
    "Archaeology": 12374,
    "dign": 13993,
    "worked": 4006,
    "indic": 4621,
    "##well": 4726,
    "security": 6327,
    "lowest": 8928,
    "Glas": 14974,
    "hun": 6290,
    "##berry": 11192,
    "興": 920,
    "influ": 3215,
    "thirty": 8181,
    "Comedy": 12287,
    "collapsed": 10588,
    "feathers": 9897,
    "qualifying": 13370,
    "Singh": 12157,
    "Start": 13528,
    "mush": 7044,
    "Rescue": 19894,
    "perm": 17783,
    "##к": 1301,
    "here": 6499,
    "Veeru": 15103,
    "obsolete": 16462,
    "Kress": 19955,
    "AoT": 17606,
    "mark": 2911,
    "pr": 1872,
    "careers": 14951,
    "ḏ": 520,
    "vig": 12842,
    "Convention": 16006,
    "Sue": 19269,
    "Ry": 6469,
    "listen": 9388,
    "熱": 878,
    "Ú": 127,
    "Hyderabad": 18103,
    "##assing": 15237,
    "在": 757,
    "##ure": 1913,
    "mad": 14575,
    "writ": 2172,
    "constit": 5435,
    "safe": 10088,
    "Α": 247,
    "##AF": 4133,
    "##leg": 4604,
    "warm": 8341,
    "##iao": 9933,
    "Gael": 11003,
    "##ags": 11463,
    "predicted": 12332,
    "Los": 5376,
    "Sciences": 15993,
    "blood": 5361,
    "Cabo": 18003,
    "Discovery": 19094,
    "spaced": 16806,
    "around": 2571,
    "Mad": 3701,
    "suffered": 5121,
    "##season": 12876,
    "arrived": 4408,
    "##ifies": 8983,
    "street": 7137,
    "Í": 120,
    "controller": 11096,
    "improvements": 13136,
    "Tob": 13707,
    "##osely": 14605,
    "Gama": 19234,
    "##obia": 17797,
    "##ateg": 4323,
    "##ivid": 3554,
    "##usts": 10267,
    "economic": 6567,
    "dep": 2533,
    "ク": 651,
    "Nicholson": 14768,
    "can": 2135,
    "1940s": 9295,
    "Achie": 19217,
    "role": 2941,
    "##atic": 3223,
    "featured": 3838,
    "##方": 1238,
    "##angered": 15242,
    "Protein": 17529,
    "Yet": 14562,
    "unnamed": 11122,
    "##apt": 4240,
    "temple": 6367,
    "##ach": 1991,
    "green": 7030,
    "investment": 12346,
    "Aftermath": 13796,
    "unpre": 15726,
    "Hang": 13689,
    "Vatic": 19278,
    "##wards": 2596,
    "Khoo": 14994,
    "includ": 2019,
    "##arth": 9134,
    "differentiation": 19573,
    "knee": 13312,
    "overwhelming": 13427,
    "##й": 1167,
    "Glen": 15306,
    "##aman": 11176,
    "す": 608,
    "Yankovic": 8120,
    "cold": 8134,
    "overlook": 17012,
    "ye": 15523,
    "orders": 6369,
    "##aning": 16771,
    "taxes": 17936,
    "accusations": 16633,
    "track": 2812,
    "river": 3915,
    "¥": 102,
    "scholar": 8306,
    "Dr": 3929,
    "##uru": 13747,
    "Monument": 14425,
    "##mother": 18218,
    "Augustus": 18357,
    "forgotten": 19137,
    "life": 2607,
    "##lines": 6830,
    "listing": 9575,
    "さ": 606,
    "##theless": 8272,
    "Colombia": 17067,
    "Di": 7909,
    "Briggs": 10797,
    "Late": 8810,
    "mirr": 19787,
    "differ": 2759,
    "radiation": 9767,
    "Jun": 8130,
    "Gil": 7709,
    "##isis": 8747,
    "inherited": 16594,
    "Simpsons": 8230,
    "supern": 10191,
    "172": 13101,
    "if": 2802,
    "Arr": 14906,
    "persp": 8705,
    "predomin": 9494,
    "##regular": 11359,
    "bigg": 8510,
    "desper": 13089,
    "Connie": 15717,
    "Φ": 253,
    "players": 3436,
    "##stein": 4423,
    "Democrat": 18468,
    "unit": 5190,
    "sol": 3015,
    "Cavalry": 16216,
    "θ": 266,
    "pronounced": 18563,
    "embro": 18441,
    "remote": 14641,
    "Card": 4183,
    "##estion": 12252,
    "Erik": 16674,
    "“": 563,
    "Wing": 9912,
    "flow": 6589,
    "we": 2062,
    "2011": 3073,
    "happy": 8591,
    "If": 4810,
    "主": 704,
    "Brand": 14648,
    "##SU": 14304,
    "##atures": 8203,
    "Import": 11521,
    "beating": 11457,
    "##és": 15536,
    "unst": 11932,
    "Montenegro": 18580,
    "abolished": 16164,
    "##aying": 3179,
    "di": 4435,
    "##oked": 8606,
    "Rhode": 13394,
    "bed": 9339,
    "slaves": 14393,
    "153": 14653,
    "→": 579,
    "immigrants": 13180,
    "AA": 11576,
    "Wint": 18165,
    "thereby": 14649,
    "qualities": 18431,
    "attitudes": 18829,
    "##itive": 3385,
    "twenty": 5771,
    "offspring": 19118,
    "ǎ": 206,
    "refused": 5540,
    "enterprise": 19580,
    "accessible": 15681,
    "##etter": 17748,
    "pneumonia": 19892,
    "combat": 5772,
    "Qin": 16696,
    "bite": 15168,
    "Paras": 18885,
    "Condoms": 18036,
    "##grim": 14700,
    "à": 131,
    "deck": 9146,
    "Eleph": 18565,
    "Hairan": 14229,
    "##ּ": 1496,
    "answer": 13653,
    "Flight": 8924,
    "Old": 3177,
    "##rac": 9055,
    "chicks": 11191,
    "##д": 1332,
    "hum": 2816,
    "delays": 14958,
    "Reg": 3328,
    "##etta": 14981,
    "##aki": 10154,
    "See": 10073,
    "vot": 4841,
    "Sn": 9336,
    "linked": 8793,
    "Raffles": 9189,
    "Edinburgh": 17591,
    "##ij": 6115,
    "hills": 11742,
    "Guybrush": 16582,
    "##aphore": 16070,
    "##其": 1646,
    "per": 1961,
    "##aded": 5110,
    "shaped": 6918,
    "easy": 9915,
    "stored": 16330,
    "Penn": 4454,
    "##actor": 19473,
    "Too": 18153,
    "##achment": 13088,
    "##l": 1032,
    "significantly": 6707,
    "visions": 18894,
    "##ź": 1658,
    "legislative": 16542,
    "Wak": 19999,
    "beaten": 12357,
    "tot": 3034,
    "##hing": 3819,
    "261": 12136,
    "danc": 14566,
    "demolition": 17030,
    "Shiva": 5587,
    "playoff": 9842,
    "1918": 6928,
    "Critics": 11379,
    "##ork": 1938,
    "Rockef": 12333,
    "experiment": 7999,
    "cooler": 15057,
    "##isive": 14020,
    "reddish": 18369,
    "titles": 5675,
    "farming": 13623,
    "Ving": 19276,
    "Activision": 7949,
    "##ika": 15591,
    "##itions": 2798,
    "Zealand": 4367,
    "Branch": 9472,
    "##ider": 6583,
    "##pled": 10528,
    "reasoning": 15327,
    "##arrow": 5492,
    "##imes": 2445,
    "reinc": 16332,
    "destruct": 16451,
    "Loss": 19248,
    "pistol": 11902,
    "arise": 19448,
    "Period": 14409,
    "pocket": 19858,
    "##usade": 13517,
    "##usiliers": 16204,
    "##-": 1064,
    "constructed": 4697,
    "undert": 7354,
    "prose": 15926,
    "trigg": 18290,
    "##aise": 5688,
    "(": 11,
    "##inners": 11334,
    "Lords": 8191,
    "stick": 12867,
    "##acea": 15592,
    "generating": 18878,
    "##iences": 6987,
    "##inosaur": 7612,
    "ess": 5447,
    "world": 2726,
    "lake": 9917,
    "lifetime": 11690,
    "Britain": 4276,
    "exact": 7619,
    "observes": 17414,
    "Conc": 8771,
    "estab": 2801,
    "##jects": 4101,
    "Tra": 7166,
    "龍": 997,
    "##inted": 11760,
    "##amped": 15247,
    "dissolved": 18965,
    "bordering": 19108,
    "allowed": 3968,
    "Bishop": 7329,
    "fun": 3383,
    "sweet": 12058,
    "Described": 19581,
    "##瘡": 1374,
    "Centre": 11353,
    "##ace": 2031,
    "Ω": 255,
    "87": 7664,
    "##music": 14309,
    "sel": 3783,
    "suite": 17233,
    "br": 2389,
    "##wright": 19354,
    "free": 4003,
    "Gryllotal": 18588,
    "carefully": 16438,
    "accept": 3859,
    "##hell": 16765,
    "plateau": 15931,
    "suicide": 11189,
    "##oplasm": 12791,
    "Harmonix": 17567,
    "##essing": 7679,
    "1869": 18429,
    "Hangzhou": 16634,
    "pamp": 18718,
    "inhab": 10703,
    "answ": 8903,
    "ჟ": 489,
    "Austro": 12696,
    "##aren": 13503,
    "Legacy": 9989,
    "##LC": 15198,
    "rear": 5780,
    "commissioning": 17920,
    "Honduras": 18090,
    "bank": 6684,
    "##aments": 8147,
    "Engine": 5767,
    "pap": 10243,
    "photos": 19011,
    "smoke": 12490,
    "##town": 12234,
    "##asted": 12880,
    "##ream": 3313,
    "##anyon": 10397,
    "ambition": 17918,
    "##DH": 9280,
    "zones": 13487,
    "Comp": 3017,
    "##ensis": 8398,
    "##lands": 4899,
    "nothing": 7141,
    "overl": 6922,
    "chancel": 15434,
    "Seal": 18676,
    "Eno": 14977,
    "bold": 13036,
    "##odes": 3797,
    "Sheffield": 10468,
    "化": 735,
    "sized": 11750,
    "Xenon": 10364,
    "##echn": 3207,
    "拳": 816,
    "α": 260,
    "##ximately": 4255,
    "##atra": 13263,
    "##ategy": 9834,
    "Indies": 13801,
    "scope": 14056,
    "rise": 6763,
    "southern": 3615,
    "Training": 16865,
    "efficient": 16868,
    "changed": 4851,
    "##opl": 9643,
    "reform": 6772,
    "Hand": 14264,
    "obligation": 19102,
    "ō": 185,
    "intellect": 9979,
    "medical": 6964,
    "##issartensis": 18083,
    "Bread": 19919,
    "desc": 2337,
    "rumours": 17041,
    "teammates": 17821,
    "Beer": 15630,
    "Fine": 15812,
    "ear": 2102,
    "imm": 4451,
    "questioned": 11844,
    "Le": 2318,
    "##isd": 14867,
    "hazard": 18095,
    "guilt": 16875,
    "Salv": 16522,
    "Venezuel": 18624,
    "nude": 18713,
    "manufacturing": 12963,
    "manoeuv": 16207,
    "Pole": 12045,
    "Richard": 4096,
    "##mediate": 12528,
    "brood": 15617,
    "Gw": 11723,
    "poll": 8594,
    "##auna": 18403,
    "1910": 8692,
    "##ev": 2080,
    "##景": 1218,
    "พ": 440,
    "characters": 3512,
    "##ֶ": 1401,
    "break": 4232,
    "enc": 3580,
    "donated": 11369,
    "##ro": 1753,
    "daughters": 11094,
    "Panama": 19760,
    "YouTube": 11223,
    "##L": 1083,
    "##殻": 1212,
    "arc": 6879,
    "##ASA": 9598,
    "anime": 11185,
    "Moritz": 14120,
    "##usband": 4941,
    "##ift": 5432,
    "ruins": 14202,
    "issuing": 15636,
    "Bobby": 13885,
    "Wins": 17667,
    "20": 1815,
    "considered": 2978,
    "albums": 6121,
    "##istically": 17231,
    "##η": 1252,
    "Thirty": 18069,
    "Nol": 17641,
    "##kes": 12236,
    "Stay": 15574,
    "slope": 16002,
    "##園": 1202,
    "poly": 6548,
    "typically": 5595,
    "modeled": 18480,
    "##ury": 2180,
    "father": 3384,
    "##asks": 11173,
    "incumbent": 17586,
    "Ancient": 10584,
    "Magdal": 9861,
    "ハ": 674,
    "##ormal": 11625,
    "##ulator": 14038,
    "battalions": 7414,
    "##arnation": 13854,
    "##oe": 7561,
    "tar": 4953,
    "ฮ": 452,
    "No": 2968,
    "##ings": 2059,
    "⅔": 578,
    "screening": 17417,
    "ten": 3408,
    "failures": 18459,
    "##hot": 18731,
    "pleasure": 10971,
    "guest": 6704,
    "Ted": 15161,
    "Jane": 5139,
    "concerns": 8304,
    "statute": 15642,
    "SU": 19267,
    "reven": 10167,
    "##ტ": 1154,
    "##ely": 1978,
    "Ⴈ": 470,
    "presented": 5151,
    "Chopin": 15432,
    "marriage": 5083,
    "TV": 4516,
    "monitor": 17810,
    "##ܝ": 1681,
    "##erver": 12854,
    "##ged": 2993,
    "Xbox": 13034,
    "Swan": 18939,
    "qualified": 11522,
    "promises": 19560,
    "##ogle": 15233,
    "com": 1811,
    "1865": 13600,
    "copyright": 19621,
    "##isto": 17759,
    "Peter": 4401,
    "##ilation": 9456,
    "Gaelic": 11268,
    "Cant": 10474,
    "Park": 3165,
    "Kits": 18653,
    "##umbered": 13384,
    "lobster": 18528,
    "crossing": 8933,
    "れ": 635,
    "അ": 422,
    "Ishmael": 17602,
    "##over": 2021,
    "capturing": 11810,
    "ậ": 535,
    "bass": 6982,
    "##atum": 10765,
    "imagery": 12766,
    "liked": 10299,
    "row": 10892,
    "##ann": 2215,
    "deploy": 6266,
    "venues": 10578,
    "ó": 150,
    "##ells": 4990,
    "ぎ": 600,
    "organised": 10552,
    "northwestern": 15620,
    "##ucts": 18309,
    "enters": 10158,
    "barriers": 18934,
    "##г": 1363,
    "Adult": 14948,
    "Ímar": 13256,
    "Barnes": 14685,
    "tailed": 8821,
    "Colomb": 12501,
    "Agreement": 16496,
    "##kin": 6797,
    "##Oct": 16746,
    "eval": 13090,
    "ჸ": 514,
    "##pread": 7294,
    "##uther": 11617,
    "reduction": 11067,
    "Luis": 16118,
    "scientists": 9986,
    "Pagan": 12046,
    "##othic": 13789,
    "Athlet": 6785,
    "##outhern": 3136,
    "shipped": 15934,
    "##iders": 8521,
    "ton": 7392,
    "command": 2881,
    "Six": 5179,
    "Covenant": 18570,
    "something": 5266,
    "inacc": 15204,
    "##idel": 10511,
    "##mns": 18219,
    "##贵": 1299,
    "making": 3259,
    "prey": 7932,
    "acycl": 11051,
    "##ş": 1081,
    "Edith": 17867,
    "eagle": 13717,
    "Canada": 4136,
    "cred": 4838,
    "segment": 10853,
    "dish": 15858,
    "infant": 18399,
    "##ching": 4218,
    "##uarius": 19344,
    "notable": 6954,
    "##ography": 3706,
    "Gaz": 19944,
    "白": 897,
    "incorrect": 15692,
    "##iblical": 12395,
    "defence": 6304,
    "comprehens": 12469,
    "19": 1797,
    "change": 4197,
    "##utch": 5515,
    "12": 2277,
    "λ": 269,
    "„": 565,
    "samples": 14210,
    "Domoina": 16136,
    "##祈": 1452,
    "replied": 11964,
    "Hobbs": 12193,
    "##asting": 13530,
    "Merri": 14715,
    "mit": 12833,
    "Pleasure": 15405,
    "Kab": 15476,
    "tim": 6472,
    "Palestinian": 11851,
    "*": 13,
    "##春": 1368,
    "1935": 8773,
    "bankrupt": 17972,
    "Places": 12121,
    "Iss": 18132,
    "Central": 4864,
    "##owa": 10384,
    "##gen": 4692,
    "platform": 7190,
    "棘": 847,
    "USD": 9155,
    "Strapping": 13288,
    "corner": 9983,
    "##zac": 9279,
    "tourist": 11080,
    "80s": 15456,
    "Kir": 6467,
    "matrix": 17316,
    "狐": 880,
    "1769": 17021,
    "##marcach": 16476,
    "89": 8314,
    "Germans": 8800,
    "terms": 5069,
    "Register": 10957,
    "子": 769,
    "Cov": 12400,
    "Kaimanawa": 14522,
    "Kumar": 17569,
    "Organ": 8167,
    "Thomp": 13779,
    "principally": 19784,
    "camp": 2746,
    "inland": 8452,
    "subsequ": 3903,
    "relevant": 15121,
    "bring": 4978,
    "–": 558,
    "bohem": 17879,
    "airports": 12492,
    "History": 4410,
    "##泣": 1589,
    "doub": 6158,
    "sexually": 14130,
    "fixtures": 17459,
    "Ha": 3211,
    "##raction": 14131,
    "Antonio": 12982,
    "legitimate": 19144,
    "flies": 11941,
    "award": 3657,
    "##isher": 5330,
    "ste": 3828,
    "honours": 13599,
    "##chan": 15562,
    "##命": 1381,
    "religious": 4259,
    "rul": 4027,
    "Prog": 9156,
    "​": 555,
    "Robert": 3733,
    "true": 5495,
    "probably": 4377,
    "Gary": 9434,
    "##ovil": 13526,
    "turrets": 10211,
    "introd": 3351,
    "Ż": 200,
    "##つ": 1107,
    "##rent": 15529,
    "##ellers": 14619,
    "medic": 16446,
    "Ethiop": 19837,
    "university": 5584,
    "贵": 947,
    "notice": 10786,
    "carried": 4903,
    "Novak": 16437,
    "cel": 4391,
    "campus": 6454,
    "realism": 16895,
    "##vet": 17716,
    "kilometers": 11840,
    "##idity": 18778,
    "##h": 1017,
    "ballad": 11514,
    "Olymp": 4465,
    "inscription": 9884,
    "persisted": 13861,
    "ό": 283,
    "Nav": 10233,
    "truck": 15938,
    "##erog": 8516,
    "##iot": 6264,
    "repor": 12080,
    "Viscount": 15797,
    "Vic": 10489,
    "favoured": 16543,
    "Dram": 11278,
    "Persian": 9889,
    "Mid": 7858,
    "##elope": 14325,
    "zombies": 17064,
    "Blacks": 13350,
    "Sir": 5377,
    "vertex": 11567,
    "superfic": 16474,
    "headed": 7468,
    "cylind": 19841,
    "time": 2039,
    "former": 3036,
    "##ר": 1628,
    "Zrí": 15497,
    "exha": 8755,
    "##osts": 12460,
    "Pear": 14275,
    "1900": 8330,
    "181": 5744,
    "―": 560,
    "currently": 6810,
    "##ש": 1567,
    "##R": 1059,
    "##annon": 17286,
    "Ira": 9617,
    "drained": 19548,
    "hal": 2898,
    "##here": 3601,
    "prevent": 5153,
    "Ford": 12589,
    "##wa": 14016,
    "##NS": 17733,
    "Polit": 10558,
    "129": 12686,
    "population": 3308,
    "breaks": 12534,
    "ward": 12061,
    "recre": 8458,
    "##krit": 10625,
    "##aged": 2698,
    "III": 4398,
    "Court": 5661,
    "Clement": 14249,
    "fort": 3936,
    "##astrous": 18806,
    "dis": 1983,
    "banks": 11431,
    "Bri": 6902,
    "##akapo": 5494,
    "##win": 7104,
    "Navar": 12196,
    "alleged": 9928,
    "confused": 13830,
    "Gandhi": 15796,
    "Campus": 16074,
    "cur": 5103,
    "##olver": 13510,
    "watches": 17371,
    "evolution": 11473,
    "asks": 10512,
    "7": 26,
    "Murray": 10222,
    "##rink": 19335,
    "massacre": 19610,
    "discover": 3538,
    "seventh": 6754,
    "deaths": 7080,
    "##ɳ": 1662,
    "display": 5455,
    "##raits": 12657,
    "ʾ": 236,
    "achieve": 9677,
    "navig": 15749,
    "impossible": 9478,
    "obtain": 11645,
    "შ": 498,
    "##eapolis": 17715,
    "platinum": 11622,
    "int": 1911,
    "##ips": 6736,
    "newer": 17277,
    "##運": 1380,
    "stead": 8672,
    "credits": 11534,
    "Disney": 16545,
    "##付": 1309,
    "Dead": 12033,
    "ty": 9812,
    "ī": 177,
    "Eur": 2655,
    "distinction": 16861,
    "Representatives": 17074,
    "cycle": 8782,
    "古": 740,
    "neighborhood": 11126,
    "suspect": 15359,
    "Ca": 6856,
    "##ew": 1827,
    "fusion": 11010,
    "inf": 3189,
    "##lymp": 4457,
    "##州": 1106,
    "Iraq": 10109,
    "XIII": 11718,
    "##itzer": 9405,
    "##規": 1709,
    "##ands": 4413,
    "excavation": 9780,
    "Eguchi": 16180,
    "contracting": 18961,
    "rounds": 10563,
    "ܠ": 381,
    "mistaken": 14185,
    "Hend": 13778,
    "interact": 5414,
    "Sons": 18148,
    "##oes": 4842,
    "##agement": 6509,
    "##enty": 4539,
    "188": 3779,
    "Meth": 14818,
    "agreeing": 19751,
    "##inary": 6083,
    "associations": 15654,
    "element": 6457,
    "Divisions": 18532,
    "2010": 2908,
    "cheek": 19624,
    "allegedly": 19770,
    "dyn": 5736,
    "琪": 890,
    "ph": 2796,
    "1951": 8102,
    "nec": 4013,
    "vit": 18727,
    "lawyers": 18410,
    "##amy": 6992,
    "PopMatters": 17557,
    "burn": 3862,
    "wild": 5921,
    "হ": 413,
    "##ong": 1829,
    "finding": 6966,
    "##ela": 7037,
    "delivery": 10449,
    "##BS": 7258,
    "Meri": 16508,
    "ご": 605,
    "##nyi": 12163,
    "must": 4099,
    "tall": 7202,
    "opposed": 6458,
    "250": 7637,
    "##aled": 9455,
    "boys": 10885,
    "##id": 1762,
    "submer": 16390,
    "##ひ": 1657,
    "portrayed": 7899,
    "prompt": 10672,
    "married": 5013,
    "sou": 19320,
    "ค": 428,
    "##ons": 2119,
    "本": 838,
    "Battalion": 3723,
    "##ival": 2930,
    "##mon": 6224,
    "Almost": 11628,
    "建": 796,
    "ṯ": 530,
    "website": 6254,
    "##overed": 13539,
    "Kenn": 7388,
    "Ecc": 10869,
    "explosive": 14199,
    "improv": 14989,
    "ジ": 657,
    "Rivers": 11290,
    "##ments": 2458,
    "つ": 615,
    "Don": 4260,
    "Ket": 14546,
    "1840": 15338,
    "revolt": 18330,
    "##aving": 2639,
    "##kins": 6914,
    "##alled": 4989,
    "15th": 9294,
    "quarterback": 10304,
    "American": 2462,
    "##狐": 1408,
    "##renadier": 18366,
    "taxa": 19017,
    ".": 17,
    "excess": 9393,
    "##ccess": 2457,
    "##о": 1227,
    "coal": 7004,
    "easily": 8576,
    "##დ": 1502,
    "laps": 18706,
    "54": 6465,
    "social": 4290,
    "1920s": 9085,
    "##bury": 5142,
    "##ruction": 2912,
    "Kid": 15146,
    "congregation": 15756,
    "R": 53,
    "al": 1788,
    "sens": 6220,
    "dies": 10616,
    "Lowland": 15732,
    "photograph": 10444,
    "Gr": 2708,
    "##illes": 12872,
    "##ylogen": 12900,
    "exterior": 13766,
    "Orchestra": 17855,
    "##雲": 1113,
    "again": 2146,
    "These": 3292,
    "##BA": 5670,
    "##astic": 5831,
    "desperate": 16631,
    "Ach": 15129,
    "trans": 2330,
    "archer": 15582,
    "Mulder": 9693,
    "##ge": 1882,
    "Command": 5091,
    "medium": 8619,
    "agreements": 18942,
    "imperial": 12274,
    "##osl": 8902,
    "Ir": 3685,
    "##rice": 13781,
    "salt": 15519,
    "##innati": 17820,
    "conv": 2876,
    "religions": 19602,
    "##雪": 1308,
    "願": 992,
    "hamlet": 12767,
    "Fantasy": 7600,
    "##ad": 1749,
    "94": 7056,
    "tawny": 13253,
    "Paraly": 9952,
    "Gao": 13969,
    "spoken": 14350,
    "Chapter": 15714,
    "Beltline": 17544,
    "Sox": 12220,
    "##olate": 18259,
    "##cles": 18225,
    "progressive": 16962,
    "Glob": 10074,
    "Observ": 9106,
    "##estone": 7263,
    "##isi": 17739,
    "3rd": 5502,
    "##წ": 1485,
    "Technology": 13183,
    "item": 13077,
    "Regiment": 4496,
    "##ilt": 2651,
    "28th": 18923,
    "##絵": 1146,
    "McC": 3987,
    "Sea": 5521,
    "papal": 16161,
    "Can": 2749,
    "motor": 7950,
    "##iple": 5358,
    "intellectual": 10465,
    "nob": 8139,
    "Compet": 17338,
    "heavily": 5442,
    "Shell": 11793,
    "Ōzora": 17180,
    "Attack": 13389,
    "##sh": 2979,
    "Australians": 7783,
    "rats": 19319,
    "##road": 5607,
    "##pent": 8890,
    "Alf": 6958,
    "ment": 17169,
    "ള": 423,
    "Gaming": 19235,
    "##rab": 7676,
    "battleship": 12965,
    "reached": 3314,
    "Harrison": 10478,
    "##known": 6343,
    "Ojib": 14523,
    "Vancouver": 18159,
    "##can": 6505,
    "screenwrit": 18993,
    "autom": 9594,
    "Nottingham": 17092,
    "visual": 6456,
    "pictures": 12172,
    "redesign": 13672,
    "##ity": 1850,
    "column": 6700,
    "Cr": 3438,
    "in": 1728,
    "Lar": 5714,
    "##osomal": 16789,
    "magazines": 10294,
    "Finally": 12365,
    "grasses": 13163,
    "Numerous": 19900,
    "basal": 18326,
    "museum": 6235,
    "##isy": 6769,
    "sister": 5778,
    "##den": 4395,
    "##uda": 8392,
    "##ogram": 11774,
    "hyp": 7437,
    "##ぐ": 1554,
    "Commandos": 12750,
    "##stal": 11766,
    "Youth": 10881,
    "accident": 7303,
    "lighter": 15180,
    "ceased": 12831,
    "forward": 4403,
    "archipelago": 14964,
    "Bach": 13685,
    "Anders": 17847,
    "##GA": 16295,
    "mobil": 17006,
    "Alliance": 19543,
    "computer": 6881,
    "devot": 6486,
    "##icide": 9060,
    "Raghuveer": 16622,
    "poin": 2586,
    "decreasing": 17017,
    "##illon": 15222,
    "159": 15613,
    "heavier": 11680,
    "neither": 7411,
    "Flying": 14261,
    "moderately": 16566,
    "XeF": 16584,
    "venue": 12366,
    "angular": 17440,
    "spor": 14349,
    "facilitated": 18046,
    "翠": 913,
    "170": 10281,
    "parall": 6846,
    "Ire": 3317,
    "determ": 4308,
    "interaction": 9599,
    "anim": 3665,
    "Parvati": 9386,
    "junior": 10989,
    "Pictish": 18016,
    "##ple": 2901,
    "Geor": 3153,
    "ド": 669,
    "brother": 4231,
    "maxim": 18475,
    "Expl": 12918,
    "Rep": 3883,
    "##ections": 4256,
    "complained": 14934,
    "Brenda": 12356,
    "Du": 3775,
    "##char": 11462,
    "##employ": 14877,
    "upd": 7933,
    "Cham": 16810,
    "Joint": 12037,
    "echo": 14512,
    "scored": 3555,
    "yards": 3946,
    "fortune": 16488,
    "##क": 1548,
    "来": 843,
    "##FA": 5630,
    "Fountain": 14260,
    "อ": 451,
    "Kann": 9117,
    "##aval": 4414,
    "Dublin": 7124,
    "Major": 5326,
    "connects": 13359,
    "##ashed": 9217,
    "cup": 10128,
    "uncertainty": 18033,
    "rab": 19317,
    "Due": 6432,
    "Bark": 8805,
    "Haitians": 17945,
    "##lake": 18746,
    "Al": 1968,
    "49": 5864,
    "##oso": 13280,
    "Mario": 6959,
    "Metallica": 16198,
    "woodland": 14145,
    "##leroderm": 14686,
    "##hend": 16764,
    "adv": 2563,
    "##istry": 6197,
    "Report": 16907,
    "Traff": 13408,
    "established": 3300,
    "perfectly": 12970,
    "mechanical": 10577,
    "##ahu": 16413,
    "elev": 5676,
    "Form": 4809,
    "##veer": 16411,
    "Alonso": 17258,
    "##cairn": 15537,
    "##ittle": 3141,
    "Carty": 14780,
    "naked": 12836,
    "Cry": 12401,
    "Chay": 18293,
    "threats": 12532,
    "립": 1001,
    "battles": 6309,
    "mg": 13043,
    "Albion": 15399,
    "Gross": 13217,
    "##specially": 4339,
    "##āda": 6814,
    "tributaries": 12570,
    "test": 4667,
    "commented": 4967,
    "##helm": 5952,
    "supreme": 13192,
    "ỗ": 542,
    "access": 4831,
    "Rad": 5349,
    "strip": 9010,
    "##llotal": 15616,
    "creative": 10687,
    "##insula": 6844,
    "##thren": 11921,
    "11": 2365,
    "countries": 5388,
    "##essions": 5557,
    "##宝": 1357,
    "Prime": 8290,
    "equally": 15304,
    "145": 16011,
    "Quarter": 17091,
    "possessions": 15631,
    "Ky": 10007,
    "editor": 7469,
    "sto": 18264,
    "staple": 17540,
    "Ulysses": 7286,
    "##vert": 4024,
    "phenomen": 11408,
    "extensive": 6962,
    "forms": 4847,
    "Ishm": 17308,
    "shield": 12457,
    "##lo": 4976,
    "##rict": 3822,
    "##changes": 19104,
    "charity": 10275,
    "Method": 17086,
    "reminisc": 13310,
    "##hern": 3175,
    "##bl": 6192,
    "Des": 3170,
    "boilers": 16188,
    "##outh": 2136,
    "##oph": 4329,
    "cataly": 15305,
    "##Tube": 11170,
    "comments": 8982,
    "AN": 13210,
    "wind": 3023,
    "##abit": 4123,
    "##odium": 12083,
    "2007": 2977,
    "##imented": 10640,
    "police": 4531,
    "Cheval": 10086,
    "##acritic": 15447,
    "##ɜ": 1194,
    "알": 1005,
    "##ug": 2124,
    "disorder": 14630,
    "sung": 9719,
    "shark": 8393,
    "##wall": 12629,
    "you": 2477,
    "FI": 4582,
    "Guinness": 13335,
    "57th": 17468,
    "Gang": 8014,
    "Crane": 17881,
    "Moors": 17900,
    "Tak": 12051,
    "imprisonment": 15404,
    "legisl": 6128,
    "discipl": 18876,
    "gym": 19300,
    "absent": 16501,
    "##n": 1019,
    "differences": 9851,
    "##iron": 5430,
    "spore": 12654,
    "revision": 18852,
    "models": 9571,
    "Basket": 17928,
    "RNA": 13702,
    "beta": 15248,
    "convinced": 9792,
    "dubious": 17023,
    "resignation": 15090,
    "units": 4135,
    "##ously": 4760,
    "##lessness": 16050,
    "##MS": 5450,
    "tendency": 19730,
    "##renched": 16876,
    "Lead": 12898,
    "##ვ": 1279,
    "concepts": 12177,
    "deity": 10046,
    "85": 7023,
    "turb": 9540,
    "All": 2603,
    "##ighth": 6510,
    "##hens": 4037,
    "Glorious": 19596,
    "##zhou": 10249,
    "cathedral": 5070,
    "Spring": 8252,
    "Grade": 10414,
    "threatening": 15330,
    "Lov": 18656,
    "Creutz": 12000,
    "tox": 10910,
    "×": 125,
    "Sic": 13703,
    "##ounted": 14635,
    "animals": 6930,
    "metre": 10541,
    "##blazer": 11695,
    "Ann": 5702,
    "##ogy": 10392,
    "touch": 4448,
    "strikes": 19718,
    "Reagan": 12138,
    "##na": 3479,
    "synonym": 15360,
    "effect": 4080,
    "Harv": 11820,
    "throwing": 8945,
    "Benn": 9331,
    "##ฐ": 1620,
    "sl": 2520,
    "Born": 11415,
    "truly": 12804,
    "##ɾ": 1074,
    "condem": 9849,
    "##admium": 5323,
    "##anne": 15261,
    "Gladstone": 13202,
    "##ospital": 4792,
    "##英": 1224,
    "Valkyria": 10000,
    "##ooter": 16917,
    "Coun": 4464,
    "##row": 2303,
    "Hamels": 6207,
    "Over": 4723,
    "Aval": 15457,
    "##icular": 15906,
    "force": 3474,
    "##AS": 4843,
    "Phys": 14820,
    "tasked": 11855,
    "seats": 11467,
    "phil": 6242,
    "Napoleon": 14243,
    "Philippines": 15105,
    "Cruise": 14490,
    "guitarist": 14151,
    "intelligent": 14174,
    "Vist": 12611,
    "torn": 12617,
    "cop": 3940,
    "##ick": 2104,
    "##rate": 4597,
    "##rence": 8667,
    "exactly": 11399,
    "Paralympics": 15099,
    "mycel": 16599,
    "sends": 17474,
    "ǔ": 207,
    "##cc": 1901,
    "##etic": 4345,
    "mix": 3453,
    "depictions": 16129,
    "邱": 961,
    "authored": 16021,
    "##ifying": 6801,
    "##iel": 15194,
    "Celt": 9525,
    "resembling": 17969,
    "1860s": 16485,
    "pushing": 12229,
    "##esh": 4787,
    "Nap": 8260,
    "similarly": 11348,
    "eS": 19293,
    "##pression": 3422,
    "ص": 366,
    "pretty": 10931,
    "Associ": 4444,
    "Parliament": 4659,
    "##orological": 10142,
    "Louisiana": 10846,
    "Rav": 11289,
    "Susquehanna": 15446,
    "##oto": 10383,
    "Egyptian": 6426,
    "Award": 4514,
    "##ba": 9127,
    "##isions": 4684,
    "legacy": 12322,
    "tape": 12841,
    "}": 95,
    "Rose": 4565,
    "2nd": 4783,
    "directing": 12902,
    "mast": 15512,
    "trilogy": 17247,
    "1990": 5698,
    "Þ": 129,
    "##ally": 1879,
    "throughout": 3331,
    "drove": 10698,
    "Besides": 17543,
    "##star": 10633,
    "shifting": 19096,
    "hang": 8967,
    "Come": 11721,
    "rank": 3569,
    "##usion": 4138,
    "obs": 3228,
    "stopped": 7535,
    "藥": 928,
    "Wood": 4600,
    "old": 2776,
    "tracked": 12318,
    "broadcasts": 17559,
    "McM": 11499,
    "##lesiastical": 17590,
    "Rab": 18674,
    "Match": 16983,
    "hon": 3850,
    "MI": 13975,
    "illegal": 10988,
    "Chapel": 9991,
    "Gut": 17621,
    "cr": 2806,
    "think": 4067,
    "Conv": 17318,
    "##rained": 15530,
    "intr": 12264,
    "cov": 15855,
    "super": 3583,
    "##ampions": 3070,
    "耕": 915,
    "Op": 6379,
    "hem": 8885,
    "realized": 10418,
    "credit": 11533,
    "ecc": 12224,
    "Inocy": 19420,
    "Τ": 252,
    "SM": 19984,
    "##rin": 6911,
    "Magad": 9966,
    "Cardiff": 6528,
    "Music": 3645,
    "bodies": 5234,
    "defending": 9941,
    "##ht": 11164,
    "##rypton": 15585,
    "never": 3260,
    "dense": 11432,
    "##焼": 1378,
    "Restigouche": 19762,
    "Border": 16663,
    "battlecru": 10412,
    "heading": 13331,
    "screened": 12943,
    "##onymous": 5796,
    "alph": 10517,
    "##apter": 14608,
    "##osa": 7262,
    "Isab": 7078,
    "1921": 8927,
    "Despite": 4115,
    "Lithuan": 14217,
    "##GB": 19367,
    "Metropolitan": 14723,
    "kills": 10673,
    "Network": 9789,
    "engineering": 8559,
    "##egu": 17798,
    "My": 3788,
    "giving": 5130,
    "##sky": 13730,
    "Gate": 9803,
    "##oint": 5334,
    "captain": 7117,
    "subspecies": 9370,
    "structural": 10684,
    "Heb": 11933,
    "stiff": 15213,
    "130": 6552,
    "Aw": 13446,
    "lumber": 11745,
    "nomin": 4059,
    "##ulations": 5472,
    "ศ": 447,
    "surroundings": 19641,
    "Gay": 17620,
    "DS": 11276,
    "Boat": 13866,
    "##eng": 2505,
    "start": 2588,
    "##igation": 7678,
    "theater": 10038,
    "Aman": 10343,
    "Supreme": 10718,
    "mixture": 9493,
    "holiday": 9782,
    "य": 398,
    "blog": 17293,
    "##am": 1746,
    "38": 4477,
    "oper": 2484,
    "hyper": 16056,
    "counteratt": 13612,
    "range": 3454,
    "rain": 4357,
    "Row": 7194,
    "##ass": 1939,
    "Korean": 9024,
    "½": 112,
    "##cent": 3951,
    "foraging": 17217,
    "rejoined": 19769,
    "singer": 5477,
    "awards": 6612,
    "rept": 16785,
    "Cou": 15459,
    "Islands": 8784,
    "representatives": 11821,
    "hired": 7198,
    "exhaust": 13424,
    "##edom": 8384,
    "percentage": 11095,
    "prest": 12459,
    "##ifa": 4578,
    "cong": 7729,
    "sudden": 8184,
    "declines": 18414,
    "Present": 14428,
    "factors": 9394,
    "chrom": 10522,
    "集": 985,
    "##wood": 3875,
    "Parker": 13573,
    "Cross": 5098,
    "refusal": 19576,
    "businessman": 17401,
    "Eight": 11002,
    "stars": 3563,
    "##th": 1779,
    "ʋ": 229,
    "##oints": 11633,
    "service": 3781,
    "private": 4912,
    "From": 3892,
    "##ander": 3897,
    "court": 4142,
    "##タ": 1221,
    "##rot": 7135,
    "escort": 9093,
    "iT": 16260,
    "##う": 1512,
    "Ts": 7962,
    "Portland": 16901,
    "abstract": 18585,
    "Dim": 18636,
    "##ailing": 13784,
    "understanding": 9318,
    "##式": 1289,
    "##ocent": 12257,
    "ر": 363,
    "ov": 14843,
    "##spec": 3799,
    "Navy": 4424,
    "ิ": 456,
    "rule": 5394,
    "secret": 5360,
    "##ș": 1445,
    "##gal": 14017,
    "legislature": 15044,
    "ode": 16117,
    "fingers": 16645,
    "mason": 15513,
    "decent": 15978,
    "surrounding": 6046,
    "##ォ": 1370,
    "##ค": 1196,
    "inside": 5355,
    "##agas": 9552,
    "planned": 5124,
    "completely": 5498,
    "##acle": 8976,
    "exercised": 15068,
    "stanza": 15214,
    "pregn": 7732,
    "##ination": 3330,
    "##oken": 11194,
    "harbour": 11539,
    "Adri": 12704,
    "sitcom": 16039,
    "enduring": 17800,
    "Dante": 19226,
    "stalk": 13516,
    "Wall": 7291,
    "Family": 7239,
    "##ote": 7343,
    "hailed": 19304,
    "lear": 4043,
    "transporting": 18446,
    "Stevenson": 19080,
    "coach": 5386,
    "symb": 5317,
    "##ifications": 7271,
    "##ockey": 8038,
    "Vi": 10363,
    "wel": 10894,
    "##ige": 10255,
    "##itch": 5108,
    "z": 93,
    "##umin": 10260,
    "teachings": 13651,
    "##esque": 14865,
    "Cont": 5127,
    "prec": 5315,
    "1945": 7517,
    "Faul": 12591,
    "Quebec": 19629,
    "overwhel": 9260,
    "ו": 334,
    "##guan": 6782,
    "Cold": 6681,
    "Fut": 11419,
    "##hip": 2154,
    "##be": 3065,
    "log": 4856,
    "electrical": 13128,
    "na": 14296,
    "choral": 18287,
    "楚": 850,
    "##body": 8893,
    "reason": 3953,
    "launch": 8301,
    "1832": 13372,
    "Li": 5347,
    "sounding": 16915,
    "Rihanna": 6210,
    "ur": 4552,
    "Lin": 12039,
    "Bun": 15130,
    "Hibiscus": 16113,
    "domin": 4612,
    "##ji": 9818,
    "var": 2612,
    "ARVN": 10984,
    "fashionable": 19731,
    "consort": 17275,
    "innov": 10081,
    "bonus": 13943,
    "arriving": 10952,
    "inver": 13742,
    "##ennial": 14391,
    "ancestor": 18526,
    "drainage": 12992,
    "ignored": 12560,
    "ช": 430,
    "download": 7737,
    "こ": 604,
    "##reg": 3456,
    "Confession": 14167,
    "anywhere": 16426,
    "sit": 3250,
    "steady": 17038,
    "##ential": 3796,
    "Fifth": 13670,
    "##ram": 2398,
    "could": 2434,
    "Control": 15030,
    "##quake": 7215,
    "challenge": 8637,
    "Mind": 18137,
    "Cot": 15460,
    "Price": 15488,
    "occasional": 12770,
    "scientific": 8717,
    "Init": 8153,
    "Dominican": 9253,
    "spell": 13768,
    "leaf": 16814,
    "199": 2138,
    "remarks": 16986,
    "##err": 9132,
    "Bus": 4040,
    "Unit": 14063,
    "Ma": 4388,
    "Af": 3111,
    "underst": 4775,
    "moon": 9810,
    "##eloc": 10770,
    "Cur": 13962,
    "traits": 15093,
    "Located": 15825,
    "fantastic": 18540,
    "Temp": 17432,
    "##bers": 4587,
    "logical": 18463,
    "##G": 1096,
    "dean": 17232,
    "flanks": 16836,
    "##ช": 1424,
    "Aires": 14693,
    "##vae": 18214,
    "Johnson": 5704,
    "curved": 12166,
    "WCW": 15847,
    "office": 4658,
    "̃": 242,
    "la": 6437,
    "რ": 490,
    "recognise": 18943,
    "全": 722,
    "endors": 11942,
    "refere": 11349,
    "Nether": 7960,
    "deprec": 19530,
    "##yll": 12110,
    "##idency": 16326,
    "Win": 8263,
    "##issart": 13787,
    "Omar": 10358,
    "##rown": 4921,
    "Gros": 17622,
    "she": 2047,
    "plumage": 13914,
    "##urnal": 19475,
    "plane": 9357,
    "Ray": 7195,
    "park": 5207,
    "##atch": 13501,
    "く": 601,
    "Yugoslav": 15752,
    "message": 8493,
    "Bruins": 13911,
    "Ja": 16222,
    "lease": 16813,
    "##aries": 4028,
    "imag": 6586,
    "##oted": 8978,
    "Distribution": 16096,
    "Landing": 18658,
    "symmetrical": 16638,
    "Treat": 8963,
    "regulations": 16389,
    "frig": 9729,
    "reservoirs": 13430,
    "solo": 6418,
    "Coss": 16211,
    "ø": 153,
    "##view": 14584,
    "Vig": 19996,
    "meat": 13791,
    "Universe": 18028,
    "Mitsuda": 15802,
    "Van": 5996,
    "acceptance": 14138,
    "etc": 17037,
    "equ": 3241,
    "formerly": 9761,
    "enable": 15240,
    "specific": 4141,
    "1924": 10184,
    "39": 5017,
    "joke": 15867,
    "adequ": 12885,
    "##itte": 4615,
    "##iles": 5691,
    "knights": 18315,
    "##idd": 3497,
    "宝": 776,
    "defeating": 9087,
    "##ie": 1908,
    "##MI": 16760,
    "ら": 632,
    "##ond": 1953,
    "Resc": 18438,
    "Pol": 3064,
    "gig": 19295,
    "##olay": 8833,
    "fresh": 7139,
    "Wyoming": 11558,
    "critique": 18346,
    "澤": 872,
    "administ": 5462,
    "Adventures": 14479,
    "##schild": 11564,
    "良": 921,
    "##PA": 10247,
    "Maple": 19838,
    "recordings": 10165,
    "##エ": 1220,
    "descriptions": 14084,
    "##kii": 15646,
    "Fore": 9193,
    "Barbours": 17478,
    "Testament": 18007,
    "commun": 3062,
    "##ó": 1111,
    "##TC": 6869,
    "texture": 19674,
    "##rity": 12064,
    "meas": 3864,
    "occup": 4333,
    "discretion": 19521,
    "ML": 7857,
    "Diss": 18637,
    "タ": 661,
    "Lancashire": 13420,
    "依": 716,
    "##ള": 1118,
    "chest": 10614,
    "Exp": 18925,
    "##reation": 14323,
    "boost": 14976,
    "exhib": 5947,
    "decade": 7219,
    "ם": 339,
    "autonom": 19645,
    "Croy": 19926,
    "Asia": 7513,
    "##orig": 16306,
    "gate": 15503,
    "comeback": 17229,
    "##ip": 1875,
    "Pat": 4572,
    "middle": 5437,
    "divorced": 19105,
    "##ma": 4825,
    "##uc": 1977,
    "windows": 9578,
    "付": 713,
    "q": 84,
    "haun": 15506,
    "Africa": 4463,
    "##inning": 3057,
    "##ḏ": 1501,
    "How": 4663,
    "estate": 8769,
    "##ibl": 10929,
    "computers": 13087,
    "mach": 4012,
    "steambo": 15321,
    "constitutional": 18006,
    "stall": 12646,
    "kil": 4891,
    "cells": 6371,
    "Mann": 15152,
    "cheese": 18435,
    "##ux": 5605,
    "1860": 12342,
    "limbs": 17875,
    "splin": 18805,
    "odd": 12003,
    "lig": 13242,
    "create": 4739,
    "阿": 979,
    "Sweet": 8882,
    "##alypt": 18917,
    "##osaur": 3394,
    "Mey": 4867,
    "sum": 3472,
    "Mit": 10011,
    "##unta": 14149,
    "Recreation": 16027,
    "tub": 10754,
    "bond": 8074,
    "difficulty": 8108,
    "##itter": 11028,
    "respected": 14938,
    "##elong": 18771,
    "##ivity": 6833,
    "##ה": 1103,
    "translated": 10701,
    "Buff": 17106,
    "Mills": 19967,
    "balance": 11865,
    "partially": 9469,
    "Dil": 17109,
    "DNA": 7959,
    "harder": 19636,
    "dem": 2910,
    "2014": 3902,
    "diseases": 14631,
    "tenth": 10245,
    "あ": 593,
    "##liament": 3746,
    "milit": 18349,
    "Amylostere": 13958,
    "Screen": 17297,
    "鋼": 970,
    "Jay": 7490,
    "空": 906,
    "gentle": 12613,
    "Nik": 13224,
    "contains": 4693,
    "წ": 502,
    "flag": 7109,
    "reliance": 16824,
    "clinical": 17522,
    "simultaneously": 10463,
    "bonds": 19086,
    "##lie": 9350,
    "abol": 10653,
    "Danny": 8013,
    "##apped": 8276,
    "kinderg": 19007,
    "##rations": 6949,
    "jack": 7253,
    "mouth": 6260,
    "cancelled": 11382,
    "##ノ": 1608,
    "shoes": 15933,
    "origin": 3127,
    "reportedly": 12517,
    "fever": 14835,
    "Roc": 15157,
    "##ra": 1907,
    "##oyd": 11475,
    "1882": 13595,
    "prolific": 15084,
    "tap": 16730,
    "Kin": 18651,
    "##enc": 3077,
    "##ians": 2743,
    "Carey": 3755,
    "problems": 4661,
    "introduction": 8003,
    "##han": 6292,
    "Churchill": 16904,
    "##ia": 1889,
    "##acrit": 14600,
    "designing": 17314,
    "name": 2675,
    "pen": 4153,
    "divor": 9308,
    "max": 5407,
    "suspic": 15358,
    "treaty": 8353,
    "problem": 6460,
    "171": 12486,
    "garage": 19117,
    "rewarded": 19814,
    "M": 48,
    "repres": 3072,
    "Mond": 12216,
    "drought": 15860,
    "structured": 19592,
    "beliefs": 10975,
    "##咲": 1383,
    "somebody": 17285,
    "##anic": 18247,
    "谭": 943,
    "û": 156,
    "##ollow": 2133,
    "##ture": 7766,
    "columns": 10708,
    "Gibson": 13652,
    "ώ": 285,
    "battlecruisers": 13663,
    "##oot": 2373,
    "##okan": 16821,
    "1962": 8994,
    "Jim": 5505,
    "emotions": 12755,
    "Co": 3804,
    "owners": 10063,
    "aviation": 12910,
    "neutron": 14739,
    "hate": 15175,
    "##cr": 18223,
    "##U": 1071,
    "concent": 5787,
    "poems": 8233,
    "inform": 3858,
    "partnership": 11324,
    "Beth": 13009,
    "##da": 15885,
    "capped": 18337,
    "Man": 2923,
    "##enz": 8205,
    "ה": 333,
    "Tripoli": 18089,
    "Legion": 18487,
    "##ouse": 2551,
    "reign": 5871,
    "Champions": 10787,
    "355": 14703,
    "Coming": 19485,
    "##mates": 11606,
    "##ribe": 13307,
    "##yg": 19329,
    "イ": 642,
    "顯": 993,
    "Nan": 19970,
    "##ax": 2668,
    "caliber": 13145,
    "voc": 3671,
    "Conservative": 17935,
    "Nuclear": 19975,
    "Lions": 16226,
    "Plunket": 7936,
    "Publ": 10486,
    "##emb": 2422,
    "傳": 718,
    "Mac": 3944,
    "##glades": 7594,
    "casem": 13358,
    "graduating": 15334,
    "unbeaten": 19910,
    "Scholars": 18604,
    "##nis": 16278,
    "Sam": 4559,
    "detached": 16881,
    "strings": 17303,
    "##usal": 7344,
    "seventeen": 15031,
    "##lings": 5939,
    "conservative": 13541,
    "crake": 9852,
    "tickets": 12017,
    "NME": 15111,
    "asking": 10694,
    "mistake": 15373,
    "##raine": 15531,
    "reputation": 7891,
    "gh": 10367,
    "Ol": 3506,
    "Dub": 10867,
    "##ณ": 1442,
    "descent": 13320,
    "火": 873,
    "recapt": 14621,
    "cease": 16706,
    "diff": 14088,
    "degrees": 9978,
    "##anj": 15902,
    "Wid": 18163,
    "Kevin": 9797,
    "consumption": 12785,
    "##ateau": 9285,
    "helium": 10547,
    "resemble": 11854,
    "privacy": 19631,
    "idea": 4624,
    "##any": 2244,
    "necessary": 6755,
    "disaster": 9468,
    "バ": 675,
    "bombing": 12162,
    "instructed": 17498,
    "Piet": 19978,
    "funds": 8787,
    "Crim": 13587,
    "î": 145,
    "outbreak": 10054,
    "climb": 12265,
    "##une": 2436,
    "mammalian": 19846,
    "hadrosaur": 14889,
    "30": 2788,
    "engaging": 16020,
    "Bened": 15809,
    "agencies": 14632,
    "##DP": 16757,
    "Veerasha": 18041,
    "Pulaski": 10585,
    "photo": 16521,
    "adher": 16822,
    "﻿": 1010,
    "##ܕ": 1680,
    "##ipping": 7701,
    "Candid": 15462,
    "published": 3014,
    "JT": 15819,
    "##eratops": 4765,
    "Mog": 5716,
    "rough": 5740,
    "relationships": 8352,
    "##村": 1293,
    "launched": 4793,
    "Soc": 4455,
    "Tristan": 11800,
    "title": 3115,
    "royal": 5648,
    "##ility": 2680,
    "distress": 17310,
    "Nadal": 11264,
    "barrel": 13586,
    "信": 717,
    "Twice": 19005,
    "gliders": 19591,
    "dock": 8264,
    "terrain": 11351,
    "Attorney": 8639,
    "Aniston": 8689,
    "Ru": 11288,
    "da": 11737,
    "Reviewers": 15040,
    "Harvard": 19807,
    "Instead": 7327,
    "circles": 16475,
    "##å": 1226,
    "sharks": 18524,
    "news": 6884,
    "financial": 6103,
    "##oster": 8907,
    "Telegraph": 12743,
    "indigo": 12784,
    "Wilfrid": 18590,
    "##ch": 1789,
    "Film": 4386,
    "Joy": 8728,
    "##ona": 7566,
    "480": 17442,
    "vi": 18207,
    "Yeovil": 13645,
    "##ily": 2234,
    "accounts": 8041,
    "##8": 1050,
    "##isters": 6193,
    "util": 9325,
    "と": 616,
    "runs": 4778,
    "rays": 11903,
    "Nf3": 19155,
    "Valuable": 17906,
    "##ris": 8892,
    "##zan": 19360,
    "reach": 4896,
    "##и": 1229,
    "1879": 16939,
    "##ニ": 1116,
    "Fl": 2721,
    "nom": 10618,
    "泗": 863,
    "##understood": 18054,
    "1942": 6887,
    "fundamental": 11236,
    "Chagas": 9932,
    "##ectives": 17760,
    "##ivision": 2672,
    "fret": 18697,
    "##ained": 2276,
    "militia": 16424,
    "chemical": 8357,
    "jackrabbits": 15400,
    "Manuel": 11809,
    "portrayal": 13429,
    "engage": 9756,
    "immigration": 12377,
    "advantages": 16094,
    "spring": 6802,
    "missionary": 17451,
    "moments": 9247,
    "##ife": 2271,
    "exagger": 16800,
    "##eled": 9823,
    "##par": 2735,
    "pursu": 17436,
    "impressive": 13635,
    "different": 3024,
    "plague": 18799,
    "##opsis": 14404,
    "adap": 7269,
    "Goffman": 8441,
    "abst": 14354,
    "coll": 2685,
    "Hou": 9115,
    "Barbar": 11660,
    "correspondence": 14756,
    "comprise": 19055,
    "##生": 1449,
    "##'": 1640,
    "Chicago": 4820,
    "Sclerodermat": 18591,
    "1957": 9664,
    "bone": 9047,
    "Action": 13007,
    "Py": 17137,
    "recipes": 17250,
    "Gwen": 9435,
    "##ASP": 10083,
    "editorial": 18062,
    "chip": 18795,
    "Alice": 4877,
    "sib": 11905,
    "Urania": 12369,
    "##MA": 12634,
    "site": 3251,
    "seas": 12452,
    "Coll": 6607,
    "Eventually": 10591,
    "44": 5269,
    "Exc": 17358,
    "き": 599,
    "Afric": 3225,
    "Prince": 5789,
    "##ente": 10380,
    "##atom": 13262,
    "Engineering": 16102,
    "##aster": 2847,
    "hours": 3988,
    "worshipped": 18094,
    "target": 6251,
    "##guard": 13608,
    "##gian": 4937,
    "Empire": 5818,
    "##0s": 2383,
    "##orial": 4470,
    "noble": 11707,
    "femin": 17362,
    "distinct": 5749,
    "flanked": 17974,
    "built": 2871,
    "explained": 6520,
    "x": 91,
    "##ocyst": 19136,
    "##ising": 3100,
    "stones": 7978,
    "FRE": 9616,
    "IR": 13017,
    "requiring": 14957,
    "Development": 7243,
    "celebration": 15020,
    "##eways": 18791,
    "Games": 5270,
    "Anfield": 17287,
    "Sak": 14823,
    "186": 3876,
    "scholars": 6490,
    "glac": 13837,
    "reversed": 13643,
    "##igations": 16327,
    "ョ": 688,
    "Congress": 6565,
    "substances": 15254,
    "126": 13546,
    "##book": 9724,
    "excav": 5841,
    "Na": 13020,
    "##wine": 16752,
    "Heller": 18648,
    "switching": 19161,
    "Corn": 8581,
    "Pur": 10234,
    "ceratopsian": 19777,
    "occ": 2544,
    "given": 3222,
    "Nintendo": 8878,
    "spin": 11469,
    "##II": 5025,
    "moderate": 9997,
    "##ith": 1770,
    "tube": 15879,
    "Ⴃ": 469,
    "contradict": 16169,
    "resemblance": 19713,
    "acoustic": 13198,
    "explanation": 17082,
    "##ents": 2032,
    "Lud": 10009,
    "##nik": 12431,
    "Huguenots": 17573,
    "Hous": 15141,
    "sailors": 13917,
    "complexes": 16970,
    "Sound": 7606,
    "Lee": 8162,
    "host": 3833,
    "IX": 17125,
    "instance": 9568,
    "ever": 2622,
    "changes": 4495,
    "revers": 7692,
    "paintings": 7241,
    "##ate": 1837,
    "Industry": 8065,
    "##iary": 8514,
    "Allah": 8850,
    "ল": 412,
    "1861": 11087,
    "appointed": 4309,
    "dad": 13474,
    "Durand": 14759,
    "姚": 768,
    "analyzed": 15680,
    "shells": 9511,
    "chapter": 7231,
    "##send": 5412,
    "arist": 16361,
    "govern": 2583,
    "manage": 12665,
    "coincided": 19119,
    "rated": 9344,
    "preparing": 11371,
    "volunteers": 13416,
    "##ins": 2279,
    "105": 10940,
    "##ction": 2074,
    "accumulated": 16617,
    "literally": 15012,
    "Cred": 10725,
    "innings": 7479,
    "Another": 4762,
    "##ี": 1437,
    "ὁ": 553,
    "advised": 12307,
    "##Music": 16761,
    "##identified": 17838,
    "β": 261,
    "manager": 3928,
    "hymen": 19618,
    "emotion": 13619,
    "Hig": 19947,
    "ɡ": 219,
    "Poll": 15834,
    "width": 15323,
    "friendly": 11509,
    "extremely": 8308,
    "promote": 8932,
    "##გ": 1396,
    "peninsula": 12153,
    "##pp": 1845,
    "hur": 18701,
    "Gods": 17385,
    "##ipl": 5634,
    "January": 2782,
    "moons": 15722,
    "seen": 3255,
    "accidents": 18325,
    "likes": 17886,
    "##ortal": 5830,
    "abilities": 11042,
    "wart": 15522,
    "Typhoon": 17054,
    "Metro": 12952,
    "actors": 6885,
    "##lear": 2951,
    "ground": 3307,
    "ceremony": 7428,
    "##anned": 7581,
    "##lev": 8977,
    "Night": 6189,
    "Orig": 5839,
    "Heinrich": 19151,
    "##standing": 6799,
    "mind": 6076,
    "##ization": 3434,
    "旦": 826,
    "namely": 18106,
    "exists": 10047,
    "Township": 9397,
    "##ropolitan": 10855,
    "movements": 9471,
    "##acular": 15208,
    "depress": 10916,
    "##unk": 4313,
    "##iability": 15891,
    "corruption": 19593,
    "olive": 18576,
    "##andin": 14332,
    "##olution": 3672,
    "James": 3439,
    "Quiney": 12150,
    "same": 2496,
    "Female": 15409,
    "landed": 8164,
    "purpose": 7425,
    "Trail": 12371,
    "Wes": 18684,
    "westward": 9762,
    "bitter": 17009,
    "##anning": 5748,
    "Louis": 5797,
    "Anonymous": 7360,
    "Krist": 12161,
    "unique": 6445,
    "association": 7372,
    "fungus": 8249,
    "##臂": 1503,
    "##ư": 1149,
    "##arian": 6730,
    "fatal": 10094,
    "hairst": 15355,
    "##x": 1042,
    "develops": 18866,
    "purely": 19757,
    "peers": 19491,
    "##kare": 6029,
    "Ark": 9366,
    "人": 711,
    "hit": 4237,
    "letting": 18940,
    "professionals": 19633,
    "power": 2824,
    "passeng": 7276,
    "##anium": 18248,
    "1858": 14987,
    "disguised": 19824,
    "Quinn": 13140,
    "Rif": 8262,
    "Saf": 12606,
    "##eper": 11304,
    "unaware": 15951,
    "inches": 5784,
    "House": 3920,
    "Crazy": 6936,
    "Whole": 16000,
    "Friends": 7542,
    "shifted": 12979,
    "##ware": 8515,
    "Crusaders": 17059,
    "glam": 18406,
    "goalsc": 19628,
    "su": 1822,
    "blank": 15266,
    "holes": 13996,
    "##め": 1355,
    "Voyage": 13711,
    "##ę": 1522,
    "##osp": 3184,
    "Additionally": 7754,
    "劉": 733,
    "##山": 1415,
    "besieged": 19845,
    "礮": 901,
    "##brush": 11992,
    "AD": 8316,
    "##instein": 16303,
    "Argentina": 8311,
    "intermediate": 14916,
    "##inh": 15543,
    "embarr": 16499,
    "February": 3144,
    "cheap": 18434,
    "К": 290,
    "Inf": 4685,
    "・": 696,
    "Zanz": 10882,
    "forth": 10775,
    "##ryce": 9467,
    "Est": 11582,
    "Cove": 16210,
    "##olk": 5005,
    "Aerith": 9108,
    "Kn": 5819,
    "ice": 7609,
    "ჩ": 499,
    "Mostar": 14998,
    "##ours": 3212,
    "websites": 16100,
    "##ello": 12882,
    "declining": 16921,
    "nost": 18710,
    "Legends": 19139,
    "Liberation": 19719,
    "vulgar": 19767,
    "Roseberys": 19015,
    "coff": 10798,
    "affected": 5792,
    "multipl": 11980,
    "჻": 517,
    "##ly": 1756,
    "ranked": 4735,
    "##án": 5235,
    "argued": 6180,
    "Mounted": 6599,
    "antib": 16022,
    "tools": 12861,
    "Dum": 10228,
    "images": 6119,
    "entry": 7939,
    "Marilyn": 14531,
    "Locke": 18484,
    "crashed": 17328,
    "##ome": 1935,
    "conclus": 13800,
    "Queen": 5230,
    "barely": 14420,
    "##bound": 10624,
    "Jas": 16223,
    "1870": 14143,
    "Llan": 16119,
    "ambitious": 15022,
    "##cend": 5133,
    "57": 6606,
    "Ax": 13447,
    "predec": 7948,
    "##す": 1354,
    "##uss": 2919,
    "##尾": 1688,
    "success": 2549,
    "Players": 12529,
    "Secretary": 7708,
    "Springfield": 16139,
    "McDougal": 18613,
    "##ficult": 3543,
    "Priv": 10807,
    "##yo": 9814,
    "Utah": 11405,
    "organize": 17854,
    "dominance": 18992,
    "score": 4530,
    "##epend": 3478,
    "annoy": 13811,
    "everybody": 17344,
    "quotes": 19509,
    "tun": 6441,
    "ά": 256,
    "sometimes": 4430,
    "until": 2487,
    "astronom": 9183,
    "acre": 12475,
    "artef": 16817,
    "acknow": 8611,
    "HIV": 16679,
    "Blair": 17829,
    "Lord": 6074,
    "Ali": 7270,
    "became": 2327,
    "diam": 6346,
    "##uls": 8031,
    "$": 7,
    "##ice": 2029,
    "##eign": 5273,
    "bad": 5308,
    "##J": 1079,
    "##opher": 7824,
    "Shakes": 8766,
    "Princess": 12187,
    "Algernon": 13669,
    "ე": 478,
    "##dream": 11445,
    "fatalities": 14775,
    "##aware": 8686,
    "triumph": 16441,
    "Prec": 17443,
    "Spec": 5639,
    "Century": 17359,
    "championships": 11848,
    "enacted": 18583,
    "dynamics": 19835,
    "##zong": 10907,
    "Pitman": 9020,
    "hide": 14291,
    "##acher": 5556,
    "Pt": 14552,
    "thickness": 15025,
    "achieving": 16934,
    "Thea": 19393,
    "penis": 17403,
    "lot": 5573,
    "produce": 5873,
    "##stown": 13745,
    "Forg": 17315,
    "landings": 10177,
    "widespread": 7544,
    "pink": 12426,
    "talks": 12542,
    "##日": 1455,
    "##je": 7336,
    "surprise": 11642,
    "excited": 16040,
    "##icist": 17741,
    "Kaifeng": 12544,
    "policy": 7053,
    "inappropri": 19212,
    "WR": 18161,
    "suited": 15927,
    "Nir": 17642,
    "”": 564,
    "went": 3416,
    "Gaozong": 14245,
    "cakes": 13473,
    "##塘": 1487,
    "reduce": 8776,
    "romantic": 8496,
    "mal": 10240,
    "766th": 10844,
    "vicinity": 12011,
    "##ache": 12864,
    "Terror": 18983,
    "##ui": 19343,
    "shallow": 12983,
    "epid": 19498,
    "189": 3488,
    "frequent": 10441,
    "limestone": 13126,
    "patterns": 11247,
    "finished": 3823,
    "Pitt": 16693,
    "##ftime": 17799,
    "##ony": 2552,
    "deposited": 18531,
    "mount": 3693,
    "##ern": 2346,
    "ܲ": 384,
    "exchange": 9069,
    "lion": 14842,
    "Using": 16995,
    "##ฮ": 1673,
    "pet": 7199,
    "reactions": 11826,
    "phosph": 12128,
    "ン": 694,
    "March": 2820,
    "Lamb": 10010,
    "generate": 18352,
    "stret": 7261,
    "Ecclestone": 12029,
    "will": 2621,
    "rand": 15185,
    "shame": 17765,
    "##amental": 9863,
    "ends": 6842,
    "functional": 14172,
    "daylight": 17288,
    "location": 4777,
    "accepted": 5706,
    "debut": 4335,
    "##ière": 19158,
    "corps": 12724,
    "##active": 10052,
    "Mul": 7757,
    "##uania": 14306,
    "beak": 14879,
    "Anton": 8859,
    "liv": 11156,
    "1874": 14142,
    "friend": 3325,
    "ų": 198,
    "##ribi": 12281,
    "Anthony": 7326,
    "ბ": 475,
    "approach": 5565,
    "##bo": 7444,
    "##enna": 14937,
    "torpedo": 7021,
    "Motion": 19067,
    "possibility": 7230,
    "scheduled": 6756,
    "Dwight": 13196,
    "stand": 2939,
    "Ni": 7028,
    "Belle": 17416,
    "abolition": 18551,
    "healthy": 17927,
    "Pres": 3663,
    "Brethren": 14161,
    "drew": 7497,
    "##dam": 15886,
    "joined": 4149,
    "remn": 7300,
    "biological": 10962,
    "exit": 9138,
    "admir": 14975,
    "##orne": 18841,
    "懷": 810,
    "##entions": 7868,
    "AV": 19216,
    "##X": 1084,
    "beside": 15072,
    "Tro": 9044,
    "##uctions": 13340,
    "Hus": 15816,
    "tribal": 18967,
    "##elih": 14868,
    "##rete": 6732,
    "Leinster": 14082,
    "_": 66,
    "backdrop": 18864,
    "##raska": 10035,
    "##rub": 18738,
    "crops": 9788,
    "conducted": 4911,
    "Skinner": 12007,
    "##ella": 5808,
    "##is": 1731,
    "##ivorous": 14331,
    "Ludlow": 16600,
    "Forest": 6396,
    "tons": 4857,
    "##annah": 8765,
    "jew": 11011,
    "freedom": 11350,
    "meets": 8538,
    "##enteen": 13508,
    "Somerset": 5034,
    "Canadians": 18915,
    "straight": 6492,
    "Arthur": 7776,
    "adequate": 15784,
    "ἰ": 551,
    "metaphor": 16646,
    "bacteria": 18595,
    "Pak": 11287,
    "ר": 347,
    "##瓊": 1312,
    "##iff": 3964,
    "hot": 5218,
    "Buch": 16208,
    "confidence": 14108,
    "realizes": 16453,
    "International": 3821,
    "pianist": 18081,
    "Stanley": 8948,
    "hitting": 12055,
    "neutrino": 15043,
    "Kon": 12038,
    "Paul": 3972,
    "Wicca": 10462,
    "Members": 13222,
    "##ineae": 15228,
    "ingred": 19110,
    "structure": 4300,
    "##itals": 8386,
    "Geastrum": 17849,
    "grade": 11786,
    "##ironment": 5845,
    "talent": 12190,
    "Ⴌ": 471,
    "Today": 6972,
    "provisions": 15276,
    "##ulan": 18271,
    "produced": 3169,
    "press": 3243,
    "Cat": 5547,
    "permanent": 7654,
    "Hollywood": 7792,
    "Kombat": 8651,
    "##inist": 4468,
    "founders": 17294,
    "Khánh": 7083,
    "##夕": 1377,
    "##ig": 1766,
    "Sov": 4664,
    "step": 6195,
    "pion": 11014,
    "dozens": 19497,
    "Dian": 13214,
    "proposal": 9182,
    "med": 2866,
    "##uous": 5897,
    "foc": 3945,
    "incor": 5295,
    "##ambu": 16445,
    "##ook": 2125,
    "putting": 10686,
    "##pa": 11601,
    "##ker": 9351,
    "directions": 14933,
    "##adv": 15912,
    "slowed": 17412,
    "Google": 17921,
    "Ustaš": 9261,
    "address": 6482,
    "##ales": 2585,
    "Pearl": 19163,
    "ownership": 11648,
    "responses": 13601,
    "##zzobon": 15673,
    "Ge": 2791,
    "Loft": 17434,
    "##rose": 10509,
    "ь": 321,
    "acknowled": 9696,
    "##nance": 14583,
    "Ojibwe": 15124,
    "Americ": 2199,
    "##rior": 10263,
    "trains": 12261,
    "metaph": 14655,
    "intrig": 16362,
    "effective": 6926,
    "ev": 2037,
    "##don": 9125,
    "1916": 7636,
    "bohemica": 19200,
    "梶": 846,
    "Swed": 6526,
    "Dyn": 8808,
    "Women": 10237,
    "umpires": 17177,
    "immense": 18447,
    "Lambton": 19116,
    "automatic": 19764,
    "ê": 141,
    "##rut": 14301,
    "deal": 4347,
    "Arik": 14184,
    "touchdowns": 11989,
    "artists": 5906,
    "aging": 16375,
    "USA": 6805,
    "helps": 11804,
    "reported": 3160,
    "potentially": 10567,
    "Sund": 6791,
    "Gu": 2673,
    "wing": 5489,
    "certain": 4338,
    "galax": 16130,
    "famil": 5640,
    "shall": 8904,
    "xenon": 5449,
    "ANZAC": 14519,
    "##ls": 11605,
    "trench": 16808,
    "mentions": 13246,
    "ɫ": 222,
    "Bir": 6186,
    "##itude": 4956,
    "##aria": 6768,
    "latest": 14774,
    "privile": 16067,
    "referred": 4646,
    "Last": 9529,
    "proclaimed": 16177,
    "正": 854,
    "@-@": 1764,
    "Edition": 13826,
    "intervention": 14137,
    "enzymes": 14778,
    "##OM": 11603,
    "##ven": 2604,
    "song": 2096,
    "trees": 5543,
    "Montgomery": 13445,
    "##stem": 2564,
    "ν": 271,
    "key": 4381,
    "Scott": 4511,
    "Holy": 7644,
    "##ept": 2256,
    "laws": 7743,
    "##6th": 8084,
    "1901": 12140,
    "bread": 13564,
    "Lancaster": 12564,
    "MLs": 19082,
    "Blof": 19523,
    "Hod": 12594,
    "realised": 13121,
    "##rovers": 5111,
    "Are": 5426,
    "##ental": 5076,
    "##bard": 14860,
    "synthesis": 14206,
    "typ": 2849,
    "晋": 832,
    "diagnosis": 18039,
    "type": 4532,
    "Fourth": 15364,
    "##icul": 9822,
    "##eda": 6988,
    "contents": 17252,
    "attempt": 3080,
    "subsidiary": 18051,
    "##ety": 6194,
    "Liga": 19964,
    "floods": 13369,
    "ple": 5851,
    "wasps": 19390,
    "it": 1841,
    "controlled": 6568,
    "Satur": 9198,
    "##ت": 1621,
    "job": 4871,
    "trail": 8457,
    "relie": 9465,
    "Amylostereum": 19836,
    "ag": 1998,
    "lines": 4296,
    "arms": 6838,
    "maneu": 14060,
    "Je": 4515,
    "Abd": 9856,
    "praise": 8987,
    "convection": 9237,
    "Democratic": 10101,
    "##alog": 11610,
    "Larry": 12757,
    "oath": 18195,
    "Roger": 8429,
    "115": 11056,
    "揺": 818,
    "Omaha": 6050,
    "##ley": 2404,
    "Rise": 19264,
    "between": 2157,
    "photography": 15029,
    "琦": 889,
    "Shaw": 13097,
    "measurements": 11109,
    "Fair": 8128,
    "acad": 6514,
    "dubbed": 11398,
    "##珙": 1630,
    "Š": 192,
    "wives": 10895,
    "investig": 5282,
    "##ription": 4158,
    "##othes": 7869,
    "bay": 8589,
    "import": 3010,
    "wish": 11301,
    "Campaign": 11833,
    "Sad": 16240,
    "##realm": 17487,
    "ʃ": 227,
    "##宫": 1285,
    "nervous": 17589,
    "##uri": 7450,
    "х": 316,
    "certified": 7791,
    "##urs": 3086,
    "offering": 11202,
    "sentenced": 16889,
    "Luke": 19058,
    "Pioneer": 16200,
    "convers": 6365,
    "ú": 155,
    "mart": 8374,
    "##place": 12656,
    "island": 3293,
    "##ron": 2307,
    "Cass": 10865,
    "Starting": 14520,
    "ʻ": 234,
    "decisive": 16386,
    "灯": 874,
    "Vietn": 4202,
    "illness": 11238,
    "Hockey": 12404,
    "prob": 3934,
    "eaten": 15755,
    "Seas": 7811,
    "##elve": 7975,
    "Prism": 18884,
    "##平": 1240,
    "forec": 13274,
    "orchestra": 13649,
    "galericul": 19206,
    "HMS": 6493,
    "bombs": 12995,
    "purchased": 7120,
    "Express": 9764,
    "matter": 6741,
    "fire": 3187,
    "Kore": 6283,
    "Operations": 12350,
    "##ailed": 3167,
    "ne": 2599,
    "Ş": 190,
    "Sut": 17655,
    "Zimmer": 18172,
    "##ten": 2294,
    "proc": 3484,
    "2016": 4642,
    "instit": 5497,
    "Andy": 6665,
    "##esters": 11026,
    "市": 788,
    "bin": 13471,
    "##antine": 15935,
    "##omy": 18254,
    "intercepted": 19797,
    "Ambassador": 17052,
    "##ny": 5023,
    "Tudor": 17096,
    "expected": 5619,
    "は": 620,
    "Journal": 8573,
    "Nielsen": 10217,
    "##ァ": 1478,
    "##ādv": 13888,
    "instrumentation": 14488,
    "aerodromes": 15778,
    "fasc": 10742,
    "nons": 15516,
    "SmackDown": 16490,
    "##umph": 13074,
    "conif": 15563,
    "Ulster": 12787,
    "##iege": 7577,
    "attacked": 5300,
    "Ros": 5847,
    "overth": 17266,
    "user": 15966,
    "multi": 8704,
    "greatest": 5174,
    "Shimomura": 13000,
    "knife": 18314,
    "Connecticut": 18627,
    "##ić": 7919,
    "##anas": 4920,
    "glob": 7015,
    "Texas": 5016,
    "趙": 949,
    "##graf": 9131,
    "lacks": 13852,
    "wire": 15190,
    "such": 2219,
    "Wallace": 13410,
    "thrown": 13743,
    "##ph": 2200,
    "tomb": 7974,
    "##uche": 15957,
    "fossils": 16604,
    "excessive": 17050,
    "##agar": 19414,
    "moisture": 19149,
    "AIF": 19676,
    "productions": 10210,
    "Proctor": 16430,
    "pitched": 6627,
    "Slayer": 11977,
    "á": 132,
    "Lieutenant": 7492,
    "resolve": 17256,
    "##gl": 4167,
    "##rowed": 11790,
    "ἀ": 550,
    "##選": 1579,
    "Var": 4214,
    "hair": 5059,
    "reviewed": 11657,
    "rhythm": 9021,
    "compuls": 18823,
    "slight": 5090,
    "screenplay": 15346,
    "Sa": 8585,
    "natives": 18714,
    "release": 3074,
    "Evans": 10424,
    "composers": 16095,
    "er": 5824,
    "##ooley": 17811,
    "Lu": 6610,
    "totally": 14106,
    "puzzles": 11860,
    "##udders": 19041,
    "##riage": 4590,
    "cad": 15499,
    "##ɒ": 1120,
    "##ification": 4383,
    "topped": 10769,
    "min": 2357,
    "account": 4707,
    "##ationally": 12078,
    "Alt": 17784,
    "Moray": 16922,
    "##ties": 4262,
    "##ical": 1914,
    "っ": 614,
    "simpl": 11649,
    "flaw": 14907,
    "##ouver": 15907,
    "struggles": 17446,
    "##levard": 15080,
    "##ricket": 5275,
    "experiences": 9682,
    "Nicholas": 13184,
    "Viaduct": 15766,
    "assume": 15981,
    "proposals": 13913,
    "Mur": 10600,
    "persist": 11982,
    "wonder": 13486,
    "##ell": 1873,
    "lasted": 7312,
    "culminating": 19120,
    "depending": 9747,
    "##illion": 19421,
    "Germ": 8190,
    "##inisc": 12855,
    "clust": 13291,
    "happened": 9415,
    "Soviets": 14159,
    "avoiding": 16984,
    "equipped": 8856,
    "360": 11092,
    "executives": 19820,
    "quad": 12480,
    "replay": 18385,
    "##aret": 9923,
    "available": 4221,
    "print": 10524,
    "ô": 151,
    "upon": 3881,
    "Nathan": 6790,
    "shrine": 11998,
    "mamm": 9539,
    "culm": 10460,
    "expressed": 5795,
    "settled": 8626,
    "aggressive": 11259,
    "Rovers": 15839,
    "##held": 16299,
    "Dance": 12207,
    "##hyd": 16425,
    "##iches": 17207,
    "148": 17322,
    "Reub": 18922,
    "antiquity": 19124,
    "others": 3516,
    "##arsh": 10398,
    "provided": 3870,
    "sketch": 14779,
    "Dhang": 18639,
    "stadium": 8522,
    "##т": 1234,
    "traveled": 8633,
    "##40": 15894,
    "Leigh": 10540,
    "Popular": 11994,
    "sink": 14006,
    "magnet": 19023,
    "##vous": 19341,
    "##epe": 19480,
    "##ܵ": 1493,
    "posted": 9306,
    "skeleton": 14689,
    "folk": 6075,
    "center": 4452,
    "##icks": 6356,
    "Thom": 4087,
    "forg": 11768,
    "tribute": 9592,
    "Duncan": 17970,
    "rel": 1945,
    "wood": 4246,
    "vary": 8024,
    "Stri": 18803,
    "1956": 7634,
    "negative": 6893,
    "п": 311,
    "##abilities": 16797,
    "Tzu": 14241,
    "Polytron": 17584,
    "unbeat": 19457,
    "Ra": 9621,
    "##ognselskap": 19851,
    "Radical": 19021,
    "##ocal": 8091,
    "theory": 6506,
    "##rib": 2065,
    "kilometres": 6971,
    "repair": 8475,
    "Abram": 14962,
    "##oard": 2931,
    "Campbell": 10714,
    "都": 964,
    "Nations": 5271,
    "ɳ": 223,
    "friendship": 12920,
    "##ı": 1315,
    "##rick": 4429,
    "sev": 5240,
    "cooper": 9742,
    "##ender": 7984,
    "realize": 16452,
    "Detroit": 9690,
    "Isle": 11952,
    "##endar": 11323,
    "Furt": 9041,
    "tit": 2644,
    "alongside": 5987,
    "involved": 4159,
    "ideas": 6517,
    "1926": 9853,
    "Palmy": 8857,
    "##athy": 11327,
    "walks": 13156,
    "Avtovac": 15034,
    "##aja": 11331,
    "##icit": 9821,
    "illustrate": 18486,
    "##부": 1700,
    "##tering": 13513,
    "their": 1905,
    "except": 4227,
    "comprised": 12002,
    "##reak": 4538,
    "Dan": 9904,
    "##ords": 3344,
    "challenging": 12555,
    "Berlio": 17386,
    "##ю": 1247,
    "butt": 13289,
    "##kh": 8201,
    "pounds": 10244,
    "acquis": 14721,
    "Baseball": 11536,
    "Sum": 6026,
    "destruction": 8854,
    "##igging": 14141,
    "Megal": 17004,
    "Building": 11110,
    "Ł": 181,
    "supposedly": 17019,
    "161": 8991,
    "Hastings": 19867,
    "sent": 2887,
    "south": 2669,
    "mining": 14085,
    "crews": 10434,
    "imminent": 18986,
    "##祠": 1677,
    "go": 2335,
    "162": 8615,
    "##augh": 3093,
    "reasons": 7156,
    "interpreted": 11716,
    "##Down": 16293,
    "1862": 13856,
    "@.": 1966,
    "primitive": 16920,
    "gameplay": 7934,
    "##che": 6265,
    "Sil": 5822,
    "scrap": 8217,
    "managed": 5517,
    "Chevaliers": 10467,
    "Sisler": 10608,
    "##iors": 12626,
    "##rian": 4362,
    "Medal": 13137,
    "Constantin": 14468,
    "Cambod": 6813,
    "##ロ": 1453,
    "战": 811,
    "wrote": 2734,
    "lumin": 11900,
    "##cements": 9213,
    "trade": 4860,
    "Ruler": 12803,
    "##backs": 13610,
    "ar": 1910,
    "Chrono": 10996,
    "##stock": 15554,
    "##grass": 19605,
    "g": 74,
    "Justin": 12353,
    "##roscopic": 19172,
    "beads": 19405,
    "topic": 16015,
    "##auge": 16421,
    "educ": 4267,
    "did": 2439,
    "##inner": 5244,
    "suck": 18285,
    "##q": 1052,
    "沙": 861,
    "fem": 3262,
    "athlete": 12950,
    "##ics": 2229,
    "##場": 1476,
    "damage": 3711,
    "<unk>": 0,
    "ж": 302,
    "##ets": 2474,
    "Line": 6758,
    "totals": 19574,
    "gay": 14836,
    "reduced": 5459,
    "##彌": 1538,
    "ア": 640,
    "tran": 15578,
    "theolog": 15200,
    "##rator": 16742,
    "Ta": 14559,
    "Battalions": 16894,
    "skeletons": 18084,
    "labyrinth": 19310,
    "##ensive": 3083,
    "Rap": 10120,
    "valid": 10431,
    "Prison": 17841,
    "trad": 2967,
    "##ecutive": 4161,
    "Arbeider": 15448,
    "Then": 9640,
    "##ico": 3432,
    "trust": 10048,
    "Moham": 18958,
    "##uma": 7871,
    "plates": 15930,
    "fantasy": 14220,
    "protesters": 13562,
    "openly": 18358,
    "Human": 8307,
    "丙": 702,
    "##ū": 1082,
    "shut": 8837,
    "##les": 2070,
    "ut": 6689,
    "##izers": 11630,
    "cle": 14565,
    "consisting": 7800,
    "Alam": 16370,
    "records": 4925,
    "##iter": 3055,
    "nuclear": 5341,
    "##onz": 16304,
    "176": 7584,
    "##く": 1384,
    "treason": 16473,
    "##embly": 5116,
    "rare": 6440,
    "pine": 10030,
    "##aped": 5431,
    "longer": 4863,
    "##eway": 5113,
    "##armed": 17203,
    "contributed": 6878,
    "predecessors": 15739,
    "proposes": 17347,
    "suspended": 10316,
    "cutting": 12148,
    "þ": 159,
    "##iring": 6407,
    "median": 16018,
    "ter": 3188,
    "##ɑ": 1216,
    "##ountain": 7460,
    "temperatures": 11531,
    "12th": 7002,
    "Thames": 15586,
    "ĕ": 172,
    "##tef": 16379,
    "dwarfs": 19113,
    "##asht": 19532,
    "confronted": 19843,
    "Humpty": 13381,
    "harm": 7816,
    "##MO": 8896,
    "rib": 9716,
    "Dog": 10113,
    "mask": 10748,
    "##ir": 1757,
    "prompting": 14227,
    "Crisis": 18412,
    "coming": 5946,
    "Esh": 9701,
    "EMI": 19936,
    "Wagner": 10001,
    "encour": 5991,
    "collision": 15283,
    "historical": 5596,
    "##olving": 14871,
    "##ober": 2369,
    "‘": 561,
    "front": 3592,
    "pairs": 11374,
    "campaigns": 13848,
    "Rapids": 14502,
    "FIFA": 9317,
    "exhibition": 12169,
    "sacked": 12840,
    "##eling": 10507,
    "personality": 10439,
    "##ʻi": 11310,
    "Fass": 18123,
    "Nort": 4485,
    "’": 562,
    "landing": 6779,
    "Director": 7853,
    "ad": 1944,
    "##avery": 14196,
    "caret": 19522,
    "alone": 5944,
    "Fei": 8940,
    "liter": 4320,
    "##ently": 2545,
    "drum": 5539,
    "rather": 3900,
    "gendarmerie": 17684,
    "##ag": 1798,
    "##N": 1046,
    "support": 2593,
    "Columb": 5705,
    "rehabilitation": 19866,
    "sandstone": 19047,
    "suppress": 12895,
    "ash": 9355,
    "##が": 1372,
    "involving": 9002,
    "users": 12276,
    "Casting": 14727,
    "##j": 1063,
    "Single": 17411,
    "thousands": 7750,
    "##MC": 15542,
    "Darwin": 13405,
    "##ans": 1960,
    "issued": 5055,
    "engaged": 7116,
    "hygrometric": 13204,
    "freely": 16458,
    "mythology": 12971,
    "penalty": 7704,
    "burnt": 18425,
    "Capilla": 18955,
    "+": 14,
    "Alexand": 19022,
    "Hass": 19236,
    "load": 7559,
    "advocated": 13808,
    "Lebanon": 16176,
    "Follow": 3871,
    "coastal": 8056,
    "mini": 12296,
    "Environment": 16653,
    "##astrum": 17772,
    "Shield": 18854,
    "deliber": 10069,
    "ä": 135,
    "modes": 14669,
    "Mess": 15827,
    "ε": 264,
    "reconstruction": 9257,
    "##ũ": 1666,
    "##itious": 13060,
    "mant": 17692,
    "Civil": 5760,
    "##imet": 7297,
    "advant": 5399,
    "關": 977,
    "##hat": 7821,
    "##ified": 2716,
    "announ": 3299,
    "things": 5259,
    "Freedom": 13909,
    "equivalent": 9003,
    "licens": 13181,
    "₣": 573,
    "Laur": 10731,
    "oxide": 14166,
    "voyage": 14851,
    "sustained": 6783,
    "Her": 2615,
    "den": 4317,
    "Burn": 5663,
    "expanded": 7006,
    "when": 2095,
    "special": 3731,
    "gray": 10538,
    "##ḥ": 1307,
    "##F": 1088,
    "Motor": 13174,
    "Ord": 12130,
    "ッ": 664,
    "##ould": 1919,
    "constituency": 17536,
    "##omura": 9638,
    "り": 633,
    "費": 946,
    "Ode": 7375,
    "reserve": 8909,
    "Manning": 19255,
    "##ishna": 18294,
    "у": 315,
    "Plant": 14941,
    "strict": 10513,
    "minority": 12536,
    "supernatural": 13661,
    "distributed": 8340,
    "Croatia": 6461,
    "bush": 14831,
    "̍": 243,
    "prin": 6920,
    "ֶ": 326,
    "Viet": 3832,
    "1976": 7631,
    "Incre": 17484,
    "##ḍ": 1394,
    "closest": 9866,
    "magnetic": 11245,
    "1999": 4706,
    "##iously": 7579,
    "cavalry": 13039,
    "input": 16308,
    "Ori": 13460,
    "podium": 17172,
    "enormous": 13002,
    "stating": 5513,
    "##cept": 2553,
    "##b": 1026,
    "Tour": 4975,
    "singles": 6393,
    "##ogen": 6776,
    "grace": 14373,
    "Ic": 18649,
    "##ugby": 6153,
    "SN": 19982,
    "##lin": 5107,
    "influenced": 5911,
    "Irish": 4211,
    "Cruiserweight": 18584,
    "graph": 5519,
    "linking": 16960,
    "Foliot": 19196,
    "Gam": 19233,
    "delegates": 15758,
    "##opes": 6996,
    "##erve": 5186,
    "Adv": 6804,
    "expansion": 8404,
    "cannon": 15024,
    "persu": 9404,
    "Nature": 15154,
    "number": 2289,
    "connections": 12524,
    "##limited": 15693,
    "momentum": 18494,
    "mating": 15514,
    "bomb": 4889,
    "powerful": 5338,
    "acting": 6037,
    "begun": 7152,
    "##erves": 13327,
    "tests": 9348,
    "costumes": 13857,
    "Peng": 16694,
    "##zo": 15541,
    "villain": 13843,
    "Movement": 17986,
    "interceptions": 19132,
    "Raff": 9043,
    "ş": 191,
    "Pend": 15486,
    "des": 1997,
    "producers": 6740,
    "##izz": 16373,
    "recon": 10651,
    "points": 3856,
    "##chen": 7035,
    "islands": 7530,
    "Sid": 9443,
    "distances": 11953,
    "Scottish": 6373,
    "disgu": 12889,
    "##yline": 9745,
    "Ingram": 14193,
    "typhoon": 15403,
    "ع": 367,
    "indie": 16842,
    "##5": 1057,
    "##achus": 8758,
    "supply": 6843,
    "density": 12569,
    "1893": 14123,
    "Pit": 5485,
    "little": 3587,
    "soc": 3295,
    "peaked": 5366,
    "##antic": 3392,
    "Bat": 9262,
    "Metall": 14453,
    "Tamil": 16586,
    "43": 6315,
    "slopes": 12498,
    "dischar": 14360,
    "Odyssey": 17090,
    "undergraduate": 17582,
    "talked": 17933,
    "soils": 18328,
    "merchants": 19763,
    "Yankees": 10208,
    "enlarged": 14785,
    "High": 3511,
    "İ": 178,
    "Assy": 12326,
    "##ges": 3312,
    "##ublin": 7075,
    "善": 752,
    "ệ": 538,
    "broke": 6395,
    "planes": 12875,
    "Bodø": 19822,
    "13th": 8466,
    "Dean": 10296,
    "char": 2140,
    "Stopp": 15575,
    "ref": 3044,
    "150": 5589,
    "Jama": 17126,
    "##fer": 2103,
    "19th": 3933,
    "attraction": 16083,
    "##ù": 1488,
    "##mpire": 5249,
    "##var": 7502,
    "retained": 8988,
    "Past": 13462,
    "Kusanagi": 15451,
    "prep": 9938,
    "elite": 13794,
    "cut": 3872,
    "Had": 11584,
    "##ver": 1792,
    "##stage": 15910,
    "riff": 17174,
    "sour": 3784,
    "##hn": 2156,
    "disapp": 5516,
    "Minsky": 17640,
    "UNES": 14191,
    "Fork": 18643,
    "##apteriscus": 19165,
    "##v": 1025,
    "emphas": 6162,
    "advertising": 10092,
    "Seth": 19272,
    "moving": 4687,
    "650": 17952,
    "Sister": 18150,
    "improved": 6931,
    "eliminated": 10453,
    "Maeda": 7536,
    "k": 78,
    "##elin": 8828,
    "Pitts": 13386,
    "##zing": 18753,
    "contests": 17777,
    "@": 35,
    "lun": 15869,
    "##chang": 9136,
    "shooting": 7897,
    "##em": 1772,
    "Sicily": 19157,
    "##har": 10497,
    "McLu": 16154,
    "rever": 13279,
    "##inem": 6475,
    "and": 1732,
    "##igades": 8148,
    "##fare": 8973,
    "weapon": 9685,
    "##zt": 16291,
    "merge": 16489,
    "wave": 6222,
    "##ç": 1070,
    "portions": 12507,
    "##heless": 6780,
    "Will": 3040,
    "##atri": 18761,
    "Atlantic": 3905,
    "health": 5078,
    "sanctioned": 19201,
    "mig": 6948,
    "annexed": 19850,
    "sponsored": 12559,
    "Ari": 6635,
    "6": 25,
    "Pattycake": 10981,
    "Italy": 6656,
    "AT": 10342,
    "##aine": 5357,
    "ェ": 644,
    "boundaries": 10700,
    "UNESCO": 14247,
    "Newark": 15255,
    "##iding": 4195,
    "##essee": 10261,
    "undertook": 15384,
    "##B": 1089,
    "Importance": 14228,
    "##amous": 16315,
    "plac": 16346,
    "starting": 5117,
    "rom": 6501,
    "ABC": 10470,
    "Journey": 9783,
    "##estial": 18788,
    "##uch": 2379,
    "##sby": 19342,
    "pistols": 19891,
    "beach": 7138,
    "member": 3959,
    "doctrine": 11388,
    "stud": 2354,
    "##sea": 6876,
    "IOC": 11725,
    "Lulu": 18660,
    "releg": 8094,
    "compet": 3113,
    "Mol": 12407,
    "atmospher": 14473,
    "b": 69,
    "appeared": 3613,
    "Randy": 14822,
    "##immer": 14878,
    "concentration": 12546,
    "##ervative": 10283,
    "Romania": 11662,
    "##Hg": 9545,
    "Cow": 13013,
    "obstacles": 14215,
    "resort": 16366,
    "yd": 13254,
    "Jr": 9618,
    "acyclic": 11409,
    "Ble": 17104,
    "##bert": 4330,
    "##oud": 4770,
    "##aves": 3467,
    "1974": 7046,
    "bat": 8370,
    "##where": 11308,
    "Patriarch": 15345,
    "sure": 10265,
    "Casey": 18001,
    "year": 2000,
    "letter": 6131,
    "outlined": 18518,
    "Term": 19273,
    "fr": 1799,
    "Hond": 14267,
    "investigation": 10969,
    "string": 11055,
    "summary": 14505,
    "VH": 15495,
    "eff": 2558,
    "Kus": 14814,
    "Second": 4926,
    "Standing": 17242,
    "wounds": 18469,
    "##aji": 18857,
    "##oles": 4052,
    "mus": 2210,
    "Jac": 7060,
    "el": 2333,
    "##ème": 19368,
    "23rd": 17345,
    "postseason": 17355,
    "##ham": 2777,
    "unlike": 9466,
    "poss": 2775,
    "##vention": 11305,
    "Fund": 13216,
    "##ლ": 1281,
    "pe": 2191,
    "1847": 15339,
    "##itational": 17204,
    "fung": 6214,
    "adj": 6009,
    "abn": 13086,
    "to": 1734,
    "availability": 17398,
    "traff": 4800,
    "##aline": 18249,
    "##iggs": 9867,
    "##asion": 4093,
    "P": 51,
    "marking": 12509,
    "##ose": 2045,
    "##ル": 1366,
    "##omanry": 14940,
    "diverse": 13425,
    "mechanics": 17956,
    "Qi": 15156,
    "kn": 2109,
    "expedition": 8430,
    "##н": 1362,
    "ว": 446,
    "falling": 8936,
    "Championships": 9166,
    "##och": 6063,
    "dates": 6983,
    "##tr": 4627,
    "Det": 7487,
    "Massachusetts": 9426,
    "Davies": 13836,
    "competitors": 16033,
    "##raged": 17711,
    "Wadi": 19281,
    "judges": 19666,
    "marble": 15628,
    "後": 802,
    "##fold": 19357,
    "##ling": 2767,
    "merger": 16935,
    "##ぎ": 1347,
    "complement": 12270,
    "symbolic": 16091,
    "Commercial": 16185,
    "blown": 16848,
    "Wica": 18166,
    "ح": 359,
    "Three": 5051,
    "noct": 18856,
    "ɒ": 214,
    "Revolutionary": 15376,
    "##キ": 1454,
    "peripher": 19463,
    "philosophical": 18587,
    "1821": 17439,
    "Kick": 18652,
    "Mat": 5715,
    "mood": 12227,
    "##rote": 2720,
    "##ems": 3997,
    "##saku": 12847,
    "soft": 7582,
    "##ns": 6796,
    "Victor": 5372,
    "##edar": 6084,
    "cod": 12222,
    "exhibit": 13898,
    "##ania": 3873,
    "##ument": 3483,
    "elderly": 15408,
    "care": 2706,
    "surv": 3213,
    "-": 16,
    "Steve": 6674,
    "##tic": 18737,
    "Natal": 19785,
    "intersection": 8239,
    "Mathews": 9987,
    "ã": 134,
    "ヴ": 695,
    "emp": 7466,
    "attached": 7829,
    "Stav": 10389,
    "##itty": 14662,
    "cow": 15854,
    "governors": 19540,
    "ễ": 537,
    "##oust": 10632,
    "Cantrell": 12577,
    "grammar": 15801,
    "times": 3138,
    "bre": 2814,
    "8th": 7665,
    "recept": 11929,
    "expans": 18881,
    "Apr": 2756,
    "tell": 7969,
    "##ه": 1132,
    "Working": 16552,
    "1934": 10287,
    "##adi": 10635,
    "spread": 5766,
    "Brighton": 16178,
    "manoe": 15962,
    "Harr": 11586,
    "resist": 7877,
    "Between": 6934,
    "sharp": 10156,
    "Sey": 13226,
    "##ilding": 7625,
    "##enson": 12669,
    "##arn": 3763,
    "##ively": 2724,
    "poet": 4849,
    "Nile": 19974,
    "##bles": 8143,
    "controls": 11224,
    "borders": 13934,
    "Gwend": 13949,
    "Jamal": 7119,
    "pot": 4340,
    "Pars": 19262,
    "##arthy": 12382,
    "##tar": 13491,
    "instruments": 9508,
    "Formation": 12947,
    "##CC": 9215,
    "л": 307,
    "heat": 9554,
    "overt": 10534,
    "especially": 4371,
    "Soviet": 5125,
    "prolong": 14764,
    "Rico": 14821,
    "tide": 16731,
    "unprecedented": 19181,
    "ep": 2257,
    "stages": 6994,
    "##heastern": 6831,
    "Battle": 4964,
    "Sant": 9706,
    "Gor": 14809,
    "occupies": 15672,
    "editors": 16008,
    "summer": 4677,
    "motivated": 18424,
    "69": 7663,
    "palace": 15729,
    "##emy": 3617,
    "flash": 10057,
    "ISB": 9907,
    "##Mont": 5898,
    "historic": 8002,
    "Oric": 17647,
    "real": 3003,
    "##oman": 2511,
    "##cade": 16287,
    "hel": 2677,
    "univers": 6010,
    "remainder": 7797,
    "spent": 4405,
    "##oon": 3232,
    "fleet": 4626,
    "Gran": 17324,
    "Member": 17637,
    "everywhere": 18393,
    "1952": 7225,
    "17th": 6886,
    "##フ": 1330,
    "thirds": 14953,
    "peace": 5586,
    "whatever": 13756,
    "##erto": 11333,
    "##iac": 9632,
    "elections": 9967,
    "##agers": 12250,
    "surn": 18722,
    "guy": 15621,
    "running": 4502,
    "##airs": 6392,
    "陈": 980,
    "51": 5346,
    "swim": 10826,
    "che": 4022,
    "regarding": 7318,
    "noting": 7982,
    "precious": 18473,
    "refer": 3022,
    "aer": 7132,
    "##board": 3851,
    "pass": 2556,
    "四": 753,
    "soldiers": 4882,
    "Greg": 6977,
    "elevation": 11246,
    "sprit": 18289,
    "attributes": 14771,
    "locations": 7629,
    "Ⴟ": 473,
    "1915": 7938,
    "WN": 10610,
    "##ellow": 3891,
    "Northern": 4885,
    "Commission": 6179,
    "Nation": 16690,
    "##inn": 2358,
    "swit": 14121,
    "Panz": 10734,
    "Yah": 19282,
    "rep": 2971,
    "##endra": 19465,
    "campaign": 3560,
    "##asant": 15904,
    "West": 3123,
    "admin": 11511,
    "Knights": 15041,
    "Wilde": 8242,
    "compar": 6620,
    "194": 2393,
    "significant": 3373,
    "##dney": 10757,
    "##arc": 13739,
    "##omic": 12075,
    "tempo": 13341,
    "Siege": 17657,
    "##cover": 11912,
    "Notes": 18439,
    "##ν": 1305,
    "rearguard": 16534,
    "beneficial": 18493,
    "audition": 11819,
    "園": 755,
    "marketing": 12164,
    "sawm": 18423,
    "Beau": 11498,
    "Reaction": 18398,
    "ann": 2609,
    "ด": 435,
    "Eu": 9700,
    "naturally": 14003,
    "dut": 6168,
    "##iped": 9139,
    "##aring": 4603,
    "adventure": 9662,
    "Jasper": 19190,
    "Lon": 19245,
    "pest": 15183,
    "Franz": 14640,
    "underway": 18319,
    "loses": 16717,
    "suggestion": 14154,
    "##wn": 2027,
    "##ataka": 18244,
    "improving": 14431,
    "appearing": 8045,
    "Chan": 12093,
    "mph": 4132,
    "Timb": 13989,
    "##echan": 5752,
    "Suz": 17356,
    "gras": 15984,
    "Su": 3216,
    "Tatt": 19988,
    "##OT": 7445,
    "speaks": 17008,
    "≤": 582,
    "susp": 5371,
    "unre": 13295,
    "Rajam": 12786,
    "Sylv": 15492,
    "颜": 994,
    "bunk": 15849,
    "upper": 4985,
    "##enton": 15908,
    "narrowly": 16988,
    "entity": 18367,
    "crit": 2431,
    "Fleet": 6164,
    "52": 5569,
    "coord": 8614,
    "Mar": 2129,
    "Machine": 12572,
    "##asco": 12641,
    "jail": 17687,
    "commissioner": 17919,
    "Sleaford": 17051,
    "Broncos": 15128,
    "strategy": 10171,
    "way": 2837,
    "Ud": 17662,
    "Cinc": 18117,
    "gully": 19298,
    "##rug": 7459,
    "ツ": 665,
    "lit": 7818,
    "78": 9329,
    "next": 2973,
    "assemb": 7690,
    "Glasgow": 15799,
    "Ku": 14813,
    "CAT": 15463,
    "##ean": 9452,
    "widely": 5402,
    "##uations": 11910,
    "repr": 2915,
    "miss": 3805,
    "bas": 2205,
    "キ": 650,
    "Paralymp": 10003,
    "bind": 10017,
    "##ง": 1431,
    "Jif": 8071,
    "##airn": 14079,
    "tribe": 16941,
    "largely": 4660,
    "Mode": 17132,
    "ت": 356,
    "##ruct": 2488,
    "1998": 4908,
    "Committee": 7782,
    "punt": 12057,
    "##ancouver": 17824,
    "##olis": 11454,
    "N": 49,
    "Boulevard": 18559,
    "Mexican": 9312,
    "remembered": 15402,
    "真": 899,
    "Atlét": 12330,
    "opposing": 12132,
    "##あ": 1556,
    "York": 2723,
    "140": 9236,
    "##hang": 9349,
    "##â": 1091,
    "superstructure": 19166,
    "que": 10031,
    "Som": 3498,
    "pione": 13667,
    "Arms": 16381,
    "escape": 7188,
    "going": 4351,
    "31": 3551,
    "Holocaust": 12343,
    "##olved": 6770,
    "reading": 8623,
    "Hereford": 15391,
    "##arez": 18836,
    "Not": 4205,
    "217": 16030,
    "petition": 13176,
    "mim": 16719,
    "cosm": 11594,
    "同": 744,
    "primary": 4764,
    "eliminate": 13630,
    "relative": 8756,
    "BP": 19220,
    "prehist": 16378,
    "envelope": 15115,
    "ability": 5832,
    "overall": 4924,
    "夕": 762,
    "build": 2711,
    "encourage": 16109,
    "Pick": 17140,
    "##amps": 8843,
    "##ะ": 1423,
    "vassal": 19870,
    "Cushing": 19930,
    "months": 3619,
    "Digital": 10858,
    "玄": 882,
    "sword": 12929,
    "rev": 2232,
    "daughter": 4913,
    "victorious": 14966,
    "##ま": 1544,
    "Houston": 10221,
    "cats": 13235,
    "Mothers": 14766,
    "09": 9113,
    "##ntil": 2450,
    "German": 2657,
    "Sarnia": 5918,
    "##herry": 10913,
    "particularly": 3926,
    "##western": 9453,
    "bombard": 9320,
    "##ფ": 1486,
    "related": 4545,
    "crown": 7964,
    "reflects": 14449,
    "##ก": 1618,
    "##tty": 7563,
    "rebell": 11086,
    "leader": 6594,
    "1973": 7308,
    "カ": 648,
    "Tomita": 16950,
    "Secondary": 18466,
    "experiencing": 19013,
    "anthology": 19748,
    "1905": 9964,
    "curric": 18176,
    "quiet": 12481,
    "##懷": 1593,
    "##mate": 9633,
    "1969": 6960,
    "1922": 10953,
    "Reines": 12327,
    "jam": 15508,
    "##otation": 17751,
    "Andh": 18372,
    "customer": 19053,
    "40": 3646,
    "regener": 19487,
    "Tor": 4025,
    "##iv": 1760,
    "Alexander": 7802,
    "View": 18682,
    "wors": 11302,
    "Cory": 8258,
    "wrong": 8312,
    "pupp": 9098,
    "dull": 14288,
    "ư": 205,
    "highlights": 15267,
    "suburbs": 17280,
    "soci": 11160,
    "Rhy": 15158,
    "cave": 10740,
    "acute": 11207,
    "fragilis": 16992,
    "cliffs": 19453,
    "Graves": 18889,
    "Feelings": 17551,
    "##ricted": 9291,
    "Plat": 9152,
    "politicians": 12718,
    "Sholay": 9231,
    "##aft": 11022,
    "##ruli": 7565,
    "stake": 18779,
    "Hi": 15469,
    "compares": 17262,
    "your": 6114,
    "##殿": 1237,
    "Oil": 17136,
    "damages": 14396,
    "excl": 6443,
    "outp": 15967,
    "##ʒ": 1481,
    "€": 575,
    "##adelphia": 6399,
    "Game": 3815,
    "##enant": 5853,
    "Sarajevo": 8062,
    "veget": 8197,
    "character": 2587,
    "##ZAC": 14315,
    "@,@": 2017,
    "fif": 3630,
    "museums": 15711,
    "##irl": 3846,
    "Dennis": 11880,
    "dynamic": 12758,
    "##ready": 4233,
    "Jackets": 11079,
    "##rehens": 10378,
    "Mod": 6682,
    "Ll": 6611,
    "Pale": 18669,
    "##ṯ": 1249,
    "##zco": 19361,
    "##otenic": 18263,
    "Nor": 5100,
    "أ": 351,
    "superst": 14701,
    "##わ": 1498,
    "broken": 6155,
    "helicop": 9385,
    "Hits": 18647,
    "transfer": 4230,
    "Lock": 5820,
    "ხ": 504,
    "vessel": 9687,
    "Sac": 13023,
    "##asma": 15550,
    "advantage": 5916,
    "##drop": 17714,
    "sperm": 15225,
    "supplied": 14740,
    "authent": 17410,
    "Iran": 19612,
    "##els": 2370,
    "bus": 3664,
    "##ued": 2432,
    "branches": 14657,
    "##NA": 4919,
    "sexuality": 12543,
    "bal": 8734,
    "##iciently": 11118,
    "1894": 13357,
    "##aimed": 13337,
    "##aunton": 17364,
    "knuckleball": 17599,
    "##lying": 7615,
    "dropped": 6602,
    "diet": 8966,
    "Gener": 3112,
    "diagnosed": 16606,
    "##ene": 3076,
    "Piano": 18671,
    "Kicking": 17632,
    "foss": 10366,
    "Pe": 4163,
    "avoided": 12911,
    "##holm": 15748,
    "severely": 9378,
    "organization": 6332,
    "Lat": 13974,
    "##bits": 13258,
    "tough": 15551,
    "reassigned": 15773,
    "##iet": 2313,
    "varieties": 16010,
    "##ue": 1891,
    "subtle": 19076,
    "166": 9232,
    "located": 3547,
    "Canal": 9754,
    "##ational": 2145,
    "resembles": 16548,
    "benefits": 19050,
    "##uses": 8454,
    "Sclerodermatineae": 19896,
    "dominated": 7319,
    "weakness": 13626,
    "Francisc": 7322,
    "elect": 3458,
    "failed": 4356,
    "credited": 7707,
    "Hell": 7711,
    "Artillery": 13869,
    "shoots": 15353,
    "remaster": 15973,
    "ą": 163,
    "Rut": 13700,
    "drummer": 15698,
    "ranging": 9885,
    "hardcover": 18974,
    "扈": 813,
    "gravitational": 19732,
    "##ble": 2674,
    "floor": 6999,
    "Aircraft": 12915,
    "Ham": 3514,
    "pl": 1852,
    "loyalty": 15089,
    "deeper": 16795,
    "uneven": 17257,
    "##avern": 17482,
    "##ison": 2909,
    "University": 3278,
    "uncle": 14437,
    "pressing": 16913,
    "Tower": 8508,
    "御": 803,
    "filed": 13719,
    "spawned": 15428,
    "光": 721,
    "Govern": 4162,
    "doubled": 17454,
    "##ل": 1130,
    "Bill": 3607,
    "Creek": 4478,
    "Charmbracelet": 12584,
    "flee": 15058,
    "##ogenesis": 17251,
    "removing": 15011,
    "##abil": 7507,
    "bom": 10884,
    "stingray": 14031,
    "Huizong": 19701,
    "נ": 342,
    "##enstein": 17738,
    "##onents": 5690,
    "Utt": 17663,
    "##ief": 3397,
    "##inent": 9546,
    "NOK": 14272,
    "regards": 18321,
    "##asa": 11917,
    "educated": 15335,
    "concludes": 15348,
    "poverty": 15126,
    "Money": 16477,
    "drink": 14675,
    "##ệ": 1225,
    "##ial": 1915,
    "entire": 3505,
    "##ita": 3952,
    "Cemetery": 13964,
    "夫": 765,
    "Plains": 16428,
    "advoc": 11217,
    "habitat": 7379,
    "灼": 876,
    "##official": 17377,
    "being": 2252,
    "Got": 11281,
    "seap": 18793,
    "##osomes": 14333,
    "Education": 9423,
    "associate": 14424,
    "peaking": 10537,
    "##abama": 6032,
    "##reat": 2131,
    "##icop": 9059,
    "Hutch": 14545,
    "Loy": 13220,
    "pregnant": 11704,
    "sailed": 10893,
    "march": 12709,
    "Oslo": 7649,
    "junction": 12832,
    "##ored": 2648,
    "Wey": 15165,
    "Amp": 16661,
    "assessment": 17060,
    "##ipal": 4789,
    "lives": 6062,
    "##ṅ": 1398,
    "fle": 7101,
    "Eug": 12587,
    "tree": 6827,
    "Cyclone": 17611,
    "lengths": 17904,
    "Flem": 18048,
    "dred": 18178,
    "highest": 4151,
    "compr": 6512,
    "nursery": 15762,
    "##ner": 2960,
    "Later": 4192,
    "Hollow": 17123,
    "phenomenon": 14509,
    "reviewer": 8473,
    "##encies": 8554,
    "harbor": 15357,
    "Horus": 18130,
    "voters": 19034,
    "##aceous": 11045,
    "##ishers": 19020,
    "quar": 3745,
    "needs": 9090,
    "discovers": 13802,
    "##ese": 6729,
    "walking": 11691,
    "concentrations": 14734,
    "花": 922,
    "cl": 1930,
    "firms": 19443,
    "¿": 113,
    "##cer": 7822,
    "Judith": 14192,
    "tent": 13048,
    "Islam": 17494,
    "McD": 10550,
    "##20": 11448,
    "paran": 17822,
    "tale": 10371,
    "couldn": 12302,
    "bor": 9046,
    "Oxford": 6854,
    "##unction": 6874,
    "1930s": 7412,
    "Buck": 11271,
    "##te": 2054,
    "conquered": 15076,
    "##rant": 8199,
    "##ML": 6351,
    "##illa": 3705,
    "##aints": 9832,
    "reward": 12447,
    "upr": 15521,
    "##umes": 6228,
    "brass": 17304,
    "##og": 1895,
    "Picture": 17042,
    "Food": 11135,
    "ă": 162,
    "##rough": 2056,
    "##byter": 10549,
    "##utes": 3714,
    "##ictionary": 16929,
    "negatively": 18433,
    "Ⴂ": 468,
    "hypothes": 12776,
    "Abb": 7742,
    "large": 2626,
    "ย": 443,
    "custom": 8796,
    "Chen": 8259,
    "education": 5176,
    "Author": 11414,
    "amateur": 9565,
    "/": 18,
    "Charan": 14679,
    "##ality": 7209,
    "Holl": 9333,
    "factor": 11968,
    "Archer": 13540,
    "##隊": 1215,
    "do": 2247,
    "share": 6230,
    "wartime": 17572,
    "logo": 18462,
    "5": 24,
    "Apple": 5931,
    "opted": 15517,
    "divers": 8817,
    "derives": 16956,
    "usage": 10269,
    "Kong": 9804,
    "Alberta": 11254,
    "Tommy": 11829,
    "Pall": 17649,
    "exceptions": 18975,
    "Rub": 13701,
    "minutes": 4644,
    "10": 2250,
    "##aughter": 15295,
    "Dark": 8648,
    "Guy": 8548,
    "boss": 13714,
    "##boards": 13918,
    "宋": 773,
    "leukemic": 18002,
    "Fran": 10793,
    "Jai": 15473,
    "Ly": 7756,
    "##roup": 2447,
    "compact": 17261,
    "Bolton": 15033,
    "Clinton": 10949,
    "tactics": 10213,
    "Ahk": 16620,
    "restoration": 9850,
    "positively": 11477,
    "posts": 12720,
    "FAU": 16994,
    "##inned": 16406,
    "Rum": 18143,
    "##uate": 7066,
    "parasites": 15754,
    "Institute": 6410,
    "D": 39,
    "##uez": 9934,
    "pointed": 8406,
    "Domin": 6819,
    "Want": 12827,
    "|": 94,
    "accus": 13316,
    "comedy": 6148,
    "##iography": 19346,
    "theology": 16766,
    "heavy": 3715,
    "accompanied": 7245,
    "Bridge": 7001,
    "ც": 500,
    "regular": 3835,
    "##raz": 11319,
    "Ruth": 13983,
    "##lesiast": 16832,
    "medal": 12131,
    "Auburn": 12801,
    "Shaolin": 13912,
    "Reports": 17899,
    "Master": 7859,
    "sett": 3460,
    "Carr": 14081,
    "foundations": 19502,
    "Tex": 4888,
    "Appl": 15005,
    "##uff": 4814,
    "##uating": 12066,
    "154": 12297,
    "advers": 16869,
    "##irts": 11919,
    "1837": 15668,
    "⚳": 589,
    "expecting": 16004,
    "intens": 4187,
    "Starr": 18804,
    "##eller": 5742,
    "Scots": 12897,
    "ภ": 441,
    "serving": 7010,
    "though": 2480,
    "Wolf": 8587,
    "##ayette": 17756,
    "Trinity": 13328,
    "##ides": 2758,
    "Tim": 7290,
    "dams": 10667,
    "Veracruz": 10864,
    "monit": 12684,
    "Raw": 15837,
    "pounder": 11861,
    "Variety": 18973,
    "##女": 1095,
    "bridge": 5951,
    "highly": 5298,
    "renewed": 12380,
    "##ience": 2851,
    "##izing": 5383,
    "##ena": 5493,
    "Support": 15102,
    "ג": 332,
    "##gge": 19356,
    "Charles": 4533,
    "Within": 7944,
    "layers": 13615,
    "jav": 15509,
    "##ation": 1775,
    "looking": 6485,
    "1936": 7226,
    "##ischer": 14967,
    "apprent": 15958,
    "jokes": 17688,
    "consoles": 19481,
    "monks": 19501,
    "console": 13788,
    "serial": 8683,
    "Seg": 15159,
    "##oshi": 18277,
    "prominent": 6341,
    "Po": 5140,
    "##acon": 12443,
    "forever": 15210,
    "##itsu": 12108,
    "Dep": 4930,
    "status": 5084,
    "Get": 15140,
    "Stevens": 7748,
    "dorsal": 17097,
    "trivial": 17248,
    "瓊": 891,
    "analog": 18280,
    "Si": 8192,
    "unemploy": 15239,
    "##ška": 19369,
    "Anglican": 19881,
    "Lod": 19957,
    "J": 45,
    "Hills": 10351,
    "centered": 12671,
    "Stev": 4489,
    "##ype": 5656,
    "legal": 5790,
    "Ec": 13454,
    "contracted": 15001,
    "warships": 15398,
    "Max": 5932,
    "leukemia": 11563,
    "operated": 6484,
    "Hun": 8726,
    "predators": 9862,
    "vertical": 10711,
    "sand": 6347,
    "queen": 11872,
    "##न": 1540,
    "sensitive": 13167,
    "unpopular": 16650,
    "erosion": 17163,
    "##cean": 4656,
    "envisioned": 19199,
    "Journ": 6108,
    "inhabit": 8492,
    "##stitution": 8785,
    "comb": 3247,
    "winning": 4341,
    "nu": 18193,
    "carving": 18348,
    "opener": 19637,
    "collective": 16012,
    "Raymond": 13175,
    "ọ": 540,
    "District": 7162,
    "##ile": 1974,
    "190": 3291,
    "##urricane": 2958,
    "fertil": 12991,
    "##ikh": 14362,
    "syll": 15988,
    "staging": 18265,
    "seeks": 18492,
    "probability": 19620,
    "Allies": 17321,
    "they": 1999,
    "doctors": 19049,
    "##roy": 3066,
    "##rov": 13066,
    "ח": 336,
    "Dodge": 19798,
    "Outer": 19976,
    "運": 956,
    "AR": 8185,
    "worlds": 19553,
    "Angeles": 5882,
    "ʁ": 226,
    "##ade": 1992,
    "##信": 1469,
    "Road": 3428,
    "Mu": 6861,
    "sleep": 12973,
    "eleventh": 13622,
    "giant": 9714,
    "demonstration": 14162,
    "reports": 5924,
    "astronomical": 16150,
    "ι": 267,
    "purs": 5327,
    "extraordinary": 15439,
    "Combined": 17047,
    "ATP": 12575,
    "orig": 2366,
    "boy": 6498,
    "Rajamouli": 13440,
    "commitment": 15085,
    "steel": 8860,
    "district": 7585,
    "##assador": 9839,
    "discuss": 4171,
    "feed": 9145,
    "Karam": 15369,
    "##egosaur": 15598,
    "Rosberg": 15042,
    "sulfide": 16579,
    "≡": 581,
    "58": 8646,
    "Blood": 9300,
    "##iam": 2391,
    "McLaren": 13657,
    "examples": 8487,
    "##í": 1110,
    "lacked": 12335,
    "##mers": 13733,
    "##estine": 19417,
    "unpop": 15378,
    "learned": 7421,
    "narrative": 9099,
    "Mort": 11144,
    "##iscus": 11665,
    "alternative": 8424,
    "Innis": 6102,
    "receive": 7520,
    "genres": 13578,
    "##ural": 2610,
    "overs": 5686,
    "grave": 11209,
    "##ines": 2274,
    "circulated": 16049,
    "Partington": 12339,
    "leg": 2922,
    "books": 5042,
    "sins": 18205,
    "pays": 18720,
    "##niowiec": 9326,
    "Gameplay": 16483,
    "Ukrain": 18572,
    "##正": 1421,
    "instruct": 8543,
    "requests": 16448,
    "##vis": 10758,
    "曦": 834,
    "siblings": 13001,
    "sympt": 11559,
    "nin": 5718,
    "renamed": 7746,
    "colleagues": 10458,
    "revival": 11638,
    "RedOct": 16932,
    "Internet": 11570,
    "Fil": 14256,
    "half": 3063,
    "attack": 2616,
    "particular": 3105,
    "##ches": 3134,
    "immediately": 5322,
    "##ilty": 10042,
    "pneum": 18202,
    "Truj": 7805,
    "Meteorological": 12197,
    "grayish": 19782,
    "戦": 812,
    "s": 86,
    "temperature": 6427,
    "communities": 8229,
    "surviving": 8622,
    "belt": 9299,
    "IA": 12036,
    "Event": 9962,
    "##asha": 11216,
    "##い": 1207,
    "##uedoc": 12694,
    "#": 6,
    "Nf": 13458,
    "##athus": 5518,
    "mutual": 13919,
    "rim": 19314,
    "##ن": 1467,
    "Mem": 6721,
    "##stone": 5606,
    "admitted": 8412,
    "2015": 3675,
    "Club": 5196,
    "declare": 19598,
    "independ": 4285,
    "AI": 5325,
    "Miss": 3245,
    "##ises": 4372,
    "##taining": 8026,
    "##Far": 15897,
    "other": 2002,
    "rises": 15188,
    "Only": 6544,
    "tears": 17700,
    "muscle": 17948,
    "basement": 15605,
    "Bono": 8247,
    "mound": 16262,
    "]": 64,
    "professor": 10820,
    "Church": 3108,
    "Mau": 19965,
    "audiences": 9864,
    "investigate": 14729,
    "##grounds": 19595,
    "Return": 11554,
    "##key": 8449,
    "Blofeld": 19911,
    "Cort": 16665,
    "Const": 7309,
    "##yclone": 16560,
    "##ys": 5825,
    "Thaksin": 19461,
    "appears": 4848,
    "##ived": 2216,
    "were": 1828,
    "composition": 7042,
    "##uing": 4613,
    "##oor": 4504,
    "Review": 5814,
    "Anth": 6273,
    "jump": 6383,
    "163": 9743,
    "Id": 6434,
    "Gerry": 17834,
    "Ferb": 17949,
    "##ind": 2038,
    "musician": 9569,
    "Stewart": 9605,
    "##imony": 5223,
    "##kinson": 17476,
    "Currently": 18119,
    "GB": 17116,
    "put": 3463,
    "foot": 3102,
    "FITs": 14788,
    "Ottomans": 18611,
    "Cong": 4204,
    "relate": 19454,
    "operate": 9475,
    "Red": 3756,
    "Bennett": 10990,
    "material": 4002,
    "adapted": 7905,
    "Admiral": 8644,
    "##icz": 16774,
    "Albert": 7217,
    "##ut": 1774,
    "styl": 10385,
    "##iri": 10637,
    "Cardinals": 19060,
    "mayor": 12493,
    "Rober": 3420,
    "plagiar": 19143,
    "##ingale": 8206,
    "non": 3648,
    "##wyn": 18750,
    "feder": 6061,
    "Back": 4999,
    "Soon": 9535,
    "pilot": 7378,
    "ナ": 670,
    "cou": 3367,
    "Richardson": 8632,
    "##huveer": 16547,
    "nort": 3163,
    "admired": 17877,
    "ser": 2008,
    "##ṃ": 1558,
    "Cottam": 17574,
    "Company": 3585,
    "Å": 116,
    "其": 724,
    "2012": 3176,
    "director": 3869,
    "##say": 14305,
    "puppets": 16149,
    "fro": 17676,
    "through": 2161,
    "##ón": 4893,
    "##imore": 6065,
    "challenged": 14484,
    "protests": 8471,
    "##life": 9278,
    "Zrínyi": 15803,
    "##ף": 1258,
    "dirt": 18179,
    "gases": 18700,
    "##otes": 8327,
    "preserve": 12689,
    "X": 59,
    "need": 3423,
    "Crab": 11970,
    "disappearance": 19087,
    "News": 5949,
    "77": 7287,
    "Apost": 15720,
    "Self": 17147,
    "optim": 15379,
    "Upper": 10879,
    "transported": 12348,
    "phr": 9484,
    "Maya": 11647,
    "install": 9945,
    "studies": 5362,
    "mother": 3632,
    "profile": 10188,
    "arrives": 13334,
    "dominant": 10199,
    "cultures": 16036,
    "͍": 246,
    "か": 597,
    "Rem": 8131,
    "needed": 5365,
    "##uras": 16317,
    "god": 3306,
    "bugs": 18695,
    "Spirit": 17078,
    "prop": 3069,
    "1852": 16052,
    "End": 6139,
    "lateral": 18842,
    "##mar": 3616,
    "unusually": 15054,
    "embark": 18442,
    "oblig": 19752,
    "Mh": 12820,
    "communications": 10818,
    "Lyn": 11888,
    "experi": 5120,
    "online": 9062,
    "Austrian": 12496,
    "選": 959,
    "##錄": 1591,
    "Mun": 9441,
    "managers": 17872,
    "bound": 4870,
    "popul": 12109,
    "homeless": 19040,
    "inflicted": 15292,
    "##Y": 1076,
    "##gnine": 18990,
    "turned": 4288,
    "plann": 4020,
    "badly": 9980,
    "continu": 12491,
    "i": 76,
    "golden": 11525,
    "Jackie": 17874,
    "Р": 292,
    "##y": 1015,
    "dollar": 7281,
    "vest": 18208,
    "##rae": 11470,
    "##aught": 5014,
    "Fant": 6073,
    "Croatian": 7850,
    "##ict": 2153,
    "##er": 1715,
    "decoration": 14067,
    "outer": 6794,
    "##andon": 4773,
    "lyric": 4549,
    "##powder": 17706,
    "##ancing": 6924,
    "misc": 18190,
    "where": 2192,
    "assisted": 10276,
    "##ause": 2293,
    "view": 2929,
    "lad": 11744,
    "appreciated": 17528,
    "extrat": 10663,
    "##ume": 4219,
    "Assist": 14965,
    "attained": 9937,
    "Paris": 5198,
    "##iers": 3489,
    "転": 952,
    "relations": 3468,
    "move": 3764,
    "##aven": 4605,
    "Te": 4823,
    "Rev": 3735,
    "\\": 63,
    "Exper": 12722,
    "judg": 15354,
    "Bile": 18113,
    "targeted": 13903,
    "unnecessary": 18615,
    "edition": 6017,
    "##و": 1507,
    "##川": 1578,
    "development": 3357,
    "indicate": 7799,
    "##we": 2042,
    "terminus": 8620,
    "province": 8848,
    "Enterprise": 9095,
    "##nership": 10498,
    "Y": 60,
    "Econom": 11583,
    "kill": 2882,
    "##ensively": 11938,
    "conception": 15691,
    "##imately": 3402,
    "extended": 5246,
    "NDH": 10356,
    "DAG": 9258,
    "rivers": 9811,
    "vir": 11163,
    "wine": 9450,
    "Transit": 17931,
    "##rium": 18282,
    "arranged": 7648,
    "theaters": 16123,
    "guards": 18362,
    "hides": 19303,
    "republic": 19569,
    "##pper": 4266,
    "Vill": 6534,
    "##lex": 3529,
    "celeb": 4721,
    "portray": 9876,
    "screen": 4620,
    "genius": 19589,
    "income": 8839,
    "ュ": 687,
    "##ework": 11771,
    "Welling": 11149,
    "Quar": 15665,
    "##aw": 2098,
    "##CA": 8381,
    "events": 3425,
    "critical": 4748,
    "Rook": 13982,
    "##olph": 13511,
    "partner": 10163,
    "##ʃ": 1177,
    "mov": 2193,
    "fre": 3146,
    "honor": 6629,
    "##ikk": 11044,
    "Prairie": 19895,
    "55": 6185,
    "Vol": 7494,
    "##other": 2273,
    "semi": 6632,
    "##خ": 1650,
    "obtained": 8690,
    "escorted": 16591,
    "carri": 10282,
    "instructions": 17035,
    "society": 6096,
    "##orage": 12073,
    "binding": 13937,
    "Pengu": 19879,
    "details": 7415,
    "Esc": 18641,
    "##ć": 1099,
    "guided": 17840,
    "envision": 17427,
    "##osphere": 17870,
    "long": 2355,
    "##ば": 1263,
    "##ã": 1266,
    "aut": 4369,
    "##ivers": 2397,
    "Season": 10100,
    "Confessions": 14736,
    "##inates": 18241,
    "Kitty": 18134,
    "mounted": 6672,
    "rushing": 11441,
    "advancing": 10666,
    "belief": 6666,
    "##ā": 1041,
    "##zona": 12069,
    "Vick": 16246,
    "late": 2729,
    "belong": 6238,
    "Gab": 7059,
    "Twenty": 11243,
    "pin": 12056,
    "shows": 4277,
    "Boys": 11418,
    "1878": 12344,
    "endangered": 17279,
    "measured": 9773,
    "Hilda": 19949,
    "##acco": 15556,
    "ム": 684,
    "け": 603,
    "girl": 4890,
    "halted": 13114,
    "live": 3678,
    "德": 804,
    "evil": 8685,
    "113": 9380,
    "##tz": 11909,
    "##enting": 15553,
    "##ement": 2302,
    "forces": 3198,
    "myself": 12323,
    "inducted": 13094,
    "subt": 7511,
    "career": 2991,
    "##bi": 13729,
    "regiments": 14911,
    "twin": 10679,
    "owing": 16587,
    "Tepe": 19993,
    "Num": 18666,
    "Gre": 6280,
    "negot": 7085,
    "##eler": 3867,
    "##elf": 2390,
    "pushed": 8887,
    "Stein": 19046,
    "##urved": 19385,
    "responsibility": 8861,
    "##M": 1061,
    "released": 2502,
    "Ben": 4784,
    "##olid": 9825,
    "Hern": 14544,
    "beats": 11459,
    "F": 41,
    "Initially": 9894,
    "dy": 19289,
    "RI": 12218,
    "##ъ": 1300,
    "##ibilities": 12666,
    "demise": 18383,
    "##eneg": 13265,
    "tunnel": 9888,
    "##orship": 5612,
    "State": 3059,
    "dealing": 12942,
    "ha": 10493,
    "demolished": 10986,
    "##ioc": 17190,
    "aware": 10090,
    "critically": 17307,
    "risk": 6384,
    "##irp": 18261,
    "Gaga": 17119,
    "specimens": 8309,
    "hoped": 8420,
    "##đ": 1069,
    "##ivals": 8088,
    "PC": 9703,
    "##eted": 10634,
    "##ネ": 1156,
    "importance": 7153,
    "horns": 16596,
    "##aternal": 17779,
    "##rol": 6064,
    "ჹ": 515,
    "compensate": 19131,
    "Madison": 10301,
    "hurricanes": 16259,
    "neutral": 10091,
    "Order": 8227,
    "##ector": 4178,
    "celebrations": 16964,
    "one": 1952,
    "Totten": 18154,
    "sporadic": 19842,
    "Tide": 12608,
    "Historical": 14741,
    "mud": 13245,
    "##oms": 3155,
    "Record": 9305,
    "roller": 11852,
    "Artist": 13606,
    "##while": 5881,
    "cyl": 14285,
    "hy": 3839,
    "##asty": 6199,
    "squad": 7279,
    "Long": 5178,
    "disappoin": 11099,
    "describ": 2444,
    "Force": 5564,
    "##少": 1094,
    "pages": 11016,
    "packed": 19313,
    "Vent": 19995,
    "##ez": 7032,
    "jury": 11295,
    "1928": 9389,
    "phys": 4254,
    "##大": 1661,
    "losing": 5999,
    "normal": 7160,
    "Margar": 11634,
    "##rí": 12235,
    "say": 6219,
    "installed": 9382,
    "steps": 11387,
    "sign": 2414,
    "Megan": 14983,
    "pier": 15874,
    "cartoon": 17040,
    "##owler": 4759,
    "transe": 19864,
    "##uries": 5260,
    "venom": 14743,
    "leased": 18295,
    "sparked": 19438,
    "colleges": 19084,
    "hollow": 17686,
    "sophomore": 19148,
    "ܢ": 382,
    "personnel": 7114,
    "Rooms": 18511,
    "outfit": 17056,
    "##state": 8898,
    "mor": 4724,
    "1981": 6778,
    "interpretation": 13426,
    "coinc": 10443,
    "sunk": 9275,
    "##ication": 4360,
    "tet": 15520,
    "microscop": 12976,
    "estimates": 14134,
    "##ford": 3201,
    "enj": 5225,
    "compete": 9582,
    "Ott": 4680,
    "<eos>": 3,
    "理": 888,
    "##rier": 7680,
    "Swiss": 10432,
    "##rift": 12448,
    "##š": 1241,
    "theft": 18757,
    "hospital": 6217,
    "val": 3531,
    "##pher": 16740,
    "Sur": 4711,
    "##enburg": 13266,
    "ratio": 13624,
    "examined": 13379,
    "Michael": 4063,
    "absolut": 13931,
    "Lope": 19961,
    "econom": 4319,
    "neck": 7478,
    "elaborate": 10586,
    "sick": 12231,
    "bats": 6725,
    "Shiban": 18334,
    "pra": 12655,
    "Portug": 4675,
    "translation": 10314,
    "08": 8724,
    "Corb": 9965,
    "goat": 18339,
    "leads": 7882,
    "88": 8066,
    "clock": 9142,
    "reflecting": 12748,
    "subs": 8277,
    "Amyl": 13342,
    "phylogen": 14098,
    "digging": 16709,
    "armor": 8702,
    "Vishnu": 14791,
    "neighborhoods": 15106,
    "brigades": 11213,
    "Jagannadh": 15800,
    "timeslot": 17869,
    "Anne": 10938,
    "remix": 6303,
    "valley": 7845,
    "believed": 3739,
    "##afts": 16464,
    "Memory": 16551,
    "##ifer": 8674,
    "acceler": 12290,
    "veto": 19326,
    "survive": 9490,
    "##odr": 10914,
    "gun": 2765,
    "Short": 6329,
    "Weir": 11072,
    "mobility": 17007,
    "##ear": 1824,
    "discovery": 8107,
    "ecosystem": 15393,
    "##ษ": 1619,
    "scenes": 5079,
    "resemb": 6618,
    "##orning": 4686,
    "affairs": 11967,
    "##ropri": 7514,
    "##lus": 11165,
    "т": 314,
    "participate": 11828,
    "cho": 7573,
    "BM": 12204,
    "##olia": 10148,
    "Several": 5095,
    "recalled": 8681,
    "meantime": 17422,
    "ル": 691,
    "hom": 6169,
    "environment": 6462,
    "Jap": 3196,
    "hero": 6412,
    "Perry": 7527,
    "Brothers": 15433,
    "##aen": 5409,
    "bombardment": 12987,
    "##ξ": 1571,
    "Cecily": 16152,
    "Adventure": 16554,
    "sample": 10752,
    "Jeffrey": 15719,
    "refers": 9160,
    "##mont": 10037,
    "custody": 18495,
    "##idge": 2952,
    "##ount": 2013,
    "ing": 9726,
    "demonstrated": 10204,
    "Belgian": 11240,
    "actions": 5614,
    "dispatched": 13944,
    "muzz": 18709,
    "kid": 11296,
    "##ula": 4085,
    "nickname": 14219,
    "traditional": 5071,
    "##ioned": 18253,
    "chall": 5189,
    "##overs": 5293,
    "##iations": 7033,
    "competing": 14414,
    "##igger": 13139,
    "nineteenth": 14510,
    "##anagi": 15414,
    "tail": 6645,
    "##isticated": 18419,
    "##itarian": 10419,
    "##iè": 13732,
    "blame": 15608,
    "Ś": 188,
    "originally": 3620,
    "helicopters": 14769,
    "##appy": 6558,
    "Marsh": 7988,
    "##स": 1614,
    "rebu": 7642,
    "##פ": 1282,
    "shots": 8680,
    "increas": 3019,
    "##utions": 5722,
    "Raj": 8584,
    "Má": 9118,
    "legislation": 9177,
    "arrest": 11343,
    "renowned": 17397,
    "##inity": 6616,
    "##0": 1055,
    "belonged": 13902,
    "firmly": 17014,
    "novel": 3485,
    "寺": 779,
    "ve": 3777,
    "Kem": 15474,
    "signed": 4170,
    "μ": 270,
    "Ders": 10866,
    "shown": 4544,
    "wines": 17701,
    "solitaire": 14688,
    "relocated": 15238,
    "millimet": 16857,
    "Florida": 3955,
    "f": 73,
    "ὑ": 554,
    "##isler": 9635,
    "phot": 5053,
    "lib": 14000,
    "megal": 15100,
    "Microsoft": 15782,
    "##usions": 15921,
    "family": 2828,
    "Isles": 12695,
    "##iob": 16748,
    "##ging": 5288,
    "ruled": 8057,
    "clothes": 11471,
    "anticipated": 15424,
    "placed": 4156,
    "roof": 7440,
    "Greatest": 13375,
    "Sarah": 14732,
    "##ificate": 16392,
    "ァ": 639,
    "Jewish": 4736,
    "##ening": 5411,
    "##nall": 12063,
    "McDou": 17523,
    "outnumbered": 18310,
    "accurately": 19088,
    "Away": 13960,
    "Public": 6533,
    "139": 14944,
    "Brazil": 7662,
    "Asomtav": 10168,
    "talk": 5208,
    "##idae": 8751,
    "##ritt": 15229,
    "##ully": 3679,
    "transformed": 13319,
    "bright": 8400,
    "##borough": 6894,
    "##二": 1313,
    "exceeding": 18568,
    "holotype": 16990,
    "Senate": 13164,
    "hill": 8136,
    "Side": 16699,
    "Ľ": 180,
    "fashion": 7390,
    "##ilm": 2118,
    "##ateur": 8090,
    "pes": 18715,
    "entrenched": 18883,
    "Independent": 8310,
    "##ancholy": 17897,
    "enroll": 12886,
    "offices": 9663,
    "##erv": 2510,
    "claims": 6366,
    "pregnancy": 11257,
    "Morning": 11889,
    "reachability": 19661,
    "旭": 827,
    "stable": 9219,
    "4th": 6464,
    "Schools": 19634,
    "ethn": 8643,
    "Filming": 13147,
    "bod": 10016,
    "##aser": 7725,
    "##zen": 8382,
    "Ost": 12043,
    "Career": 14236,
    "Ren": 10119,
    "ấ": 533,
    "chairman": 9417,
    "##rou": 1862,
    "##eenth": 17188,
    "bishop": 10125,
    "supp": 2258,
    "belongs": 15368,
    "##iating": 15890,
    "吳": 747,
    "games": 2821,
    "Prod": 5813,
    "cont": 1909,
    "##omet": 2687,
    "☉": 584,
    "##翠": 1223,
    "heads": 7739,
    "##āh": 12435,
    "considerably": 14447,
    "Haddock": 17085,
    "bag": 19285,
    "Web": 10236,
    "unt": 11442,
    "table": 8376,
    "Budd": 9523,
    "##agan": 6147,
    "##igon": 13514,
    "Galvest": 4720,
    "solic": 17865,
    "Portuguese": 5734,
    "declined": 7155,
    "disappear": 8117,
    "beautiful": 9604,
    "Sp": 2508,
    "visited": 6364,
    "transcription": 13099,
    "Guide": 9480,
    "##ar": 1723,
    "##ades": 3254,
    "Biography": 14483,
    "kingship": 15740,
    "winter": 6040,
    "sponsorship": 16124,
    "ֵ": 325,
    "##opter": 16793,
    "Bible": 10226,
    "wides": 7256,
    "euc": 16710,
    "Shapur": 17291,
    "indicated": 8537,
    "##born": 7395,
    "store": 7926,
    "Macl": 19622,
    "Ancients": 19745,
    "Oak": 12602,
    "##à": 1171,
    "trying": 7575,
    "##tery": 13512,
    "underneath": 16838,
    "knuckle": 17274,
    "Aug": 2541,
    "##ナ": 1180,
    "Brigade": 3812,
    "Somalia": 8638,
    "tubes": 12198,
    "worsh": 15422,
    "publ": 2237,
    "判": 729,
    "Om": 5598,
    "##gy": 2913,
    "tourn": 4939,
    "tactical": 15375,
    "participating": 15340,
    "circulation": 8858,
    "##icus": 11918,
    "contributing": 17483,
    "24": 3116,
    "northwest": 5990,
    "soul": 8269,
    "steadily": 12379,
    "labor": 7133,
    "##pat": 11908,
    "##ouri": 3932,
    "##anches": 11646,
    "subd": 11784,
    "editing": 17320,
    "regulation": 14910,
    "##ebru": 3110,
    "stay": 5471,
    "Djed": 6249,
    "豪": 944,
    "impr": 7351,
    "diplom": 9340,
    "##lio": 15196,
    "##iver": 2290,
    "##ო": 1275,
    "##olling": 6008,
    "##oring": 3811,
    "Jenn": 9265,
    "階": 984,
    "consumed": 16835,
    "Malaysia": 16189,
    "farmer": 18945,
    "Nuskhuri": 13225,
    "Val": 4064,
    "##ø": 1244,
    "awarded": 4904,
    "1850": 13133,
    "ּ": 329,
    "nav": 9273,
    "protagonist": 8497,
    "##ols": 5289,
    "McEl": 12795,
    "creature": 14990,
    "aircraft": 3843,
    "Marine": 7831,
    "Destroyer": 15429,
    "Vett": 14829,
    "Southern": 5507,
    "泣": 865,
    "Ireland": 3326,
    "Horse": 5774,
    "##ull": 2453,
    "seeing": 8413,
    "##@": 1065,
    "event": 2826,
    "Category": 9903,
    "##ae": 2727,
    "220": 12137,
    "steal": 13515,
    "millions": 14658,
    "Brook": 7313,
    "Mass": 6025,
    "Khan": 11366,
    "156": 14385,
    "leagues": 13531,
    "1888": 14702,
    "swimming": 15412,
    "Mansfield": 17639,
    "Paper": 19263,
    "crazy": 19888,
    "·": 110,
    "##order": 4801,
    "FIBA": 17914,
    "Ton": 8656,
    "citizen": 19093,
    "northeast": 5791,
    "conceived": 13907,
    "##onic": 8383,
    "textile": 19018,
    "##ansfield": 10926,
    "Mrs": 9873,
    "Fernandez": 11568,
    "persons": 12530,
    "##ps": 2965,
    "independence": 7087,
    "algorithm": 19852,
    "quality": 5545,
    "beginning": 4462,
    "Clair": 14092,
    "died": 3406,
    "jumping": 13628,
    "##hink": 18734,
    "conventions": 18901,
    "##aza": 10405,
    "Chr": 2540,
    "ins": 3409,
    "following": 2600,
    "program": 3256,
    "ち": 613,
    "Meyer": 5231,
    "Derfflinger": 11575,
    "Library": 11590,
    "Terrorist": 13609,
    "dropping": 15014,
    "Hospital": 8727,
    "knowing": 16925,
    "##ž": 1080,
    "Individual": 16656,
    "##tered": 5395,
    "##icles": 18767,
    "##urethane": 18813,
    "Reclamation": 18909,
    "benef": 6374,
    "Portsmouth": 19191,
    "kindergarten": 19905,
    "tension": 14849,
    "##ighters": 11465,
    "Zhou": 5823,
    "af": 11151,
    "cooking": 14286,
    "##asi": 19381,
    "##run": 14857,
    "surg": 9740,
    "##れ": 1407,
    "##uki": 10761,
    "##判": 1566,
    "Keith": 11088,
    "Nov": 2705,
    "Tit": 11007,
    "##ist": 1820,
    "1824": 19680,
    "pointing": 14397,
    "##cepts": 16788,
    "passages": 12703,
    "commentators": 13849,
    "Ob": 14551,
    "Step": 6267,
    "fulf": 11434,
    "Ferdinand": 13954,
    "extra": 6236,
    "committed": 9076,
    "memoir": 13868,
    "ộ": 543,
    "carries": 11060,
    "Terry": 13377,
    "##ough": 1958,
    "rising": 10750,
    "Dover": 11133,
    "##urers": 13064,
    "charter": 8040,
    "barometric": 16045,
    "Diane": 17076,
    "provides": 7410,
    "##ent": 1743,
    "longest": 7223,
    "flew": 12005,
    "pir": 14578,
    "â": 133,
    "##ancy": 5905,
    "mushroom": 8010,
    "compound": 9841,
    "Ah": 11412,
    "##rd": 4238,
    "arrangements": 11986,
    "estates": 16409,
    "##sel": 3922,
    "##ct": 1812,
    "select": 10688,
    "disabled": 14058,
    "##ooth": 8447,
    "Shah": 18333,
    "lies": 10745,
    "Historic": 9513,
    "necessarily": 16524,
    "dw": 19290,
    "viol": 3973,
    "##yla": 19512,
    "##ushing": 6419,
    "##uto": 16784,
    "div": 3310,
    "quick": 4030,
    "##less": 3609,
    "weeks": 3813,
    "Dershowitz": 10998,
    "appearance": 3886,
    "mid": 2982,
    "##ɽ": 1344,
    "rapper": 19642,
    "replacing": 12713,
    "##ented": 2895,
    "dining": 14289,
    "broad": 3662,
    "counterpart": 19658,
    "mortar": 15073,
    "Sc": 2296,
    "Restaur": 19761,
    "mir": 10747,
    "stress": 14030,
    "##icken": 13311,
    "Sector": 17148,
    "##angular": 10533,
    "##isch": 17740,
    "Nguy": 17597,
    "border": 6111,
    "atomic": 17223,
    "ซ": 431,
    "##gs": 17730,
    "video": 2904,
    "Anc": 8336,
    "athletic": 17429,
    "arg": 3744,
    "politics": 7945,
    "mode": 9627,
    "stealing": 18578,
    "Pr": 2665,
    "dead": 4488,
    "predominantly": 12989,
    "hampered": 13674,
    "Bram": 19499,
    "prev": 2489,
    "mixed": 4431,
    "opportun": 5481,
    "①": 583,
    "retire": 7991,
    "Eliot": 16896,
    "Council": 4708,
    "household": 7476,
    "##icating": 17206,
    "##etics": 13065,
    "Doll": 15134,
    "##ieg": 19446,
    "nomine": 19122,
    "buoy": 15983,
    "Anglo": 10298,
    "jackrabbit": 12789,
    "capacity": 7996,
    "Cincinnati": 18621,
    "##aun": 3279,
    "Broadcast": 15731,
    "2": 21,
    "Gem": 15815,
    "prince": 17244,
    "##憶": 1678,
    "##istol": 8215,
    "explosion": 16567,
    "grandfather": 11381,
    "colon": 4622,
    "detailed": 8550,
    "capable": 7407,
    "##orrhizal": 17568,
    "##ulate": 6005,
    "sic": 12838,
    "1959": 8996,
    "##ieut": 6694,
    "SNL": 13465,
    "water": 2819,
    "Morrison": 7753,
    "Arabia": 16944,
    "outf": 11203,
    "quite": 7836,
    "Exit": 17871,
    "Hen": 3759,
    "extinct": 11796,
    "2003": 3659,
    "researched": 19070,
    "self": 4713,
    "housing": 9868,
    "月": 835,
    "reforms": 11116,
    "Massachus": 9413,
    "Gold": 4184,
    "Christianity": 11824,
    "ا": 353,
    "1887": 18947,
    "studied": 7881,
    "vic": 7863,
    "Gardner": 10581,
    "obvious": 11951,
    "Pokiri": 15117,
    "tropical": 3193,
    "useful": 9301,
    "##arta": 15932,
    "extratropical": 10722,
    "##sex": 10388,
    "experimental": 12782,
    "Kaiser": 16977,
    "##ido": 19397,
    "1980": 7630,
    "Honorary": 19805,
    "Liber": 6759,
    "##erton": 17816,
    "Wisc": 13031,
    "Dig": 9526,
    "##overn": 2392,
    "Hudson": 9793,
    "component": 11935,
    "##岳": 1186,
    "outl": 7986,
    "supporter": 15989,
    "listening": 16013,
    "者": 914,
    "Del": 4785,
    "म": 397,
    "パ": 676,
    "each": 2592,
    "chance": 7682,
    "repairs": 12511,
    "Sport": 13986,
    "Rio": 7554,
    "polar": 14086,
    "fur": 2845,
    "prize": 11971,
    "trips": 16440,
    "ruling": 9973,
    "instruction": 16860,
    "hidden": 10889,
    "Imb": 12819,
    "##esthetic": 16791,
    "Wally": 17154,
    "politically": 17341,
    "##eption": 3882,
    "reducing": 10413,
    "Rowland": 17481,
    "Ælfric": 17594,
    "##owever": 2263,
    "Natural": 10732,
    "yellowish": 17954,
    "testimony": 19654,
    "traditions": 12714,
    "##isting": 15221,
    "superv": 8557,
    "##プ": 1376,
    "##onym": 4732,
    "flex": 16712,
    "mountainous": 16987,
    "##usz": 18784,
    "apparent": 8423,
    "although": 2805,
    "vehicles": 7482,
    "rig": 12427,
    "##ah": 2403,
    "Ceres": 5844,
    "1890s": 14698,
    "slated": 16429,
    "##lance": 16750,
    "Bowl": 6106,
    "violation": 12937,
    "joint": 8296,
    "##power": 11020,
    "bypass": 13072,
    "184": 4303,
    "Michelle": 18035,
    "观": 935,
    "Most": 3971,
    "愛": 806,
    "slip": 14090,
    "spear": 14049,
    "beh": 3103,
    "guidance": 13333,
    "worse": 14852,
    "Kaz": 16683,
    "professors": 18919,
    "兵": 723,
    "Artists": 19639,
    "Peters": 9877,
    "tre": 3562,
    "documented": 10696,
    "Wander": 10739,
    "robust": 17472,
    "Benadir": 19656,
    "₤": 574,
    "##ס": 1086,
    "##御": 1525,
    "hydro": 7903,
    "##stall": 15909,
    "Boad": 19918,
    "armament": 10828,
    "shock": 15573,
    "keen": 15670,
    "Hung": 8129,
    "Behind": 13660,
    "Chauvel": 15442,
    "conflicts": 11372,
    "MacAr": 17392,
    "dating": 7718,
    "Disappeared": 18100,
    "焼": 877,
    "##py": 15192,
    "poison": 9946,
    "1834": 17405,
    "Hans": 10006,
    "previous": 2827,
    "##raham": 9141,
    "action": 3861,
    "brief": 4755,
    "Chap": 6302,
    "##hesis": 16393,
    "##ο": 1175,
    "nephew": 13955,
    "fortress": 16487,
    "kingdom": 10690,
    "##ason": 2064,
    "##ānt": 8145,
    "##akim": 12873,
    "##lements": 7925,
    "Poland": 8779,
    "##urches": 7071,
    "umpire": 14850,
    "bowl": 7670,
    "Robinson": 12951,
    "Stop": 11623,
    "century": 2375,
    "35": 3803,
    "##в": 1302,
    "offic": 2565,
    "knock": 15975,
    "exem": 10783,
    "Matthew": 12174,
    "##ogether": 8530,
    "dresses": 16530,
    "steals": 18952,
    "virt": 6765,
    "##idas": 16780,
    "Assyrian": 15113,
    "##ensus": 12278,
    "乃": 705,
    "direction": 5968,
    "##hist": 9451,
    "contest": 9732,
    "child": 2742,
    "Democr": 7851,
    "##rial": 5380,
    "Stefani": 9032,
    "Bond": 7289,
    "##神": 1292,
    "actual": 9371,
    "Harry": 11518,
    "Leices": 12294,
    "ord": 3269,
    "##ense": 2932,
    "Hungarian": 11560,
    "altered": 10258,
    "witness": 7204,
    "grant": 4731,
    "assign": 14912,
    "##ult": 2010,
    "ent": 2660,
    "selling": 6688,
    "preced": 8609,
    "strateg": 8282,
    "refuge": 10557,
    "uprising": 16273,
    "Survivor": 17025,
    "spontane": 16353,
    "educational": 13605,
    "supporting": 6453,
    "herself": 6569,
    "1855": 16478,
    "sharing": 18288,
    "Bulgar": 11404,
    "twentieth": 12394,
    "Joshua": 14168,
    "tribes": 8007,
    "expense": 15224,
    "commemorated": 18543,
    "##hr": 14853,
    "##aph": 4225,
    "1937": 8225,
    "eventual": 11071,
    "##oderm": 14042,
    "##ulty": 14634,
    "##iosity": 18984,
    "Surrey": 18997,
    "##ism": 2504,
    "angl": 19416,
    "sounded": 18404,
    "copies": 5391,
    "Jenkins": 13662,
    "achievements": 14706,
    "Sw": 3534,
    "##ated": 1851,
    "Inter": 4704,
    "associ": 3639,
    "ม": 442,
    "dinosaur": 9269,
    "Trust": 10545,
    "Grace": 11805,
    "Wiśniowiec": 9424,
    "C": 38,
    "frustrated": 16158,
    "definitely": 15716,
    "hunters": 17458,
    "Oregon": 10485,
    "dimensional": 15377,
    "fitted": 10886,
    "##agger": 15565,
    "intercour": 17283,
    "threw": 11031,
    "McG": 9159,
    "景": 833,
    "##utor": 15559,
    "unh": 15948,
    "emph": 6014,
    "Rights": 19981,
    "frequency": 13873,
    "near": 2409,
    "interpretations": 18019,
    "##oga": 15232,
    "compos": 5454,
    "mete": 15996,
    "##rem": 3290,
    "boom": 14419,
    "##lor": 4426,
    "##hed": 1921,
    "Lanois": 19899,
    "##ό": 1334,
    "defeat": 4850,
    "##rie": 7264,
    "##anon": 13267,
    "岳": 784,
    "H": 43,
    "đ": 168,
    "Now": 8653,
    "stir": 15918,
    "##ỳ": 1499,
    "crypt": 17026,
    "##ộ": 1267,
    "galer": 18508,
    "##а": 1164,
    "ि": 405,
    "Lightning": 18455,
    "Ele": 12034,
    "##oom": 3721,
    "Kess": 17629,
    "##rians": 18283,
    "62": 6900,
    "##ndum": 19371,
    "##oped": 17225,
    "Ulyss": 7252,
    "Cay": 19922,
    "faces": 8266,
    "16th": 7835,
    "Ace": 10005,
    "Kit": 10115,
    "orbital": 15086,
    "ceremon": 11107,
    "authorized": 11812,
    "ultimately": 6250,
    "母": 857,
    "Rhodes": 8494,
    "##ön": 9921,
    "Ps": 12409,
    "removal": 10832,
    "106": 11481,
    "shares": 10920,
    "Spe": 13557,
    "##τ": 1253,
    "Nobel": 16598,
    "Denn": 18638,
    "##oin": 2052,
    "restored": 9573,
    "app": 1987,
    "Pope": 8016,
    "Histor": 6130,
    "feeding": 11050,
    "##the": 16279,
    "actresses": 17010,
    "Ian": 11004,
    "positioned": 13572,
    "remnants": 8951,
    "Pittsburgh": 15786,
    "Edin": 16898,
    "##ter": 1761,
    "Cooper": 10689,
    "Develop": 6566,
    "Duchess": 17617,
    "introduces": 14115,
    "Soft": 17965,
    "Intell": 13647,
    "bes": 8318,
    "creates": 18875,
    "##umble": 13282,
    "pre": 2035,
    "##pool": 4768,
    "##LI": 7724,
    "debris": 14105,
    "system": 2686,
    "cement": 16251,
    "incorporates": 14735,
    "##tt": 4035,
    "yellow": 5974,
    "corn": 5486,
    "ぜ": 610,
    "##onnaissance": 8567,
    "speculated": 13315,
    "Ule": 15843,
    "##uka": 17901,
    "Kod": 14547,
    "Off": 4432,
    "reinfor": 5733,
    "intense": 9288,
    "Base": 13961,
    "##quez": 8998,
    "Bernard": 12558,
    "Santa": 8193,
    "gauge": 17683,
    "1946": 7148,
    "sp": 1870,
    "Ross": 4710,
    "thousand": 9510,
    "##mit": 7865,
    "##pe": 15525,
    "bands": 10072,
    "##emon": 13069,
    "regions": 6389,
    "framework": 13680,
    "scale": 5785,
    "##jo": 9544,
    "raising": 11299,
    "##land": 1971,
    "##cy": 6170,
    "##anville": 11914,
    "earn": 10055,
    "sometime": 14695,
    "gram": 15259,
    "1941": 6360,
    "##ring": 3741,
    "1000": 10416,
    "backup": 18863,
    "Memorial": 9787,
    "batsman": 9028,
    "M1": 19250,
    "System": 7017,
    "siege": 8820,
    "danger": 11433,
    "Mahesh": 13148,
    "ქ": 495,
    "Cecil": 12573,
    "Sri": 13985,
    "##oice": 3623,
    "Harvey": 16179,
    "goddesses": 18534,
    "##oll": 1924,
    "##ati": 6321,
    "Hoys": 14811,
    "improvement": 12730,
    "Es": 8649,
    "安": 772,
    "##ы": 1166,
    "Town": 3525,
    "##nell": 8080,
    "comm": 2046,
    "##now": 4032,
    "##osh": 9831,
    "pos": 2171,
    "before": 2245,
    "genu": 12919,
    "Pel": 13695,
    "##华": 1318,
    "blocks": 8863,
    "included": 2773,
    "1943": 7696,
    "Hergé": 8469,
    "civilians": 11526,
    "Jar": 12405,
    "trunk": 13770,
    "Intelligence": 14793,
    "China": 5397,
    "dialogue": 9181,
    "legs": 8294,
    "##ớ": 1672,
    "dist": 2464,
    "##avian": 14040,
    "keyboards": 17910,
    "mistress": 19716,
    "##chester": 17193,
    "##stant": 4471,
    "nations": 10369,
    "gospel": 13721,
    "##ched": 2817,
    "storylines": 12508,
    "melody": 11549,
    "thunderst": 18256,
    "##phy": 7359,
    "traditionally": 15313,
    "##ienced": 19345,
    "recip": 14351,
    "##ʿ": 1217,
    "Por": 17138,
    "##د": 1321,
    "##oples": 10519,
    "Beeth": 18374,
    "abundant": 14213,
    "Less": 12040,
    "Neves": 10849,
    "##在": 1209,
    "carriage": 17828,
    "##arant": 10251,
    "spp": 19322,
    "##iday": 7342,
    "Dal": 11878,
    "##ac": 1751,
    "##önen": 12023,
    "Foot": 5018,
    "##igo": 15917,
    "##ensa": 15593,
    "Lis": 6109,
    "presence": 5171,
    "##chest": 7296,
    "杜": 841,
    "tin": 18724,
    "found": 2268,
    "molecular": 11393,
    "properties": 9680,
    "chemotherapy": 15703,
    "cleaning": 16550,
    "Andr": 12316,
    "rot": 7560,
    "graphic": 13677,
    "##phs": 18847,
    "ʼ": 235,
    "register": 14644,
    "ignore": 19735,
    "invitation": 13550,
    "producer": 5247,
    "morph": 11834,
    "##花": 1208,
    "acc": 2188,
    "mainland": 10943,
    "1978": 7838,
    "##parts": 12315,
    "Fear": 15136,
    "bodyline": 11871,
    "st": 1769,
    "sem": 4480,
    "##pted": 5210,
    "Simone": 7187,
    "Chairman": 16203,
    "##rapped": 10404,
    "Bronx": 19802,
    "inch": 6322,
    "pray": 17773,
    "Ferd": 12545,
    "##ole": 2201,
    "lunch": 19309,
    "teacher": 6481,
    "vice": 10622,
    "clip": 18300,
    "parents": 5590,
    "supplement": 10941,
    "northern": 3943,
    "Gielg": 12773,
    "FOCA": 19230,
    "##ushed": 5807,
    "alignment": 13518,
    "mould": 16261,
    "disappointment": 17939,
    "E": 40,
    "wanted": 3938,
    "Israeli": 9407,
    "tom": 10631,
    "searching": 11380,
    "##etheless": 13271,
    "beat": 5609,
    "smart": 18868,
    "Chester": 16212,
    "##anced": 4874,
    "殿": 856,
    "Magadheera": 10111,
    "108": 11943,
    "##ushes": 14036,
    "trucks": 15939,
    "##uzz": 11023,
    "det": 2700,
    "60": 4354,
    "##chie": 3709,
    "toget": 3736,
    "attractive": 14720,
    "builds": 19552,
    "ban": 11009,
    "surrendered": 12780,
    "highlighted": 13178,
    "cater": 15856,
    "##ars": 2267,
    "sheet": 15968,
    "##zzi": 19648,
    "Ral": 13699,
    "Tay": 4974,
    "Russia": 9777,
    "reconstructed": 19162,
    "##א": 1104,
    "consists": 7301,
    "anonymous": 14882,
    "##elt": 2889,
    "expand": 12905,
    "signific": 3235,
    "Mak": 13978,
    "oil": 6537,
    "stepped": 16484,
    "weakening": 13158,
    "reperto": 14242,
    "matches": 5478,
    "##ava": 6873,
    "##inge": 9820,
    "Wal": 3958,
    "send": 6775,
    "Common": 6202,
    "##ece": 14869,
    "worker": 14905,
    "radioactive": 18456,
    "stuff": 14876,
    "1875": 19627,
    "Amanita": 10994,
    "privately": 16068,
    "return": 2514,
    "priest": 9968,
    "##eeper": 12930,
    "##ugs": 12891,
    "Aut": 10004,
    "warriors": 18879,
    "powers": 7762,
    "sided": 17175,
    "##oy": 2044,
    "Ital": 4845,
    "##achi": 19470,
    "laun": 3825,
    "##itness": 6085,
    "coun": 3549,
    "Route": 4573,
    "##an": 1726,
    "##ompl": 5828,
    "hous": 4194,
    "pp": 11747,
    "##geon": 10526,
    "Latin": 4836,
    "documentary": 8427,
    "God": 3669,
    "anti": 4945,
    "1838": 15331,
    "Mount": 3459,
    "##earing": 12871,
    "Gladys": 17370,
    "Helm": 17402,
    "sculpted": 19692,
    "reduces": 18888,
    "##esi": 10629,
[...]
